t h 76547891
i n 52686537
th e</w> 47332491
a n 45567222
t i 43073986
r e 38412449
e n 32906049
e r 32175149
o n 31989272
o n</w> 28795958
o f</w> 28077913
e d</w> 24790930
a r 23938028
an d</w> 23687229
o r 23322425
in g</w> 23039531
o u 22089711
t o</w> 21857054
i t 20497106
e s</w> 18902376
a ti 18117354
o s 17858646
e r</w> 17573694
i n</w> 16863037
s t 16742639
a p 16514797
a l 16220157
a l</w> 15990734
r o 15976199
a t 15885597
e c 13874734
a t</w> 13332309
o m 13141587
i c 12607633
o r</w> 12468779
a c 12310746
i s</w> 12288657
e l 11599530
i s 11481146
ap os 11348699
& apos 11345543
q u 10523614
&apos ; 10445070
i l 10252222
m en 10225217
a n</w> 10167616
a s</w> 9983808
e s 9799792
o t 9733665
ati on</w> 9329354
a s 9234532
v e</w> 9001719
u r 8625825
s i 8449835
p ro 8355394
o l 8320234
r i 8130971
p l 7926080
e n</w> 7834076
t s</w> 7609554
f or</w> 7476025
h e</w> 7349485
th at</w> 7247400
c on 7235870
o u</w> 7164400
on s</w> 6957248
qu ot 6940702
& quot 6907352
&quot ;</w> 6907352
s u 6813281
l y</w> 6694546
e v 6675208
u n 6441071
a d 6374413
men t</w> 6254626
a b 6219944
ti on</w> 6217235
w h 6189504
u s 6047318
c e</w> 6013718
l i 5833373
i t</w> 5772209
re s 5752217
a g 5750258
c om 5697568
a m 5690499
y ou</w> 5609209
d i 5585979
o p 5538602
e m 5533896
h a 5498678
n o 5398986
2 0 5219304
it h</w> 5018190
c h 4943322
e t 4917360
&apos; s</w> 4874106
g h 4851976
e x 4848863
l e</w> 4805905
w ith</w> 4786339
t r 4771704
c i 4654823
ou n 4589132
T he</w> 4504260
f or 4484638
l o 4453153
er e</w> 4393241
b e</w> 4364630
v i 4339219
u l 4335680
th e 4317744
t er 4295852
l e 4294320
it y</w> 4215243
ar e</w> 4048367
s h 4019650
a y</w> 3919280
p or 3908670
b y</w> 3870770
i m 3843114
f f 3796848
at e</w> 3783941
v er 3727130
l d</w> 3713327
on al</w> 3679689
u c 3640737
p ar 3638278
ati ons</w> 3582570
b e 3546676
m e</w> 3459521
n e 3413721
en t</w> 3403064
d e 3400453
20 0 3393625
w as</w> 3390684
p er 3274438
a k 3229443
i r 3164917
g r 3133213
al l</w> 3087595
我 们</w> 3085918
ou ld</w> 3045053
m e 3010347
th er</w> 3007356
a r</w> 3006595
t ed</w> 2998234
w or 2977452
er s</w> 2959717
b u 2919663
t e 2894829
ha ve</w> 2850645
a in 2837068
e t</w> 2827968
ou r</w> 2821528
ou t</w> 2817803
st r 2806163
c l 2788278
g o 2740671
th is</w> 2702864
d ing</w> 2666792
d s</w> 2658611
no t</w> 2652952
T h 2637276
ro m</w> 2610922
p e 2587679
f rom</w> 2536567
re n 2534728
gh t</w> 2510405
h i 2500539
o w 2495075
u m 2479732
it s</w> 2460829
ur e</w> 2401136
ati onal</w> 2365477
s e 2361937
on e</w> 2358280
一 个</w> 2341647
s o</w> 2312687
g i 2292074
ti c 2256921
an ce</w> 2251447
i z 2243319
&apos; t</w> 2221689
c o 2213392
es s</w> 2209370
s p 2195066
il l</w> 2194061
i r</w> 2185342
ti es</w> 2183041
at ed</w> 2175129
ou r 2165754
ev el 2157506
an t</w> 2149442
t h</w> 2139622
re d</w> 2125757
t er</w> 2116951
p os 2101547
con t 2092890
i d 2075922
1 9 2061137
r a 2044797
p re 2031870
m in 1987082
c oun 1978791
国 家</w> 1975230
em b 1958913
d er</w> 1955015
i c</w> 1950575
si on</w> 1941380
h as</w> 1940908
c h</w> 1929580
ar y</w> 1889569
n ational</w> 1880918
w e 1869277
S t 1866151
w ill</w> 1861880
. . 1856470
问 题</w> 1856033
d is 1853837
ab le</w> 1843773
al ly</w> 1829310
d uc 1829088
evel op 1825421
C om 1816520
o d</w> 1814210
U n 1805014
m o 1796718
c an</w> 1791021
m an 1787098
u d 1776749
us t</w> 1774228
for m 1770379
w e</w> 1766962
t o 1760027
ic h</w> 1758131
a y 1737847
h e 1730822
in g 1727684
ti ons</w> 1727460
t ing</w> 1726090
it ed</w> 1719868
p res 1706185
a i 1696216
委 员 1694431
委员 会</w> 1689759
in ter 1677524
p r 1672134
por t</w> 1667147
the ir</w> 1659356
o c 1656151
f e 1635862
wh ich</w> 1628366
p u 1627949
他 们</w> 1624559
c e 1616831
g h</w> 1615137
or e</w> 1592890
ic e</w> 1591240
e st 1586448
no w</w> 1586440
an g 1579740
men ts</w> 1578450
m it 1576192
at es</w> 1570129
f i 1554016
pl e</w> 1526662
el l</w> 1524747
er al</w> 1506107
d evelop 1498463
ak e</w> 1491637
s ec 1485548
w ere</w> 1478432
f in 1476718
20 1 1465156
会 议</w> 1460442
W h 1455533
t u 1455436
Y ou</w> 1449679
.. .</w> 1447282
on g</w> 1446595
om e</w> 1445862
ha d</w> 1435113
be en</w> 1430017
o ther</w> 1426327
I n 1422146
ti ve</w> 1418045
y our</w> 1411501
v en 1410346
m y</w> 1404481
s er 1398982
ag e</w> 1397119
k ing</w> 1392887
g en 1383333
es s 1382413
t y</w> 1380152
s t</w> 1374106
a d</w> 1372160
I t</w> 1367963
us e</w> 1359818
e ment</w> 1355594
d er 1354675
d ed</w> 1349563
e ar 1341250
u s</w> 1338776
t ri 1336647
19 9 1332158
c re 1330552
ou s</w> 1326795
o w</w> 1322054
Un ited</w> 1320580
st e 1318330
联 合 1317071
什 么</w> 1316937
l l</w> 1314594
the y</w> 1311655
ar d</w> 1311062
s o 1310590
工 作</w> 1309333
en ce</w> 1309306
m is 1308302
e l</w> 1305573
k e</w> 1302559
a in</w> 1299295
a f 1298001
b o 1295285
p ol 1290264
u p</w> 1289501
h is</w> 1287441
r ou 1283778
al so</w> 1282066
I n</w> 1282004
re l 1280362
发 展</w> 1279577
ec t</w> 1279238
提 供</w> 1271187
C on 1265993
ver n 1264785
d u 1257723
没 有</w> 1255358
可 以</w> 1254871
men t 1253246
re c 1248886
s e</w> 1247762
bu t</w> 1247076
m ore</w> 1246394
g u 1240103
as e</w> 1237422
ac e</w> 1233076
re s</w> 1230147
进 行</w> 1229091
d e</w> 1217656
这 些</w> 1214610
es e</w> 1212326
0 0</w> 1212216
组 织</w> 1211653
l a 1204310
政 府</w> 1201417
r e</w> 1198016
d o</w> 1188017
s y 1186462
g n 1184827
en t 1182758
C h 1182511
c es</w> 1176312
w ould</w> 1172952
wor k</w> 1166221
e y</w> 1163238
v is 1161899
es t</w> 1160953
el y</w> 1159793
v er</w> 1155748
s ti 1154665
报 告</w> 1152670
ec i 1152248
in cl 1150658
ad e</w> 1149477
f u 1140161
k s</w> 1139835
as t</w> 1134835
pl e 1132208
ar i 1128259
o b 1117522
国 际</w> 1115137
ab out</w> 1110156
su p 1109665
en ti 1109572
os e</w> 1106884
a v 1100492
联合 国</w> 1095462
以 及</w> 1093060
sh ould</w> 1088124
N ations</w> 1078084
in e</w> 1074765
d o 1068931
th ere</w> 1067944
方 面</w> 1067648
A n 1065743
a u 1061044
gh ts</w> 1055011
ic al</w> 1052544
g an 1046971
通 过</w> 1044976
t ec 1044351
r u 1042381
ff ic 1037157
su b 1036572
op er 1035507
al l 1034249
p ri 1031640
re t 1030419
g et</w> 1027145
ti me</w> 1025120
te e</w> 1024379
包 括</w> 1022485
ci al</w> 1021933
p h 1009209
关 于</w> 1006837
t en 1006694
d ec 1005832
i es</w> 1003990
c or 1000718
wh at</w> 1000653
th ing</w> 994057
i on</w> 993531
m on 993092
res p 990189
os t</w> 989240
ai d</w> 987881
h er</w> 982547
t w 981347
mit tee</w> 975891
li ke</w> 971217
re qu 969671
lo w 969164
R e 968304
p o 964152
ati ve</w> 963027
am e</w> 957958
&apos; m</w> 955688
pro vi 948367
al s</w> 948084
f ac 945637
k now</w> 944712
G en 942187
at ing</w> 941814
or y</w> 940807
pe o 939874
ol u 935482
b et 934110
v es</w> 932039
情 况</w> 930986
m ar 928626
f ir 927400
ev er</w> 927177
an y</w> 927019
S ec 925197
p en 923440
c ri 919764
可 能</w> 916535
&apos; re</w> 915463
or s</w> 915412
oun d</w> 914795
develop ment</w> 912410
is h 912272
知 道</w> 911534
emb er</w> 909363
ne w</w> 907530
i f</w> 907267
d ay</w> 904572
w i 903035
i ties</w> 901677
社 会</w> 900697
&apos ;</w> 900473
com m 899123
ac k</w> 899120
d on</w> 897822
i st 897299
re g 896184
g e</w> 893041
其 他</w> 892866
inter national</w> 891630
gr am 889836
f l 889477
需 要</w> 889302
in v 888968
如 果</w> 888182
in to</w> 886110
ing s</w> 885149
n o</w> 883936
h um 883516
t ure</w> 881981
b as 877531
il l 875099
ow n</w> 871967
Com mittee</w> 870656
f r 866370
j ust</w> 866098
s el 859359
su ch</w> 858931
这 个</w> 858869
gan iz 857231
u t</w> 856879
W e</w> 856612
v ed</w> 855392
机 构</w> 852985
peo ple</w> 850710
an d 844447
G o 844091
St ates</w> 842198
tri es</w> 839548
w ay</w> 839296
pu b 838680
ri ght</w> 833316
ay s</w> 833260
所 有</w> 829526
s ome</w> 829134
方 案</w> 828852
as s 828153
c er 827280
il ity</w> 827178
e f 820200
a m</w> 819564
wh o</w> 817301
Gen eral</w> 815614
por t 814109
U N 812439
有 关</w> 809858
ac ti 809488
a re 806278
tr an 805188
su l 803861
1 0</w> 802937
c ess</w> 799256
h el 799106
b le</w> 798872
om en</w> 796067
v ing</w> 791315
re gi 790976
com p 790120
e w</w> 788223
il e</w> 787798
s aid</w> 787793
coun tries</w> 784881
re e</w> 784217
特 别</w> 783693
in form 783582
P ro 782424
ol d</w> 780487
o k</w> 780342
wh en</w> 780130
i g 780097
the m</w> 778079
i a</w> 774450
hi m</w> 771949
u m</w> 765142
- @</w> 764824
@ -@</w> 763942
因 为</w> 761962
经 济</w> 757959
per s 756422
f o 755583
H e</w> 753209
活 动</w> 751843
i ght</w> 750350
g y</w> 750054
n ing</w> 749927
d es 749317
th rou 745249
b ec 742948
人 员</w> 742879
on om 742112
执 行</w> 741232
h n 740946
ser v 740514
ste m</w> 740153
ac h</w> 740037
li c</w> 739126
ol o 736135
y - 734370
vern ment</w> 732899
u p 729741
ti m 728409
u e</w> 727161
行 动</w> 725706
per i 724551
m il 724334
incl u 721619
系 统</w> 721093
th an</w> 720673
ic ation</w> 720483
tw o</w> 717779
sp eci 715474
f t</w> 715203
f un 714698
b er</w> 714650
s he</w> 708944
si st 707923
An d</w> 707528
已 经</w> 707354
g o</w> 707086
wi th 706623
ab l 706048
ur ity</w> 704779
安 全</w> 704620
c ould</w> 704138
lo c 703941
it e</w> 703019
sh i 700364
ec onom 698682
不 是</w> 698659
y e 697709
an s</w> 695214
un der</w> 694274
o ver</w> 691186
g e 688221
tr y</w> 687262
ri ghts</w> 686380
e ff 685938
on ly</w> 682805
C oun 681036
in k</w> 680575
str uc 680091
pro gram 677981
a use</w> 676691
ven tion</w> 676555
a st 675501
m ade</w> 675385
自 己</w> 672956
ur ing</w> 671829
研 究</w> 671699
en ts</w> 670837
ch il 667125
m at 666976
sy stem</w> 666949
g re 666617
a il 666471
tic al</w> 666027
throu gh</w> 665339
ver y</w> 664217
建 议</w> 662474
k ed</w> 659795
le g 659452
B ut</w> 659185
妇 女</w> 656223
h ere</w> 655978
inclu ding</w> 655760
c ur 655678
k e 653883
Th is</w> 652963
om e 651910
in a</w> 651680
we en</w> 650997
w ell</w> 650795
c ap 649563
技 术</w> 649367
w omen</w> 649291
mis sion</w> 648590
ap pro 647712
olu tion</w> 647270
com e</w> 646999
m ay</w> 645420
m an</w> 644829
or ganiz 644792
pub lic</w> 643878
一 些</w> 643539
for e</w> 641875
at e 640173
hum an</w> 639693
th ese</w> 638327
t ake</w> 637892
j ec 637285
p s</w> 637101
re port</w> 636677
认 为</w> 635238
1 2</w> 634713
ren t</w> 634572
is su 634451
c y</w> 633318
bet ween</w> 632297
d el 632241
d re 632029
im ple 631212
cont in 631019
ne ed</w> 630346
sti tu 630240
ch ang 630204
公 司</w> 630186
i al</w> 629921
i d</w> 629653
e qu 628343
inform ation</w> 628107
us ed</w> 627367
un der 627343
t e</w> 626295
t ak 624454
fir st</w> 624427
ci l</w> 622466
必 须</w> 621861
c our 621520
el l 620764
合 作</w> 619486
p er</w> 619375
决 议</w> 618298
影 响</w> 617944
根 据</w> 614383
tec hn 614377
公 约</w> 613551
resp on 613216
at er</w> 611216
ren ce</w> 608623
但 是</w> 607769
sup port</w> 606931
A s 606022
i ti 605260
tran s 604673
中 国</w> 604612
m ost</w> 604018
th ose</w> 603748
se e</w> 600916
h an 599830
en d</w> 599523
is h</w> 599146
使 用</w> 596790
pro duc 595925
Wh at</w> 595896
现 在</w> 594132
ev er 593823
b l 593664
d et 593649
提 出</w> 593573
c ol 593178
y ear 589969
秘 书 589965
t ly</w> 589028
项 目</w> 588226
计 划</w> 587730
t re 587050
m s</w> 585562
o f 585315
&apos; ll</w> 584921
fu l</w> 582471
人 权</w> 581429
b r 580615
重 要</w> 580415
Coun cil</w> 579451
con si 577568
b i 576319
res s</w> 575973
t or</w> 574354
c ar 574049
in te 573875
m ake</w> 573872
j o 572307
ic es</w> 572177
ti c</w> 571231
工 作 570734
s ure</w> 570384
支 持</w> 570294
区 域</w> 570072
comm un 569980
v e 569343
is t</w> 567399
in cre 566439
& # 565565
2 0</w> 563746
ment ation</w> 561216
规 定</w> 558436
h ow</w> 557915
al ity</w> 557292
&# 9 556485
In ter 554609
m a 554459
y ing</w> 554120
f ul 553811
s ed</w> 553731
d ic 551909
f ol 551720
ff e 551451
决 定</w> 550883
th en</w> 549888
ul ar</w> 549821
n um 548726
r y</w> 548556
t ur 548081
year s</w> 547250
com pl 545494
儿 童</w> 545190
ac h 545125
s ome 545077
l ar 544624
ap pl 543936
u res</w> 542716
m ain 540130
f e</w> 539908
部 分</w> 539643
wh ere</w> 538972
em s</w> 538368
oper ation</w> 537327
go od</w> 536140
这 种</w> 534823
w ant</w> 534269
这 样</w> 532978
th ou 532584
par t 531420
im port 530993
d ent</w> 530795
服 务</w> 529775
措 施</w> 529508
me et 528863
s ur 528750
pl o 528100
大 会</w> 527535
d y</w> 526777
me as 526724
美 国</w> 526037
est abl 525804
is e</w> 525405
方 法</w> 525049
权 利</w> 524630
管 理</w> 524118
vi ew</w> 523549
c r 521795
man y</w> 521658
th ink</w> 521613
st an 521460
要 求</w> 521370
ain st</w> 519544
ye ar</w> 519249
n ed</w> 515767
Sec ret 515003
ac t</w> 513295
d ra 513131
pol ic 509730
时 间</w> 509678
政 策</w> 509620
主 要</w> 509058
缔 约 509007
就 是</w> 508250
af ter</w> 508172
ag ainst</w> 508007
com men 506308
eff ec 504980
事 会</w> 504621
con cer 504576
作 为</w> 504474
on - 504281
lo w</w> 503848
A c 503414
3 0</w> 502897
en g 501650
ment al</w> 500575
res olution</w> 500240
任 何</w> 500236
世 界</w> 499889
i f 498264
你 们</w> 497428
目 标</w> 496558
re por 496379
coun try</w> 495323
ti onal</w> 494156
so ci 493688
继 续</w> 493337
1 1</w> 492924
b el 492844
fe rence</w> 492370
ec ted</w> 492098
si gn 490928
代 表</w> 490916
ou t 490205
ci p 489668
re sul 489499
ch o 488021
b ack</w> 487188
gr ou 485184
man ag 485000
c ent</w> 484630
m ust</w> 484240
ab ility</w> 483212
dre n</w> 481986
St ate</w> 481468
s es 480733
vi r 480596
法 律</w> 479970
go t</w> 479705
关 系</w> 479630
理 事会</w> 478822
n ot 478567
Th at</w> 478530
or der</w> 478104
能 力</w> 477160
is m</w> 476504
保 护</w> 476391
e p 475885
po in 475819
ro w 474008
wor ld</w> 473936
ain ing</w> 473676
i str 472381
or d 471758
a ff 470836
一 种</w> 470723
di d</w> 470643
bu il 469703
shi p</w> 469431
go ing</w> 467600
vi ties</w> 465776
for m</w> 465755
r ap 465678
ev en</w> 464483
la w</w> 463834
0 00</w> 462895
on g 461286
o l</w> 460748
ri bu 460501
开 始</w> 460399
P ar 459837
par tic 459591
a h</w> 458535
先 生</w> 458296
As s 457523
c en 456491
fin an 456489
ex t</w> 455645
i tion</w> 455558
in ce</w> 455551
t le</w> 455445
al iz 455122
il y</w> 453844
emb ly</w> 453446
imple mentation</w> 453211
行 为</w> 453210
资 源</w> 453145
ot h</w> 451740
econom ic</w> 450932
an ts</w> 448648
o t</w> 447945
a ve</w> 447705
au th 447608
o ff 447223
A d 446754
c u 446668
加 强</w> 446275
our ces</w> 445407
acti vities</w> 445138
努 力</w> 443902
m er 443865
e d 443009
num ber</w> 441038
be ing</w> 440946
美 元</w> 440650
主 义</w> 440143
si ons</w> 439107
&apos; ve</w> 438688
因 此</w> 438648
v al 437679
si ble</w> 437594
之 间</w> 437459
par ti 436742
不 能</w> 436711
Go vernment</w> 436691
1 5</w> 436281
得 到</w> 435943
ar ds</w> 435461
a ir 435183
re commen 434801
教 育</w> 434520
d em 432501
ce p 432108
促 进</w> 432017
tic le</w> 431773
chil dren</w> 431239
建 立</w> 430885
o p</w> 430310
时 候</w> 430262
ef for 430083
信 息</w> 429252
uc h</w> 429044
n a</w> 428325
w s</w> 427534
c ul 427366
requ i 426790
地 区</w> 425376
be fore</w> 424927
re ad 424905
l ev 424730
Ass embly</w> 424697
o ffic 423405
j ect</w> 422780
采 取</w> 422260
p eci 422042
n ec 421446
en d 421297
s it 420662
fol low 420540
r it 419804
di ffe 419729
incl ud 419231
establ ish 418633
d n</w> 417434
pro cess</w> 416819
sec urity</w> 416434
实 现</w> 415431
不 会</w> 415064
ch ar 414485
on d</w> 413998
确 保</w> 413926
k no 413904
t ro 413813
u ation</w> 413131
N o</w> 412537
pres ent 412516
si ve</w> 412434
st ud 412151
f ur 412026
d own</w> 411920
t al 411653
th er 411127
e g 410631
I f</w> 410032
cont ro 409873
al th</w> 409585
hi gh 408635
ter s</w> 407597
lev el</w> 407584
l and</w> 406908
ig n</w> 405787
im pro 405166
和 平</w> 404942
r .</w> 404310
应 该</w> 402474
al y 402137
部 门</w> 402122
et y</w> 401823
li fe</w> 401576
ses sion</w> 400388
作 用</w> 400310
el ec 398778
表 示</w> 398321
e duc 398166
Con vention</w> 397678
d at 396926
vi ol 396629
ad op 396310
m ak 396206
bec ause</w> 395457
i an</w> 395029
ou s 395021
m ot 394866
p ur 394547
l it 394078
A l 393635
c ed</w> 393588
环 境</w> 393169
ex p 392920
s en 392892
D ec 392559
ar t</w> 392146
bas ed</w> 391868
f am 391730
ac cor 391510
Com mission</w> 391299
其 中</w> 390752
sel f</w> 390716
注 意</w> 390151
W or 390002
Th ey</w> 389121
E x 387654
o ver 386555
dec is 385740
lo b 385532
d uring</w> 385127
ic a</w> 385099
c as 385080
o m</w> 384380
v en</w> 383910
增 加</w> 383478
vir on 383232
p a 382866
ac tion</w> 382756
实 施</w> 382697
meas ures</w> 382499
h ap 381862
me th 381821
A r 380966
ain ed</w> 379669
olo gy</w> 379492
E n 378454
它 们</w> 377807
处 理</w> 376758
si de</w> 375029
200 5</w> 374765
in d</w> 374174
di rec 374134
pro pos 373464
e p</w> 373422
th ree</w> 373212
T o</w> 372476
meet ing</w> 372187
ad d 370532
m emb 369910
su m 369607
p ow 369264
an k</w> 369248
b oth</w> 369246
提 交</w> 368677
id e</w> 368422
l in 368421
d oc 367833
秘书 长</w> 367765
200 8</w> 367470
希 望</w> 367351
- -</w> 367070
par t</w> 366263
正 在</w> 366055
i ons</w> 366040
期 间</w> 366039
Inter national</w> 365622
m ul 365530
sti ll</w> 365010
ne e 364429
能 够</w> 364000
s et</w> 363376
provi de</w> 363366
文 件</w> 362999
import ant</w> 362034
y p 361640
ver s 361448
li on</w> 361140
ag re 360571
l ed</w> 360417
regi onal</w> 360383
s m 360020
wh ile</w> 359880
chang e</w> 359076
re st 358990
b us 358945
同 时</w> 358944
这 一</w> 358682
pl ace</w> 358666
s ame</w> 358581
考 虑</w> 358548
分 析</w> 358474
中 心</w> 358305
获 得</w> 358252
s ol 357965
不 同</w> 357939
相 关</w> 357894
P re 357866
c le 357746
ad v 357714
co operation</w> 357454
m es</w> 357422
一 次</w> 357213
发 生</w> 357055
5 0</w> 356916
parti cip 356794
w ays</w> 356768
ex am 356531
200 9</w> 356109
an y 356108
m uch</w> 355691
ord in 355035
pr in 354871
具 有</w> 354678
ren g 354521
领 域</w> 354052
so cial</w> 353951
par ty</w> 353543
ar ly</w> 353414
effor ts</w> 352434
S o</w> 352080
举 行</w> 351663
生 活</w> 351558
ag es</w> 351511
an n 351481
M r.</w> 351408
finan cial</w> 350807
me di 350720
S he</w> 350407
manag ement</w> 350127
v ely</w> 349809
res ources</w> 349524
cri min 349422
sist ance</w> 348778
f ri 348391
s c 346810
Ch ina</w> 346607
f er 346282
t en</w> 345882
全 球</w> 345755
of f</w> 345743
201 0</w> 345729
200 6</w> 345623
c us 345402
为 了</w> 344942
h ol 344605
A fr 344536
serv ices</w> 344411
ec u 344271
i p 343573
pro tec 343126
go vern 342735
program me</w> 342646
fur ther</w> 342244
有 效</w> 342203
at t 342072
e ach</w> 341984
c all 341930
由 于</w> 341749
200 7</w> 341336
C o 341081
contin u 340839
a w 340478
程 序</w> 340456
pu t</w> 340394
ac coun 339675
Th ere</w> 339273
i tical</w> 339191
1 0 338866
A s</w> 338558
援 助</w> 337502
ad di 337151
参 与</w> 336916
s ay</w> 336380
方 式</w> 336143
pl an 336118
as ed</w> 336070
所 以</w> 335917
fi ed</w> 335223
h ar 335131
ic an</w> 334831
kno w 334746
bo dy</w> 334686
to o</w> 334660
with in</w> 334659
ag rap 334463
成 为</w> 334200
ati c</w> 334131
organiz ations</w> 333573
c ess 333467
地 方</w> 332649
1 4</w> 331975
v ari 331852
t ain</w> 331749
r is 331694
an aly 331658
告 诉</w> 331312
ti on 331282
而 且</w> 330616
li m 330616
成 员</w> 329946
tak en</w> 329818
提 高</w> 329580
R i 329355
主 席</w> 328937
基 金</w> 328641
st reng 328504
ow ever</w> 328252
t ors</w> 327971
l ast</w> 327770
指 出</w> 327411
许 多</w> 327304
cont ribu 327100
D evelop 326929
一 步</w> 326844
as s</w> 326074
Secret ar 326017
os s</w> 325700
res t</w> 325649
b ro 325491
u ro 325478
c an 324459
讨 论</w> 324397
in ess</w> 324387
缔约 国</w> 324250
s es</w> 324007
in di 323603
l ine</w> 323449
pl es</w> 323216
200 4</w> 321908
hi gh</w> 321468
k et</w> 321366
plo y 320946
g l 320674
issu es</w> 320480
解 决</w> 320391
利 用</w> 320273
en viron 320142
pro ce 319880
w ater</w> 319183
f a 318297
ati on 318227
y- General</w> 318225
ac hi 318158
min istr 317898
par agrap 317878
这 里</w> 317747
hel p</w> 317719
开 展</w> 317669
目 前</w> 317353
in stitu 317206
l ess</w> 317008
武 器</w> 316957
O h</w> 316369
ar ticle</w> 316018
Secretar y-General</w> 315904
u al</w> 315820
I s 315611
educ ation</w> 315548
Y e 315000
n on- 313765
lob al</w> 313585
memb ers</w> 313465
str ate 313297
那 些</w> 313010
pres ent</w> 312921
持 续</w> 312672
le t</w> 312654
N o 312527
si dent</w> 312438
1 8</w> 312034
一 项</w> 311759
结 果</w> 311682
数 据</w> 311317
sh all</w> 310734
el d</w> 310084
auth or 310045
i e 310024
leg al</w> 309945
l ong</w> 309535
dis cus 309438
ou th</w> 309364
en sure</w> 309159
战 略</w> 308768
rel ated</w> 308758
pro vis 308601
只 是</w> 308043
目 的</w> 307874
201 1</w> 307874
1 6</w> 307617
he alth</w> 307536
dat a</w> 307484
国 际 307412
e - 306906
are as</w> 306754
lo o 306538
各 国</w> 306453
st at 305888
lit tle</w> 305601
provi ded</w> 304892
i gn 304563
存 在</w> 303850
i l</w> 303841
ce i 303791
审 查</w> 303462
怎 么</w> 303282
s ing</w> 303094
n er 302895
peri od</w> 302759
al e</w> 302054
政 治</w> 301212
200 0</w> 301178
起 来</w> 300515
s pe 299730
with out</w> 299645
对 于</w> 299635
1 3</w> 299502
草 案</w> 299491
b ility</w> 299274
b il 299029
f ic</w> 298854
审 议</w> 298653
pr is 298136
col l 298042
ic ations</w> 297822
s cho 297347
ul ation</w> 296919
200 3</w> 296702
pro mot 296526
re co 296368
b re 296262
D e 296256
go vernment</w> 296177
调 查</w> 295735
确 定</w> 295316
及 其</w> 295211
gi ve</w> 295128
de pen 294715
af f</w> 294597
m i 294541
2 5</w> 294277
o ds</w> 294233
n ever</w> 293890
cl u 293702
es ti 293193
en cy</w> 292810
这 是</w> 292182
两 个</w> 291621
e ments</w> 291317
read y</w> 290822
develop ing</w> 290813
人 民</w> 290470
pol itical</w> 289555
contro l</w> 289536
发 现</w> 289180
s ince</w> 289141
qu es 289017
如 何</w> 288807
s k 288361
n er</w> 288229
cap ac 288201
Develop ment</w> 287896
资 料</w> 287525
re ally</w> 286866
d ate</w> 286494
u t 286358
共 和 286298
rel ev 286226
wor king</w> 286150
g g 286109
pro b 285960
diffe rent</w> 285696
bu d 285220
in ese</w> 285102
g on 285047
b er 284693
O r 284523
d es</w> 284407
as sistance</w> 284221
en ing</w> 284109
1 ;</w> 283846
&#9 1;</w> 283846
n ess</w> 283671
进 一步</w> 283366
di st 283364
g row 283292
ati ves</w> 283218
孩 子</w> 283051
最 后</w> 282734
in iti 282530
un i 282199
小 组</w> 281714
polic y</w> 281593
M in 281405
Con ference</w> 281069
c ase</w> 280827
iz ed</w> 280803
at ure</w> 280579
b en 280366
wh e 280251
ec han 280029
任 务</w> 279686
W ell</w> 279379
com mit 279347
一 样</w> 279218
it al</w> 279005
G rou 278967
200 2</w> 278899
gon na</w> 278134
lo ok</w> 278111
ex peri 278075
喜 欢</w> 277459
标 准</w> 277293
wor k 277170
tr aining</w> 277113
M ar 276984
作 出</w> 276841
e m</w> 276817
hel d</w> 276817
减 少</w> 276312
re cei 276137
一 起</w> 275358
di es</w> 275158
le ad 275041
市 场</w> 274878
inte gr 274773
g ress</w> 274694
还 是</w> 274548
Sec urity</w> 274377
员 国</w> 274373
id enti 274294
Ye ah</w> 274025
企 业</w> 274002
A mer 273991
d r 273494
ac k 273120
机 会</w> 272925
代 表 272860
partic ular</w> 272811
参 加</w> 272666
o re 272656
doc u 272649
3 ;</w> 272639
&#9 3;</w> 272639
协 调</w> 271827
dra ft</w> 271733
200 1</w> 271671
n i 271668
some thing</w> 271077
Grou p</w> 271075
buil ding</w> 270836
非 常</w> 270599
机 制</w> 270491
am ong</w> 270227
并 且</w> 269868
ac e 269722
为 什么</w> 269406
D i 269361
con di 269301
发 展 269243
人 们</w> 269198
g et 269010
O ff 268512
H um 268490
T r 268366
st aff</w> 268358
re present 268346
s ev 267959
一 直</w> 267917
ex pres 267854
ever y 267474
Ri ghts</w> 267427
p ap 267345
产 生</w> 267280
gre at</w> 266924
p op 266846
bet ter</w> 266570
relev ant</w> 266332
tic s</w> 266204
a w</w> 265934
共和 国</w> 265689
意 见</w> 265590
ap pe 265563
F or</w> 264883
h ou 264631
r ang 264324
paragrap h</w> 264291
ar m 264191
支 助</w> 264176
过 程</w> 263918
o k 263860
文 化</w> 263338
E uro 263299
L i 263092
grou p</w> 262732
是 否</w> 262716
A t</w> 262410
tur al</w> 262395
或 者</w> 261598
还 有</w> 261375
201 2</w> 261165
mat er 261165
m ain</w> 261004
us ing</w> 260931
at ten 260901
enti al</w> 260634
recommen d 260358
gen er 260270
一 切</w> 260214
nec ess 260138
pos sible</w> 260037
program mes</w> 259833
S peci 259717
&apos; d</w> 259463
ffic i 259441
speci al</w> 259401
2 1</w> 259313
ur al</w> 259251
第 二 259112
A ll</w> 258824
st and 258818
帮 助</w> 258745
su c 258698
f ace</w> 258640
Re public</w> 258623
u b 258346
e i 258304
觉 得</w> 258005
tre at 257635
do es</w> 257626
接 受</w> 257463
st ri 257101
y s</w> 256735
基 础</w> 256716
di dn</w> 256707
培 训</w> 256633
1 7</w> 256548
g ir 256461
a im 256347
we e 256289
sit uation</w> 256149
uc le 256134
fun c 255814
条 件</w> 255518
h al 255353
are a</w> 255163
ma j 255094
取 得</w> 254689
看 到</w> 254162
m echan 254095
pl ac 254055
effec tive</w> 254030
f ound</w> 253858
预 算</w> 253804
t or 253770
Off ice</w> 253583
控 制</w> 253459
am p 253448
那 么</w> 253215
the re 253017
ic t</w> 253001
B o 252797
im p 252789
j ud 252701
fo re 252693
con tr 252391
res ear 252371
sec ond</w> 251914
各 种</w> 251829
a k</w> 251235
re as 251026
范 围</w> 251005
m or 250852
不 过</w> 250599
d ance</w> 250117
办 法</w> 250097
follow ing</w> 249700
人 口</w> 249653
s or 249316
ac cess</w> 248948
c ing</w> 248731
用 于</w> 248728
ar ound</w> 248692
an g</w> 248176
ever y</w> 248157
ent ly</w> 248082
制 度</w> 248073
protec tion</w> 247668
2 4</w> 247507
fin d</w> 247238
3 1</w> 247029
consi der 246611
it ary</w> 246331
评 估</w> 245910
事 务</w> 245691
li ght</w> 245364
s ci 245248
p ed</w> 245064
contin ue</w> 245006
pers ons</w> 244943
an other</w> 244791
n or 244354
出 现</w> 244328
之 后</w> 244248
in dic 243947
op e</w> 243934
非 洲</w> 243743
东 西</w> 243451
mil lion</w> 243326
制 定</w> 243253
t ell</w> 242840
说 明</w> 242692
I I</w> 242397
in du 242204
之 前</w> 242189
h ome</w> 242176
工作 人员</w> 242040
g lobal</w> 241740
原 则</w> 241588
199 9</w> 241437
1 9</w> 241370
cen tr 241107
lo ve</w> 240916
sy st 240651
bus iness</w> 240435
m ember</w> 240266
k ey</w> 240182
det er 239921
at ely</w> 239842
inv ol 239778
m en</w> 239739
b an 239518
e as 239510
thou gh</w> 239448
loc al</w> 239427
设 计</w> 239403
f oc 239332
ro le</w> 239310
2 2</w> 238832
at h</w> 238616
6 0</w> 238191
commun ity</w> 238126
er v 238043
那 个</w> 238002
Speci al</w> 237951
re view</w> 237790
代表 团</w> 237497
ic k</w> 237035
de red</w> 236806
4 0</w> 236237
ful l</w> 236160
pro f 235834
m ight</w> 235825
特 派 235569
投 资</w> 235437
i ed</w> 235338
ob jec 234944
A u 234758
特派 团</w> 234701
法 院</w> 234683
. 1</w> 234673
pos ition</w> 234669
us ti 234399
建 设</w> 234365
t ow 234219
decis ion</w> 234089
H ow</w> 233976
Hum an</w> 233856
w a 233681
st ain 233519
fam ily</w> 233272
ag ain</w> 233210
av ail 232973
变 化</w> 231887
t ot 231855
n al</w> 231713
d om 231681
fac il 231580
prin ci 231454
框 架</w> 231445
is l 231354
F or 231259
al ways</w> 231215
采 用</w> 231194
例 如</w> 231105
inv est 231070
t yp 230118
今 天</w> 229956
然 后</w> 229606
fi eld</w> 229305
l es</w> 229277
认 识</w> 229179
斯 坦</w> 229072
i ous</w> 229061
造 成</w> 228865
wh y</w> 228368
平 等</w> 228326
am e 228104
u r</w> 228083
un e</w> 227914
S h 227867
部 队</w> 227664
v ic 227600
or ity</w> 227354
ec tion</w> 227286
cas es</w> 226978
tim es</w> 226470
pers on</w> 226444
选 择</w> 226317
以 便</w> 226243
re li 226100
cl os 226053
t able</w> 225980
an ti 225824
pri v 225717
O n 225671
part ment</w> 225293
stud y</w> 225252
条 约</w> 225093
b est</w> 224997
tr ade</w> 224532
reg ard</w> 224514
nee ds</w> 224478
esti g 224465
家 庭</w> 224456
c are</w> 224412
进 程</w> 224213
in es</w> 224109
pap er</w> 224092
vi e 223823
c a 223673
tr ad 223598
ex ist 223465
ir d</w> 223357
这 么</w> 223248
201 3</w> 223230
n s</w> 222926
l ing</w> 222899
结 构</w> 222242
call ed</w> 222057
强 调</w> 222016
秘书 处</w> 222002
gen eral</w> 221855
L e 221842
requ est 221805
adop ted</w> 221785
ex pl 221740
此 外</w> 221704
com b 221628
me ans</w> 221429
mul ti 221385
pow er</w> 221334
th s</w> 221201
n ext</w> 220840
ol e</w> 220772
del eg 220451
resp ect</w> 220365
贸 易</w> 220346
mak ing</w> 220205
i de 220123
完 成</w> 220074
st ar 220026
必 要</w> 219832
mar ket</w> 219824
re duc 219646
techn ology</w> 219542
很 多</w> 219439
ben ef 219397
2 3</w> 219349
necess ary</w> 219193
有 人</w> 219132
establish ed</w> 219065
par ties</w> 218981
表 明</w> 218927
appro pri 218698
s w 218560
S o 218475
介 绍</w> 218237
struc tion</w> 218135
o ve</w> 218085
d ro 217980
pe ace</w> 217856
con duc 217821
P e 217779
to day</w> 217677
g ical</w> 217594
em ploy 217452
责 任</w> 216879
co ordin 216770
犯 罪</w> 216730
一 定</w> 216711
受 到</w> 216478
ati s 216295
incre ase</w> 216283
过 去</w> 216251
con sul 216179
n ucle 216003
w el 215838
冲 突</w> 215597
serv ice</w> 215361
pro gress</w> 215209
ge ther</w> 215007
自 由</w> 214722
不 要</w> 214698
只 有</w> 214624
P er 214593
a way</w> 214540
费 用</w> 214429
pl an</w> 214290
if ic 214194
regi on</w> 213992
朋 友</w> 213978
ab il 213794
f ication</w> 213727
I C 213724
ou l 213723
de f 213671
b ur 213476
19 8 213409
sm all</w> 213310
pl y</w> 213020
d ge</w> 212912
en tr 212827
中 国家</w> 212753
发展 中国家</w> 212753
199 8</w> 212681
s on</w> 212625
ful ly</w> 212517
Wh en</w> 212511
Or ganiz 212348
achi ev 212167
cur rent</w> 211888
ac y</w> 211866
me an</w> 211742
ab ly</w> 211717
ari at</w> 211505
原 因</w> 211333
ou gh</w> 211170
银 行</w> 210834
m un 210587
our s</w> 210406
产 品</w> 210356
ci es</w> 210059
w an 210048
er ing</w> 209804
deter min 209592
he ad</w> 209438
stan ding</w> 209400
h y 209384
compl et 209256
Pre sident</w> 208824
i als</w> 208666
b ri 208630
严 重</w> 208517
, 000</w> 208496
bas is</w> 208441
b ed</w> 208423
poin t</w> 208254
O n</w> 207983
th ers</w> 207931
or ing</w> 207874
to gether</w> 207873
t - 207771
in tro 207679
o od</w> 207587
准 备</w> 207532
grou ps</w> 207496
ro w</w> 207482
fu ture</w> 207476
ai l</w> 207413
d ri 207397
includ e</w> 207318
struc ture</w> 207194
per form 207169
p tion</w> 207043
inv estig 207015
mil itary</w> 207015
as k</w> 206847
ous ly</w> 206399
ad ministr 206337
z e</w> 206127
sup por 205986
w ar 205775
pr ac 205775
的 话</w> 205575
am oun 205490
ci r 205352
专 家</w> 205277
ir e</w> 204817
c all</w> 204723
vi l</w> 204544
l s</w> 204353
进 展</w> 204082
reco gn 204018
an t 203823
vi du 203803
s af 203746
d en 203358
techn ical</w> 203309
pro ject</w> 203175
for ce</w> 203087
mon ey</w> 203087
at or</w> 202980
develop ed</w> 202820
p ing</w> 202647
ec ts</w> 202616
负 责</w> 202418
qu ality</w> 202357
形 式</w> 202300
m it</w> 202265
f il 202188
al ready</w> 202135
c os 202087
Wh y</w> 202004
ul arly</w> 201834
sign ific 201747
st ate</w> 201678
resear ch</w> 201583
le ar 201533
尽 管</w> 201421
repor ts</w> 201374
mon it 201372
si bility</w> 200728
歧 视</w> 200671
st u 200602
resul ts</w> 200377
iz ation</w> 200367
ac c 200279
s is</w> 200135
be g 200135
th ings</w> 200002
H e 199941
生 产</w> 199934
ne l</w> 199917
按 照</w> 199836
con fl 199463
1 5 199338
了 解</w> 199303
vari ous</w> 199303
l ong 199261
gi ven</w> 199172
scho ol</w> 199057
ter m</w> 198996
R es 198821
r ic 198613
t em 198496
avail able</w> 198490
适 当</w> 198456
requi re 198360
in ation</w> 198335
ay ing</w> 198259
f re 198216
accor dance</w> 198191
issu e</w> 198185
exam ple</w> 198044
le m</w> 197971
ul es</w> 197953
1 8 197539
无 法</w> 197526
indi vidu 197492
tr a 197455
sh ow 197445
w ard</w> 197306
我 要</w> 197239
d ays</w> 197128
soci ety</w> 197087
M y</w> 197010
pro jec 196922
办 公 196910
ch em 196888
全 面</w> 196851
改 革</w> 196809
do m</w> 196729
fo od</w> 196720
议 程</w> 196716
bec ome</w> 196643
d ers</w> 196470
st s</w> 196429
健 康</w> 196378
del i 196105
2 6</w> 196080
k ind</w> 196036
o d 195763
r or 195735
h u 195641
l at 195603
we ap 195549
真 的</w> 195451
联 盟</w> 195344
ch ina</w> 195313
meth od</w> 195075
工作 组</w> 194963
ch all 194898
air s</w> 194890
s et 194808
暴 力</w> 194506
gi es</w> 194497
speci fic</w> 194352
pol ice</w> 194289
n am 194270
之 一</w> 194270
1 00</w> 194269
gr ap 193601
stain able</w> 193574
hou se</w> 193561
a z 193554
viol ence</w> 193328
具 体</w> 193177
tak ing</w> 193170
chil d</w> 193071
leg isl 192931
do ing</w> 192847
设 施</w> 192822
欢 迎</w> 192765
st and</w> 192732
de fin 192498
im pl 192377
h en 192347
应 用</w> 192312
Pro gram 192225
vis ion</w> 192198
oc r 192089
to ok</w> 192017
th em 191912
en ces</w> 191668
port un 191662
in f 191592
du ce</w> 191577
thou ght</w> 191497
1 . 191461
se qu 191368
t om 191272
资 金</w> 191214
prob lem</w> 191165
直 接</w> 191138
应 当</w> 190949
共 同</w> 190913
cour se</w> 190891
hal f</w> 190695
our ce</w> 190688
Dec ember</w> 190686
maj or</w> 190650
ag ed</w> 190581
recommend ations</w> 190450
m et 190299
维 持</w> 190183
an ds</w> 190054
up on</w> 189976
2 8</w> 189767
ri ed</w> 189672
ex per 189631
n ight</w> 189628
ep ing</w> 189584
ame work</w> 189581
基 本</w> 189524
fe w</w> 189419
mit ted</w> 189226
N ational</w> 189160
I D 188995
承 诺</w> 188934
th re 188813
ul t</w> 188708
comp any</w> 188608
bel ie 188446
成 功</w> 188220
尤 其</w> 188214
一 点</w> 188204
usti ce</w> 188024
olo gical</w> 187875
f ree</w> 187746
pub l 187473
完 全</w> 187293
u ly</w> 187201
al i 187181
ro om</w> 187032
相 信</w> 186936
G u 186688
re main 186632
appropri ate</w> 186566
消 除</w> 186515
it ation</w> 186469
涉 及</w> 186463
一 下</w> 186306
利 亚</w> 186272
ass ess 186249
c ent 186108
capac ity</w> 186083
虽 然</w> 186014
g ed</w> 185943
增 长</w> 185886
pl ay</w> 185723
tu al</w> 185683
设 立</w> 185657
polic ies</w> 185630
办 事 185628
l evel 185540
jo in 185508
个 人</w> 185499
pro per 185496
行 政</w> 185302
以 来</w> 185167
N ew</w> 185160
d ev 184960
in ten 184932
t ar 184885
缔约 方</w> 184637
ac ts</w> 184486
Ch inese</w> 184246
2 7</w> 183955
仍 然</w> 183848
resul t</w> 183798
appl ication</w> 183600
办事 处</w> 183482
出 来</w> 183411
M ember</w> 183342
. .</w> 183329
str u 183262
ish ed</w> 183206
propos ed</w> 183179
学 生</w> 183131
材 料</w> 183046
安 排</w> 182966
institu tions</w> 182962
op portun 182828
ec tive</w> 182791
业 务</w> 182674
t ation</w> 182588
事 情</w> 182346
ret ur 182266
vers ity</w> 182236
r ate</w> 182233
1 3 182204
n et 181961
P ol 181872
at ors</w> 181806
pro bl 181778
er gy</w> 181734
en ted</w> 181694
Wor ld</w> 181626
咨 询</w> 181513
in d 181483
pro cess 181436
v ement</w> 181270
Program me</w> 181154
se e 181146
le ast</w> 181135
hum an 181103
办公 室</w> 180916
A f 180766
M e 180660
pr os 180597
Organiz ation</w> 180558
协 助</w> 180460
bud get</w> 179918
c ha 179889
Afr ica</w> 179834
' s</w> 179773
ari an</w> 179486
内 容</w> 179351
f y</w> 179242
大 学</w> 179214
做 法</w> 179140
ab ove</w> 178693
ic k 178641
tot al</w> 178529
st re 178501
level s</w> 178476
Go vern 178259
以 色 178206
pers on 178127
char ac 178056
f our</w> 177932
sh or 177865
然 而</w> 177754
d one</w> 177657
whe ther</w> 177647
g es</w> 177628
p at 177552
m u 177449
找 到</w> 177428
condi tions</w> 177300
hap p 177227
电 话</w> 177007
来 自</w> 176897
y oun 176876
com ing</w> 176789
fi ve</w> 176775
来 说</w> 176694
D is 176632
ke ep</w> 176481
最 近</w> 176480
ic ally</w> 176459
a red</w> 176431
il i 176337
司 法</w> 176302
t a 176250
鼓 励</w> 176243
addi tion</w> 176153
incre as 175995
accoun t</w> 175977
ar ing</w> 175551
n ame</w> 175373
会 员国</w> 175322
显 示</w> 175256
网 络</w> 175082
de b 174960
导 致</w> 174736
probl ems</w> 174677
L o 174614
know le 174577
充 分</w> 174359
每 个</w> 174291
城 市</w> 174098
pos ed</w> 173823
intro duc 173787
ar s</w> 173762
fl u 173727
F e 173643
lar ge</w> 173634
ab or 173547
le ft</w> 173415
syst ems</w> 173118
en cour 173084
w r 172988
学 校</w> 172956
总 统</w> 172885
nucle ar</w> 172758
pe an</w> 172659
改 善</w> 172562
ex ten 172465
ic s</w> 172453
add ress</w> 172390
li g 172231
发 言</w> 172207
govern mental</w> 172175
管 理 172033
grow th</w> 172004
性 别</w> 171919
挑 战</w> 171623
t old</w> 171576
str y</w> 171515
利 益</w> 171017
w at 171015
结 束</w> 170986
de l</w> 170809
pos i 170770
C O 170508
imple men 170435
因 素</w> 170417
e y 170367
ain s</w> 170259
W ith</w> 169991
requi red</w> 169805
st ory</w> 169702
j u 169686
ha ving</w> 169657
com es</w> 169581
艾 滋 169418
J o 169302
v ity</w> 169055
at ory</w> 169016
J une</w> 169014
监 测</w> 168924
iz e</w> 168633
关 注</w> 168451
s ays</w> 168402
sev eral</w> 168397
国 内</w> 168343
正 式</w> 168281
eff ect</w> 168251
tu ally</w> 168225
sp ace</w> 168009
partic ularly</w> 167967
地 位</w> 167901
稳 定</w> 167598
gu id 167385
lo t</w> 167254
promot e</w> 167229
r ad 167173
en ter 167067
一 般</w> 166967
人 类</w> 166959
h owever</w> 166906
of ten</w> 166893
整 个</w> 166570
ol s</w> 166444
D o</w> 166410
ter ror 166383
s al 166310
b al 166019
pos e</w> 165950
sec tor</w> 165899
sh ow</w> 165843
concer ned</w> 165772
以色 列</w> 165218
H ey</w> 165197
produc tion</w> 165144
当 局</w> 165102
C entr 165082
p i 165069
ag end 165051
运 动</w> 164981
priv ate</w> 164906
各 项</w> 164810
aliz ation</w> 164800
0 0 164733
at s</w> 164713
pe ace 164700
p t</w> 164462
空 间</w> 164412
environ ment</w> 164335
Bo ard</w> 164262
not ed</w> 164099
状 况</w> 164056
第 三 163987
re al</w> 163874
treat ment</w> 163861
c ell 163851
fore ign</w> 163844
设 备</w> 163808
crimin ation</w> 163527
bi g</w> 163396
it ing</w> 163299
义 务</w> 163245
cep t</w> 163227
res sed</w> 163071
di ffic 162947
consi dered</w> 162804
治 疗</w> 162798
analy sis</w> 162709
r an 162705
F un 162669
2 9</w> 162658
警 察</w> 162642
L et</w> 162639
us es</w> 162522
P al 162483
P l 162409
p ast</w> 162390
Y es</w> 162387
ev al 162292
atten tion</w> 162254
pre hen 162214
c ame</w> 162132
ti l</w> 162073
belie ve</w> 161983
ques tion</w> 161958
fac t</w> 161822
当 然</w> 161810
改 变</w> 161737
Is ra 161695
en cies</w> 161640
es peci 161631
he ad 161585
gr ad 161540
恐 怖 161535
wh ole</w> 161529
me et</w> 161527
H owever</w> 161329
t on</w> 161247
reg ul 161033
规 则</w> 160990
联 系</w> 160930
especi ally</w> 160793
gen der</w> 160759
以 下</w> 160623
ke eping</w> 160537
这 方面</w> 160403
des ign 160389
事 件</w> 160253
en ni 160248
du e</w> 160232
收 入</w> 160192
rec or 160056
or ies</w> 159979
ris k</w> 159788
impro ve</w> 159775
p ot 159772
多 数</w> 159737
it arian</w> 159697
h os 159642
M is 159544
aliz ed</w> 159451
agend a</w> 159372
el s</w> 159350
a ir</w> 159344
Par ties</w> 159338
w rit 159287
appro ach</w> 159073
des cri 158950
e ffici 158904
fr amework</w> 158807
projec ts</w> 158783
cu st 158762
val ue</w> 158378
con om 158330
y et</w> 158326
E conom 158226
Afr ican</w> 158175
c al 158047
f ar</w> 157965
op en</w> 157965
适 用</w> 157786
re fl 157709
require ments</w> 157682
评 价</w> 157678
inte rest 157591
人 道 157588
fe el</w> 157578
谈 判</w> 157523
i gh 157514
一 份</w> 157402
保 证</w> 157337
v ol 157266
M on 157251
comm on</w> 157224
法 庭</w> 157174
import ance</w> 157161
Euro pean</w> 157137
风 险</w> 157058
oul dn</w> 156971
continu ed</w> 156959
si a</w> 156903
l et 156727
需 求</w> 156636
保 持</w> 156569
ang u 156481
olu tions</w> 156303
as h 156288
qu ar 156136
限 制</w> 156106
wor ks</w> 156030
accor ding</w> 155862
拥 有</w> 155851
C our 155787
imp act</w> 155673
ast er</w> 155663
meet ings</w> 155628
er y</w> 155600
pr acti 155497
ear ly</w> 155421
su gg 155405
si m 155215
ill ed</w> 155148
批 准</w> 155134
同 意</w> 155020
C ha 154912
ci vil</w> 154729
author ities</w> 154490
en ergy</w> 154231
成 果</w> 154216
mat ter</w> 154211
enni um</w> 154075
F in 154020
ac tions</w> 153982
off ice</w> 153974
G od</w> 153941
世 界 153939
ac tive</w> 153908
2 . 153839
S erv 153478
水 平</w> 153462
选 举</w> 153455
gen cy</w> 153394
S e 153392
su stainable</w> 153378
v al</w> 153261
em er 153241
独 立</w> 152964
h and</w> 152955
provis ions</w> 152922
协 定</w> 152860
d ru 152839
any thing</w> 152716
pop ulation</w> 152663
199 7</w> 152466
form s</w> 152436
针 对</w> 152388
incre ased</w> 152196
N or 152077
es tic</w> 152065
如 此</w> 152013
en s</w> 151938
d on 151894
定 书</w> 151852
oper ations</w> 151770
d en</w> 151666
ti vely</w> 151624
O k 151573
程 度</w> 151571
基 于</w> 151567
0 . 151508
联 合</w> 151465
ce ment</w> 151463
议 定书</w> 151447
离 开</w> 151421
bo dies</w> 151330
社 区</w> 151163
th ird</w> 151135
I N 151059
gu e</w> 150997
S outh</w> 150948
youn g</w> 150899
经 济 150881
日 本</w> 150724
h old</w> 150447
al low 150412
s ing 150362
1 7 150341
on ce</w> 150207
第 一 150166
1 4 150072
ne t</w> 150064
尼 亚</w> 150026
案 件</w> 150024
n ers</w> 149801
gi c</w> 149739
N ow</w> 149573
consider ation</w> 149562
ch ed</w> 149500
jo b</w> 149446
in depen 149324
C . 149091
oun d 149017
n at 148946
c ity</w> 148938
欧 洲</w> 148917
reg ar 148813
有 些</w> 148573
gr ound</w> 148384
amoun t</w> 148364
进 入</w> 148214
w on</w> 148211
加 入</w> 148008
t el 147925
ob lig 147840
我 国</w> 147635
f er</w> 147623
那 里</w> 147572
ud e</w> 147533
si on 147407
tow ards</w> 147336
a ren 147184
带 来</w> 147164
as soci 147124
ple ase</w> 147108
un til</w> 147038
集 团</w> 147030
1 6 146967
J uly</w> 146911
it er 146852
pre par 146848
协 议</w> 146838
D P</w> 146799
tal k</w> 146737
le ase</w> 146684
O c 146673
confl ict</w> 146586
form ation</w> 146529
De partment</w> 146444
非 政府</w> 146428
po ver 146280
h ard</w> 146212
某 些</w> 146089
p ass 145881
开 发 145828
两 年</w> 145722
阶 段</w> 145695
开 发</w> 145602
des ign</w> 145591
pe ti 145585
香 港</w> 145504
O b 145443
这 项</w> 145384
ra is 145336
econom y</w> 145269
ex pen 145112
comp an 145082
m ary</w> 145060
我 会</w> 144958
R ec 144827
addi tional</w> 144817
巴 勒 144787
perform ance</w> 144765
prehen sive</w> 144757
S u 144705
rec ent</w> 144700
S y 144653
en ds</w> 144631
实 际</w> 144596
w ent</w> 144491
b or 144432
Ok ay</w> 144372
li st 144321
min d</w> 144271
阿 拉 144230
Th ese</w> 144138
g er</w> 144134
oc c 144132
So cial</w> 144131
recei ved</w> 144110
there fore</w> 144067
mi gr 143982
Econom ic</w> 143916
d am 143914
ecu tive</w> 143790
g s</w> 143750
On e</w> 143568
未 来</w> 143508
h on 143473
I s</w> 143404
an u 143296
积 极</w> 143238
不 断</w> 143181
er n</w> 143077
从 而</w> 142981
cer tain</w> 142942
organiz ation</w> 142856
禁 止</w> 142826
W omen</w> 142805
cle ar</w> 142767
equ ip 142730
al o 142653
B ec 142441
le ave</w> 142430
J ust</w> 142421
con ven 142421
I m 142411
重 新</w> 142355
M ay</w> 142344
现 有</w> 142271
mo ve</w> 142167
t y- 141662
dom estic</w> 141636
y s 141540
h and 141492
id ed</w> 141477
en ough</w> 141391
感 到</w> 141323
particip ation</w> 141293
下 来</w> 141225
id ence</w> 141198
o thers</w> 140949
mo del</w> 140918
知 识</w> 140829
保 障</w> 140774
更 加</w> 140620
mon ths</w> 140542
承 认</w> 140437
l ab 140434
weap ons</w> 140416
ag o</w> 140412
Cour t</w> 140376
chang es</w> 140282
streng th 140219
pover ty</w> 140175
监 督</w> 140139
deleg ation</w> 140050
防 止</w> 140002
t ember</w> 139967
al ia</w> 139964
sub stan 139902
cur ren 139689
事 项</w> 139619
同 样</w> 139504
质 量</w> 139448
甚 至</w> 139443
ph as 139388
on es</w> 139295
evel op</w> 139252
it em</w> 139085
一 致</w> 139031
sec ret 139017
go ti 138968
传 统</w> 138964
所 述</w> 138949
打 击</w> 138948
优 先</w> 138917
科 学</w> 138862
综 合</w> 138775
广 泛</w> 138741
agre ed</w> 138674
I V</w> 138608
威 胁</w> 138577
l angu 138550
o di 138476
h un 138460
d ly</w> 138445
危 机</w> 138351
r ing</w> 138312
hap pen 138101
Pal est 138042
c ra 138040
ar ti 138020
L . 138017
ch e 138002
pres ented</w> 137944
no v 137814
prac tic 137477
not e</w> 137470
con f 137466
P r 137413
也 许</w> 137404
ter ms</w> 137399
ist er</w> 137376
本 文</w> 137367
re ad</w> 137308
li ve</w> 137212
p ay</w> 137144
se en</w> 137069
exist ing</w> 136925
想 要</w> 136816
om an</w> 136813
s em 136810
stat us</w> 136618
Fun d</w> 136535
no thing</w> 136459
价 值</w> 136458
达 到</w> 136361
employ ment</w> 136337
li ving</w> 136318
uc k</w> 136315
19 7 136222
经 验</w> 136163
provi des</w> 136067
意 义</w> 136007
tu res</w> 136000
co l</w> 135770
in st 135626
en ed</w> 135513
ar rang 135466
Wor king</w> 135413
c ost</w> 135257
w al 135242
一 名</w> 135010
te am</w> 134888
记 录</w> 134887
s ha 134856
ro ad</w> 134685
ve red</w> 134656
cl ose</w> 134584
chall eng 134556
oun ds</w> 134501
pur su 134484
elec tr 134413
practi ce</w> 134361
M an 134286
con struction</w> 134156
consi der</w> 134122
以 前</w> 134008
mis sions</w> 133981
st or 133960
立 法</w> 133948
r ules</w> 133782
person nel</w> 133771
respon se</w> 133768
ag encies</w> 133653
h er 133643
面 临</w> 133529
上 述</w> 133351
最 大</w> 133351
con stitu 133273
E S 133225
in e 133089
ne goti 133051
to ber</w> 132989
fa ther</w> 132897
解 释</w> 132861
拉 克</w> 132709
小 时</w> 132687
om s</w> 132686
know n</w> 132610
mo tion</w> 132609
si an</w> 132608
w ar</w> 132532
lar ation</w> 132526
Com e</w> 132485
201 4</w> 132406
me d 132392
比 较</w> 132371
结 论</w> 132325
关 切</w> 132305
伙 伴</w> 132257
d evelop</w> 132237
c ar</w> 132235
in stru 132231
199 6</w> 132209
证 明</w> 132183
br ing</w> 132159
v ent</w> 132094
cos ts</w> 132072
to col</w> 132070
invest ment</w> 131963
形 成</w> 131866
推 动</w> 131859
h ours</w> 131729
ur y</w> 131639
human itarian</w> 131632
规 划</w> 131595
Bec ause</w> 131592
repor ted</w> 131559
s .</w> 131518
in s</w> 131434
produc ts</w> 131275
p e</w> 131127
收 到</w> 131101
S ep 130998
难 民</w> 130986
t est</w> 130914
fr on 130785
c y 130762
es tim 130753
报 告 130721
v ot 130694
as p 130608
那 样</w> 130564
长 期</w> 130430
facil it 130256
li k 130233
M o 130146
concer n</w> 130046
俄 罗 129983
mo ther</w> 129968
pre vi 129922
受 害 129819
经 常</w> 129813
ti ves</w> 129689
e th 129419
不 想</w> 129410
ch ing</w> 129357
几 个</w> 129321
一 位</w> 129280
docu ment</w> 129259
扩 大</w> 129218
全 国</w> 129197
nee ded</w> 129182
cont ext</w> 129074
cl es</w> 129058
fer red</w> 129031
op s</w> 128967
工 具</w> 128924
consul t 128915
e f</w> 128865
In di 128839
d ence</w> 128726
Un ion</w> 128665
monit oring</w> 128600
通 常</w> 128549
establish ment</w> 128524
ing ly</w> 128461
学 习</w> 128433
can not</w> 128379
ak ing</w> 128368
fri end</w> 128358
w ide</w> 128357
怎 么 128334
s ou 128329
重 点</w> 128320
ex er 128302
vis ory</w> 128288
病 毒</w> 128179
for ward</w> 128169
cr is 128032
人道 主义</w> 127956
ne w 127942
o grap 127933
高 级 127927
cor por 127899
ist an</w> 127893
请 求</w> 127886
D on</w> 127885
requ est</w> 127825
is ms</w> 127771
wee k</w> 127691
experi ence</w> 127625
日 至</w> 127615
signific ant</w> 127591
cl aim 127494
t a</w> 127415
m id 127390
qu e</w> 127357
w id 127185
dist ribu 127180
por ts</w> 127127
意 思</w> 127038
si onal</w> 127033
Sep tember</w> 127005
abil ities</w> 126998
G re 126806
loo king</w> 126786
d ou 126750
com pu 126721
p ul 126714
附 件</w> 126677
J ap 126660
z ed</w> 126641
j ustice</w> 126634
l ack</w> 126624
sub ject</w> 126543
至 少</w> 126528
con sist 126358
str ong</w> 126340
反 应</w> 126323
stand ards</w> 126301
m ed</w> 126255
bo ok</w> 126168
f - 126039
ay be</w> 125998
knowle dge</w> 125982
high er</w> 125949
C ri 125938
No v 125914
p ati 125802
l u 125793
感 觉</w> 125718
st art</w> 125705
environ mental</w> 125656
pl ay 125593
or ig 125591
L aw</w> 125560
模 式</w> 125503
Amer ica</w> 125479
b it</w> 125441
b un 125296
p ic 125284
ch ec 125282
军 事</w> 125240
ar ma 125230
sub mitted</w> 125193
bas ic</w> 125147
com prehensive</w> 125128
最 好</w> 125102
指 导</w> 125082
超 过</w> 124934
re form</w> 124668
indu stry</w> 124622
gen ous</w> 124596
fi f 124594
s ex 124422
inte rest</w> 124367
includ ed</w> 124364
anu ary</w> 124327
p an 124119
dis crimination</w> 124119
报告 员</w> 124077
ac r 123990
Ac tion</w> 123919
恐怖 主义</w> 123858
com ple 123820
第 十 123814
es n</w> 123803
发 挥</w> 123766
f ail 123727
respon sibility</w> 123654
s ite</w> 123592
生 物</w> 123464
当 地</w> 123355
strate gy</w> 123349
允 许</w> 123268
呼 吁</w> 123242
streng then</w> 123151
w oman</w> 123112
plan ning</w> 123062
履 行</w> 122926
官 员</w> 122895
in c 122873
expres sed</w> 122808
ci v 122789
历 史</w> 122786
ar ms</w> 122681
mater ial</w> 122632
con nec 122565
e ve</w> 122521
under stand</w> 122455
ter rit 122423
agre ement</w> 122404
b ar 122403
stud ents</w> 122401
m y 122387
arm ed</w> 122268
b an</w> 122239
sel ves</w> 122211
de ath</w> 122176
b it 122174
土 地</w> 122121
l ater</w> 122045
8 0</w> 122007
Secret ariat</w> 121938
request ed</w> 121933
ai m</w> 121932
in king</w> 121925
o s</w> 121897
另 外</w> 121860
ke ts</w> 121795
ser ious</w> 121772
专 业</w> 121719
ob ser 121650
repor ting</w> 121619
for ces</w> 121557
宣 言</w> 121463
gu ar 121457
Oc tober</w> 121447
du res</w> 121407
大 量</w> 121260
Wh ere</w> 121101
arma ment</w> 120973
cul tural</w> 120965
s ent</w> 120944
as ked</w> 120929
其 它</w> 120815
por te 120768
199 5</w> 120719
tr av 120670
做 出</w> 120643
Mar ch</w> 120638
A b 120546
h ope</w> 120518
t led</w> 120375
every thing</w> 120330
rel ation 120324
dec ided</w> 120249
m ag 120233
s - 120218
st op</w> 120202
r un 120200
legisl ation</w> 120101
pa ren 120092
fun ds</w> 119951
c ause</w> 119920
istr y</w> 119834
stat ement</w> 119813
ric ul 119773
equip ment</w> 119773
r ati 119738
cre d 119699
s aw</w> 119661
论 坛</w> 119578
T A 119558
对 话</w> 119515
v o 119500
Y our</w> 119423
妈 妈</w> 119411
se par 119382
rou ght</w> 119291
d a 119262
wan ted</w> 118943
内 部</w> 118918
Govern ments</w> 118769
ach ed</w> 118743
F r 118712
危 险</w> 118606
临 时</w> 118556
大 家</w> 118553
nat ural</w> 118502
i ve</w> 118499
符 合</w> 118446
or i 118432
crimin al</w> 118412
Nov ember</w> 118384
d ated</w> 118356
表 现</w> 118330
re ly</w> 118270
x im 118218
s il 118197
foc us</w> 118178
exp ected</w> 118144
do esn</w> 118126
impl ement</w> 118054
R ap 117987
R us 117697
or gan 117600
b ad</w> 117583
plac ed</w> 117537
ru n</w> 117326
p ay 117294
改 进</w> 117136
R ev 117060
准 则</w> 117040
ad equ 117025
ge ts</w> 117012
h o 117004
回 来</w> 116978
g a 116927
g ing</w> 116886
三 个</w> 116866
c at 116714
ne x</w> 116647
纳 入</w> 116624
20 0</w> 116618
proper ty</w> 116609
princi ples</w> 116589
com peti 116418
t ory</w> 116404
exer c 116391
l ist</w> 116383
ag ement</w> 116346
理 会</w> 116320
恢 复</w> 116314
明 确</w> 116307
fu ge 116258
n ation 116145
巴勒 斯坦</w> 116054
g n</w> 116030
医 生</w> 115992
proce dures</w> 115898
provi ding</w> 115861
sci enti 115840
si x</w> 115828
H is</w> 115823
pre ci 115816
3 5</w> 115735
看 看</w> 115690
规 模</w> 115689
重 申</w> 115625
represent atives</w> 115602
sec tion</w> 115565
比 亚</w> 115526
so on</w> 115491
预 防</w> 115489
群 体</w> 115408
con sum 115403
真 正</w> 115342
in ed</w> 115300
gir ls</w> 115206
ot s</w> 115036
al ong</w> 115031
Amer ican</w> 114982
ver age</w> 114960
typ e</w> 114957
he art</w> 114941
ok ay</w> 114858
大 多数</w> 114757
非 法</w> 114683
伊 拉克</w> 114646
b ru 114634
an ces</w> 114619
vie ws</w> 114490
ocr atic</w> 114441
Ar ticle</w> 114338
ill s</w> 114267
理 论</w> 113981
t es</w> 113950
探 讨</w> 113944
con clu 113931
a u</w> 113875
第 一</w> 113846
suc cess 113831
她 们</w> 113814
occ up 113801
土 著</w> 113737
ver s</w> 113644
gir l</w> 113638
challeng es</w> 113615
low er</w> 113593
mechan isms</w> 113589
m ic 113546
mak es</w> 113496
di ed</w> 113481
M a 113467
制 订</w> 113412
女 性</w> 113389
b lo 113346
en jo 113157
shi ps</w> 113102
meth ods</w> 113091
practic es</w> 113081
现 象</w> 113046
细 胞</w> 113012
c lim 113007
条 款</w> 112991
ic ial</w> 112917
星 期 112850
出 口</w> 112832
Mis sion</w> 112805
安 理会</w> 112712
y l 112698
ru le</w> 112666
遵 守</w> 112602
5 00</w> 112588
领 土</w> 112584
man date</w> 112529
w ish</w> 112504
战 争</w> 112469
sor ry</w> 112456
et ing</w> 112437
ph one</w> 112398
provis ion</w> 112363
on ic</w> 112348
in ci 112340
4 5</w> 112323
in come</w> 112207
6 5</w> 112189
ill ing</w> 112102
S up 112085
更 好</w> 112084
ac cep 112081
pl ans</w> 112041
助 于</w> 111996
li gh 111972
cont ained</w> 111906
tim s</w> 111878
princi ple</w> 111876
f av 111846
价 格</w> 111837
A ff 111753
访 问</w> 111548
不 到</w> 111363
J anuary</w> 111329
th y</w> 111296
pri l</w> 111279
国 家 111177
medi a</w> 111153
A pril</w> 111149
ach ing</w> 111082
划 署</w> 111048
la un 110974
tur n</w> 110959
申 请</w> 110858
调 整</w> 110855
de al</w> 110808
7 0</w> 110795
I S 110738
some one</w> 110719
英 国</w> 110710
h or 110704
女 孩</w> 110681
财 政</w> 110653
I ra 110646
charac ter 110632
Rap porte 110586
str ic 110578
represent ative</w> 110567
ren ces</w> 110499
公 共 110477
c op 110326
欧 洲 110309
man ent</w> 110285
W e 110165
o il</w> 110155
Un i 110036
work ers</w> 110019
out side</w> 109959
coordin ation</w> 109941
centr al</w> 109911
S ome</w> 109873
c ou 109840
ei ther</w> 109820
n ature</w> 109796
d ol 109672
联合 国 109670
社 会 109596
采 取 109579
确 认</w> 109555
mo d 109528
Palest in 109503
合 同</w> 109469
mo der 109450
V i 109442
Ac t</w> 109410
wor ds</w> 109379
d le</w> 109372
Wh ile</w> 109325
fre e 109179
Q u 109178
indu stri 109061
U S</w> 109055
pot ential</w> 109037
concer ning</w> 109000
cir c 108917
to p</w> 108865
reg ular</w> 108837
H i 108790
get ting</w> 108782
199 4</w> 108732
C ol 108722
comp on 108715
组 成</w> 108694
A p 108692
审 计</w> 108684
No .</w> 108677
w it 108666
m om 108591
mechan ism</w> 108563
联 邦</w> 108431
si x 108383
理 解</w> 108372
prof es 108333
N ot</w> 108318
regar ding</w> 108254
资 产</w> 108244
经 费</w> 108242
u te</w> 108193
ph ys 108136
se ts</w> 108063
最 终</w> 108056
em phas 108044
wa it</w> 107996
m ing</w> 107960
tr ying</w> 107917
respon sible</w> 107868
保 健</w> 107821
invol ved</w> 107803
Pro tocol</w> 107796
数 量</w> 107735
gu y</w> 107591
tr ac 107579
dra w 107553
容 易</w> 107524
用 户</w> 107520
Rapporte ur</w> 107503
cri me</w> 107473
该 国</w> 107438
individu al</w> 107320
违 反</w> 107300
i or</w> 107244
su sp 107213
compan ies</w> 107176
Min istry</w> 107094
模 型</w> 107030
establ ish</w> 107017
rel ating</w> 107000
b ack 106986
Di rec 106961
equ ality</w> 106902
ste p</w> 106876
nor m 106871
assess ment</w> 106736
愿 意</w> 106711
he ard</w> 106608
9 0</w> 106599
s le 106581
ide a</w> 106522
si d 106496
部 长</w> 106423
m er</w> 106275
si mil 106275
vie w 106241
wor d</w> 106216
反 对</w> 106208
rad i 106174
5 5</w> 106162
一 部分</w> 106121
201 5</w> 106004
功 能</w> 105967
val u 105920
满 足</w> 105909
o - 105905
b ab 105891
.. ..</w> 105881
ti z 105864
定 期</w> 105846
R o 105802
就 业</w> 105754
alo gue</w> 105736
av ing</w> 105692
net work</w> 105692
la ws</w> 105498
le ad</w> 105484
ner ship</w> 105455
E R 105403
en han 105391
gre ater</w> 105370
commun ication</w> 105364
pre vent</w> 105287
tr u 105268
公 共</w> 105236
A n</w> 105206
me t</w> 105162
明 白</w> 105102
effec ts</w> 105088
数 据 105043
car ried</w> 104997
st ay</w> 104989
com mittee</w> 104962
sp ec 104903
计 算</w> 104828
t le 104807
B e 104771
join t</w> 104760
he ar</w> 104722
总 是</w> 104715
侵 犯</w> 104693
才 能</w> 104684
精 神</w> 104671
tran si 104648
y our 104629
关 键</w> 104584
ex change</w> 104496
有 助于</w> 104481
研 究 104458
res olutions</w> 104458
人 数</w> 104429
Ac cor 104423
发 达 104340
发达 国家</w> 104336
c am 104279
m ach 104228
一 级</w> 104221
in flu 104190
vic tims</w> 104184
j ing</w> 104156
明 显</w> 104150
领 导</w> 104135
ap poin 104044
应 对</w> 104018
I O 103991
3 . 103969
tion ed</w> 103911
acr oss</w> 103906
retur n</w> 103894
重 大</w> 103891
u su 103816
以 上</w> 103747
cris is</w> 103726
服 务 103699
su per 103589
reli gi 103582
offic ial</w> 103546
女 人</w> 103519
引 起</w> 103492
Aff airs</w> 103464
th us</w> 103416
t on 103348
c are 103322
er ship</w> 103316
似 乎</w> 103298
r ac 103294
高 兴</w> 103172
Re gi 103108
Lo ok</w> 103035
协 商</w> 102998
be au 102983
世 纪</w> 102969
贡 献</w> 102952
2 4 102898
法 官</w> 102856
第 二</w> 102814
手 段</w> 102779
3 2</w> 102710
offic ials</w> 102703
pro t 102682
b ir 102662
lim ited</w> 102642
学 家</w> 102616
det ail 102611
ther n</w> 102587
T ri 102487
proce d 102480
g ust</w> 102472
ffic king</w> 102449
ra ther</w> 102430
公 民</w> 102411
a men 102398
en h 102389
under standing</w> 102339
避 免</w> 102300
6 7</w> 102214
saf ety</w> 102134
理 由</w> 102104
基 金 102068
in al</w> 102043
T er 102013
清 楚</w> 101994
direc t</w> 101951
s we 101947
Pe o 101849
mon th</w> 101784
担 心</w> 101775
6 1</w> 101753
adv ant 101732
rel ations</w> 101684
f el 101668
m em 101663
检 查</w> 101654
Ch il 101612
ist s</w> 101574
困 难</w> 101519
父 亲</w> 101508
achi eve</w> 101474
民 族</w> 101459
mor ning</w> 101410
专 员</w> 101374
支 付</w> 101363
千 年</w> 101315
缺 乏</w> 101263
cap ital</w> 101204
E ast</w> 101132
一 天</w> 101114
trad iti 101027
普 遍</w> 101025
l ate</w> 100943
6 4</w> 100940
ann ual</w> 100905
随 着</w> 100867
年 度</w> 100805
ven ess</w> 100798
旨 在</w> 100774
几 乎</w> 100699
系 列</w> 100655
指 标</w> 100646
pa red</w> 100563
N e 100549
med ical</w> 100532
民 主</w> 100526
fri ends</w> 100517
te red</w> 100440
Ad d 100434
cour t</w> 100423
成 立</w> 100395
d a</w> 100381
女 士</w> 100359
Cha ir 100318
sel f- 100306
Dec laration</w> 100289
反 映</w> 100275
sh o 100261
以 为</w> 100243
fir e</w> 100239
5 8</w> 100238
越 来 100173
po or</w> 100142
strength ening</w> 100117
s an 100108
ag ing</w> 100096
印 度</w> 100066
integr ation</w> 100025
prot ect</w> 99976
B u 99962
b rought</w> 99868
decis ions</w> 99855
肯 定</w> 99776
iz ing</w> 99765
首 先</w> 99755
ch inese</w> 99634
一 年</w> 99554
de st 99554
re f 99534
o x 99498
la w 99473
al most</w> 99453
Ch ar 99443
语 言</w> 99420
Th e 99389
成 本</w> 99330
以 后</w> 99311
属 于</w> 99300
ec ting</w> 99257
st ates</w> 99248
给 予</w> 99241
伙 伴 99210
administr ative</w> 99158
除 了</w> 99139
m p 99130
hi story</w> 99105
S ub 99037
5 7</w> 99036
成 员国</w> 99011
死 亡</w> 98984
al low</w> 98944
h ous 98896
bel i 98870
C an</w> 98723
re ment</w> 98706
媒 体</w> 98623
f lo 98568
证 据</w> 98488
创 造</w> 98419
当 时</w> 98408
diffic ult</w> 98402
发 明</w> 98382
举 办</w> 98346
cre ate</w> 98336
员 额</w> 98263
构 成</w> 98257
cul ture</w> 98176
宣 布</w> 98145
li a 98073
reas on</w> 98067
a ud 98063
loc k</w> 98046
宪 法</w> 98031
d - 97994
人 士</w> 97986
fin e</w> 97949
sh are</w> 97917
伙伴 关系</w> 97915
感 谢</w> 97906
all s</w> 97875
i ds</w> 97869
poin ts</w> 97800
H C 97751
ste ps</w> 97701
im medi 97601
Af ter</w> 97600
f f</w> 97452
飞 机</w> 97324
sing le</w> 97315
亿 美元</w> 97297
pro mis 97278
pris es</w> 97265
今 年</w> 97259
降 低</w> 97213
langu age</w> 97189
而 言</w> 97157
6 3</w> 97143
wi fe</w> 97116
交 易</w> 97102
w as 97076
6 2</w> 96963
农 业</w> 96947
bru ary</w> 96912
rang e</w> 96901
pur pose</w> 96898
受害 者</w> 96877
民 主 96832
分 钟</w> 96798
ch es</w> 96734
pre vention</w> 96651
ra in</w> 96604
av o 96586
auth or</w> 96551
核 武器</w> 96548
l ost</w> 96523
g ar 96520
mater ials</w> 96519
数 字</w> 96511
工 业</w> 96485
it able</w> 96467
pr ise</w> 96440
strate gic</w> 96354
宣 传</w> 96344
T re 96287
不 仅</w> 96278
安 全 96276
生 命</w> 96206
par ts</w> 96133
要 性</w> 96125
越来 越</w> 96058
十 分</w> 96028
十 年</w> 96020
ac tually</w> 95997
提 到</w> 95915
ec hn 95896
Ex ecutive</w> 95805
ev idence</w> 95788
el ines</w> 95784
再 次</w> 95735
st oc 95703
t ell 95677
ap preci 95663
in ning</w> 95654
oblig ations</w> 95583
Re present 95571
d ates</w> 95518
Th en</w> 95494
commit ment</w> 95450
lik ely</w> 95443
func tion</w> 95424
工 程</w> 95369
这 次</w> 95348
宗 教</w> 95265
G er 95240
D em 95187
结 合</w> 95155
保 留</w> 95094
可 是</w> 95039
m ess 94997
男 人</w> 94958
objec tive</w> 94939
谢 谢</w> 94938
唯 一</w> 94915
indi genous</w> 94914
guar an 94874
st ed</w> 94842
add ressed</w> 94806
m a</w> 94782
这 儿</w> 94779
简 单</w> 94768
5 9</w> 94735
体 系</w> 94682
通 知</w> 94644
网 站</w> 94643
w an</w> 94630
contribu tions</w> 94623
环 境 94610
能 源</w> 94600
英 语</w> 94566
效 率</w> 94558
步 骤</w> 94508
terror ism</w> 94501
协 会</w> 94436
T H 94434
previ ous</w> 94399
re duce</w> 94361
st er</w> 94329
introduc ed</w> 94285
ag ricul 94199
ti s 94173
分 配</w> 94148
increas ing</w> 94143
wr ong</w> 94136
p un 94087
尊 重</w> 94072
金 融 94052
UN C 94020
bel ow</w> 93953
aff ected</w> 93936
行 动 93901
or k</w> 93880
j i 93854
st ing</w> 93705
落 实</w> 93698
统 计</w> 93697
pr ice</w> 93693
am s</w> 93677
bil lion</w> 93655
Serv ice</w> 93641
生 产 93635
relation ship</w> 93591
议 会</w> 93507
enti tled</w> 93485
即 使</w> 93471
2 8 93444
条 例</w> 93323
adequ ate</w> 93293
声 明</w> 93274
initi atives</w> 93262
pre pared</w> 93241
Wh o</w> 93240
sex ual</w> 93213
reduc tion</w> 93157
is tics</w> 93108
万 美元</w> 93091
comm er 93062
high - 93052
do or</w> 93032
part ners</w> 93030
qu i 92996
gu ys</w> 92975
课 程</w> 92952
Hi gh</w> 92927
UN DP</w> 92881
re fuge 92855
良 好</w> 92831
5 2</w> 92812
adop tion</w> 92785
多 少</w> 92778
t an 92761
t op 92703
g ave</w> 92664
vis it</w> 92651
posi tive</w> 92638
3 3</w> 92601
opportun ity</w> 92601
ra b</w> 92582
压 力</w> 92569
新 闻</w> 92564
A re</w> 92412
过 来</w> 92359
199 3</w> 92348
分 别</w> 92339
En gl 92324
fron t</w> 92315
委 会</w> 92259
卫 生</w> 92245
en th</w> 92212
suppor ted</w> 92208
Palestin ian</w> 92195
de ad</w> 92192
试 验</w> 92178
c le</w> 92160
or ities</w> 92151
ter n 92105
en for 92027
F ur 92011
B y</w> 92005
cust om 91995
curren tly</w> 91953
编 写</w> 91922
buil d</w> 91916
pen s 91913
s ource</w> 91901
Ad ministr 91892
el se</w> 91859
eval uation</w> 91850
fun ding</w> 91818
enh ance</w> 91815
Isra el</w> 91747
g est</w> 91702
it self</w> 91592
traditi onal</w> 91589
估 计</w> 91545
st atis 91510
acti vity</w> 91507
F i 91465
r ural</w> 91450
第 四 91412
位 置</w> 91356
5 6</w> 91312
your self</w> 91309
效 果</w> 91218
administr ation</w> 91200
h ur 91134
只 要</w> 91110
6 6</w> 91071
form er</w> 90977
am a</w> 90937
organiz ed</w> 90918
增 强</w> 90830
4 8</w> 90816
单 位</w> 90815
en s 90775
- up</w> 90719
扩 散</w> 90711
通 信</w> 90710
ne ws</w> 90703
ci tiz 90662
su ffici 90640
比 赛</w> 90628
b and</w> 90592
.. ....</w> 90555
us e 90518
E C 90499
pri ority</w> 90477
C an 90449
领 导 90435
si c</w> 90407
t ain 90398
总 部</w> 90391
是 因为</w> 90374
实 体</w> 90339
消 息</w> 90259
艾滋 病</w> 90243
quar ters</w> 90234
s cre 90226
5 3</w> 90221
ques tions</w> 90143
p aid</w> 90137
is tic</w> 90123
fi g 90087
Ad visory</w> 90062
em p 90060
promot ing</w> 90052
交 流</w> 90038
达 成</w> 90016
man u 89984
状 态</w> 89955
per cent</w> 89941
5 1</w> 89924
pres sure</w> 89879
b ul 89873
特 殊</w> 89873
ast e</w> 89866
mis sion 89783
P an 89780
卫 生 89757
分 子</w> 89730
亚 洲</w> 89724
力 量</w> 89724
over all</w> 89711
tr ue</w> 89704
5 4</w> 89696
倡 议</w> 89692
stan ces</w> 89678
al one</w> 89675
di alogue</w> 89662
docu ments</w> 89656
u ti 89620
合 物</w> 89618
me an 89606
m os 89598
别 人</w> 89568
our th</w> 89467
sign ed</w> 89387
汽 车</w> 89331
them selves</w> 89251
E l 89239
补 充</w> 89234
定 义</w> 89165
物 质</w> 89115
P lease</w> 89074
装 置</w> 89019
not es</w> 88978
t ou 88963
an im 88956
re ference</w> 88942
ar ri 88942
v in 88920
h op 88918
& amp 88907
is ion</w> 88907
&amp ;</w> 88907
3 4</w> 88892
种 族 88876
benef its</w> 88865
3 6</w> 88863
H IV</w> 88842
s l 88818
produc t</w> 88804
fin al</w> 88784
cl ass</w> 88745
类 似</w> 88718
co ver</w> 88717
issu ed</w> 88690
儿 子</w> 88667
本 国</w> 88660
exp an 88637
v ul 88636
s mo 88632
A rab</w> 88612
Au gust</w> 88598
h ic 88555
A T 88520
文 书</w> 88498
发 表</w> 88481
权 力</w> 88436
S p 88413
药 物</w> 88362
secret ariat</w> 88359
in ter</w> 88336
f uc 88310
pro motion</w> 88310
trans fer</w> 88276
d it 88269
opportun ities</w> 88210
C or 88172
编 制</w> 88147
观 察 88083
func tions</w> 88058
事 实</w> 88014
h ong</w> 87983
stand ard</w> 87903
facil ities</w> 87883
Engl ish</w> 87857
经 过</w> 87847
conduc t</w> 87841
vi a</w> 87803
出 去</w> 87785
t ained</w> 87770
complet e</w> 87754
aw aren 87713
收 集</w> 87709
ess ential</w> 87702
S tr 87696
ex c 87696
贩 运</w> 87693
y a</w> 87648
核 心</w> 87579
I II</w> 87575
simil ar</w> 87519
观 点</w> 87510
j ur 87490
dru g</w> 87489
O f</w> 87481
strate gies</w> 87455
b ank</w> 87452
equ al</w> 87447
刑 事</w> 87422
疾 病</w> 87406
T ur 87363
includ es</w> 87311
tra fficking</w> 87307
Re port</w> 87271
ID S</w> 87267
l y 87216
proced ure</w> 87214
全 部</w> 87192
co vered</w> 87181
法 国</w> 87168
ic i 87140
k ong</w> 87139
pri mary</w> 87063
基金 会</w> 87051
direc tly</w> 87045
ach es</w> 87007
Jap an</w> 86991
bo y</w> 86989
很 大</w> 86984
每 年</w> 86979
民 间</w> 86948
exper ts</w> 86926
实 行</w> 86892
裁 军</w> 86886
implemen ted</w> 86878
el im 86868
re member</w> 86853
ut es</w> 86807
appro ved</w> 86805
beli ev 86794
c li 86764
al ing</w> 86760
最 佳</w> 86682
母 亲</w> 86673
sugg est 86666
ment ary</w> 86663
M I 86659
s olution</w> 86653
clim ate</w> 86628
意 识</w> 86600
r an</w> 86586
Fe bruary</w> 86566
管 制</w> 86521
he av 86471
金 融</w> 86458
happ y</w> 86434
残 疾 86365
律 师</w> 86330
st ate 86321
discus sion</w> 86315
训 练</w> 86271
inf ra 86202
gr am</w> 86197
commit ted</w> 86181
e ase</w> 86175
Euro pe</w> 86161
i m</w> 86157
A N 86146
a vi 86008
ari es</w> 85986
实 际 85960
l ad 85930
T echn 85876
on str 85871
indepen dent</w> 85864
f em 85812
compl i 85809
局 势</w> 85700
oper ational</w> 85694
process es</w> 85661
star ted</w> 85623
aff ir 85618
mat ters</w> 85560
recommen ded</w> 85519
re main</w> 85508
森 林</w> 85496
概 念</w> 85412
paren ts</w> 85374
为 此</w> 85287
remain s</w> 85285
am es</w> 85252
sc ale</w> 85179
c H 85176
tal king</w> 85137
t ext</w> 85071
G et</w> 85063
ex plo 85037
下 列</w> 85027
r ates</w> 84965
怎 样</w> 84920
h ind</w> 84912
s aying</w> 84905
sh own</w> 84903
ish ing</w> 84896
提 议</w> 84879
bro ad 84878
公 众</w> 84862
地 点</w> 84837
A R 84797
fac tors</w> 84796
en ding</w> 84783
A sia</w> 84769
境 内</w> 84746
Ira q</w> 84735
st age</w> 84727
损 失</w> 84711
ac ks</w> 84679
意 味 84612
3 7</w> 84609
Peo ple</w> 84606
conduc ted</w> 84593
测 试</w> 84577
shor t</w> 84573
时 期</w> 84571
olo gies</w> 84559
sci ence</w> 84549
d ings</w> 84535
统 一</w> 84525
pos t</w> 84522
B ank</w> 84515
k illed</w> 84496
变 得</w> 84492
inter nal</w> 84484
商 业</w> 84477
offic es</w> 84473
connec tion</w> 84442
俄罗 斯</w> 84403
d in 84395
武 装 84371
ex tr 84360
long er</w> 84351
K ore 84347
下 降</w> 84341
团 体</w> 84271
appl ied</w> 84255
信 息 84254
dem onstr 84240
动 物</w> 84053
s atis 84023
blo od</w> 84013
k ill</w> 83967
peo ples</w> 83963
eas y</w> 83925
双 方</w> 83870
来 源</w> 83860
T o 83845
贫 穷</w> 83778
d y 83707
exerc ise</w> 83689
us h</w> 83688
报 道</w> 83615
1 , 83582
名 字</w> 83546
D id</w> 83529
loc ation</w> 83478
g as</w> 83464
peace keeping</w> 83444
id es</w> 83434
Centr e</w> 83368
西 亚</w> 83360
t in 83339
D uring</w> 83330
fun da 83305
let ter</w> 83283
方 向</w> 83190
fi ght</w> 83134
cont ent</w> 83085
aim ed</w> 83075
听 到</w> 83073
纽 约</w> 83059
不 错</w> 83012
il ies</w> 83001
civ il 82997
比 例</w> 82965
A IDS</w> 82964
hos p 82951
in vention</w> 82948
有 点</w> 82935
ti veness</w> 82900
implemen ting</w> 82899
意味 着</w> 82896
f ast</w> 82881
G e 82869
Tr an 82841
pers onal</w> 82832
at eral</w> 82731
趋 势</w> 82728
happen ed</w> 82727
con ference</w> 82708
sup pl 82689
运 输</w> 82676
sen se</w> 82630
ey es</w> 82551
author ity</w> 82547
迅 速</w> 82524
an ks</w> 82485
复 杂</w> 82468
食 物</w> 82465
O p 82442
dem and</w> 82435
a th 82432
request s</w> 82409
an ced</w> 82370
享 有</w> 82337
char ge</w> 82324
el i 82317
min al</w> 82314
ab s 82291
al ities</w> 82282
k new</w> 82278
ve hic 82247
c ut</w> 82244
tem per 82240
coll abor 82170
授 权</w> 82144
足 够</w> 82114
大 约</w> 82079
t ren 82071
北 京</w> 81989
计 算 81951
Tre at 81933
Y ork</w> 81905
show s</w> 81875
毒 品</w> 81871
拘 留</w> 81851
f requ 81844
电 子</w> 81834
h om 81832
E F</w> 81796
基 础 81790
saf e</w> 81713
德 国</w> 81708
S ince</w> 81677
w on 81665
lin es</w> 81649
hol ders</w> 81645
p ite</w> 81639
h im 81634
it y- 81625
在 内</w> 81602
sup ply</w> 81542
man ner</w> 81526
破 坏</w> 81515
agre ements</w> 81512
d ang 81457
pre sident</w> 81393
签 署</w> 81379
公 开</w> 81359
descri bed</w> 81359
In formation</w> 81287
regi ons</w> 81282
c amp 81277
all ing</w> 81205
s ch 81181
p il 81176
commun ities</w> 81089
维 护</w> 81003
从 事</w> 81001
de ploy 80984
be hind</w> 80982
列 入</w> 80968
se a</w> 80951
主 任</w> 80945
li ves</w> 80931
l er</w> 80915
阿 富 80915
技 术 80898
tak es</w> 80887
discus sed</w> 80886
h ot 80866
k er</w> 80811
sec on 80809
父 母</w> 80798
3 8</w> 80762
el ements</w> 80742
3 00</w> 80710
a o</w> 80632
an sw 80580
b ers</w> 80573
医 院</w> 80550
free dom</w> 80521
go ods</w> 80516
en tion</w> 80501
行动 计划</w> 80499
th inking</w> 80490
g ot 80436
类 型</w> 80353
go als</w> 80303
min e</w> 80296
b all</w> 80279
有 权</w> 80274
al - 80270
dis armament</w> 80231
f low 80199
l ay 80199
so f 80187
ex tre 80178
巨 大</w> 80169
自 然</w> 80151
circ um 80140
外 国</w> 80056
su s</w> 80021
par a</w> 80021
M al 80018
包 含</w> 80018
d ar 80015
移 民</w> 80000
g ame</w> 79999
er ous</w> 79990
上 帝</w> 79979
manu fac 79976
Centr al</w> 79933
cor rec 79894
他 人</w> 79884
aliz e</w> 79864
传 播</w> 79834
c ore</w> 79826
bo ard</w> 79821
青 年</w> 79806
min im 79799
真 是</w> 79745
ate g 79727
men tioned</w> 79715
r os 79708
伊 斯 79667
throu gh 79655
ex t 79647
3 0 79634
vol un 79561
facilit ate</w> 79558
电 影</w> 79524
当 前</w> 79507
障 碍</w> 79496
b ase</w> 79493
C ar 79438
vul ner 79417
asp ects</w> 79400
pos es</w> 79383
a verage</w> 79321
l am 79320
修 订</w> 79318
199 0</w> 79306
w ise</w> 79296
cr os 79253
今 后</w> 79241
ograp h 79238
ad ded</w> 79237
本 发明</w> 79232
consult ations</w> 79201
min utes</w> 79197
制 造</w> 79181
艾滋 病毒</w> 79163
in side</w> 79140
di e</w> 79129
解 决 79121
农 村</w> 79087
scho ols</w> 79078
i e</w> 79063
Go od</w> 79004
ic it</w> 78963
A m 78957
design ed</w> 78956
C N 78848
treat y</w> 78818
pre t 78775
一 条</w> 78766
l os 78764
永 远</w> 78711
viol ations</w> 78704
4 . 78625
wh ose</w> 78618
In stitu 78566
采 购</w> 78551
distribu tion</w> 78524
相 同</w> 78495
阿富 汗</w> 78485
加 拿 78448
ur ban</w> 78448
主 题</w> 78419
instru ments</w> 78396
is n</w> 78390
依 据</w> 78376
寻 求</w> 78298
Accor ding</w> 78215
every one</w> 78209
抱 歉</w> 78208
ai wan</w> 78201
根 本</w> 78198
at ures</w> 78194
M ill 78191
be half</w> 78170
医 疗</w> 78103
支 出</w> 78097
接 触</w> 78078
us h 78075
sur face</w> 78056
t un 78047
integr ated</w> 78029
n y</w> 78007
benef it</w> 77993
正 常</w> 77983
去 年</w> 77930
f all</w> 77911
回 顾</w> 77882
部 署</w> 77860
高 级</w> 77844
g er 77830
最 高</w> 77790
bun al</w> 77790
美 洲</w> 77747
phys ical</w> 77695
Uni versity</w> 77692
op in 77687
ver se</w> 77687
事 务 77651
vers al</w> 77640
- term</w> 77629
哪 里</w> 77576
objec tives</w> 77568
pre ven 77555
as h</w> 77539
form ul 77534
竞 争</w> 77506
l ands</w> 77503
an nex</w> 77501
the ory</w> 77478
individu als</w> 77469
s qu 77446
st ated</w> 77379
S um 77367
en ded</w> 77354
第 一次</w> 77347
car ry</w> 77334
看 见</w> 77301
res sing</w> 77301
pol y 77293
em plo 77258
速 度</w> 77241
信 号</w> 77223
t own</w> 77221
拒 绝</w> 77220
专 门</w> 77208
et h</w> 77164
l ess 77142
爸 爸</w> 77102
z er 77076
identi fied</w> 77038
下 午</w> 77008
lead ers</w> 76998
off er</w> 76992
Represent ative</w> 76977
se ar 76972
c ru 76970
bal ance</w> 76966
一 家</w> 76962
6 8</w> 76961
特 定</w> 76960
al though</w> 76938
行 业</w> 76916
offic ers</w> 76857
记 得</w> 76848
pos ts</w> 76845
v ey</w> 76761
4 9</w> 76761
al tern 76724
pres s</w> 76724
国际 法</w> 76709
st ability</w> 76705
e ts</w> 76696
p et 76694
sp i 76683
ad a</w> 76682
债 务</w> 76645
实际 上</w> 76580
th - 76524
arrang ements</w> 76522
u h</w> 76510
compu ter</w> 76509
u ations</w> 76455
人 民 76435
Min ister</w> 76397
工 人</w> 76372
P ri 76353
公 平</w> 76331
sol id 76328
cl ud 76292
思 想</w> 76281
appl ic 76258
打 算</w> 76250
担 任</w> 76243
effor t</w> 76227
d ow 76217
计 划署</w> 76205
大 部分</w> 76199
o ks</w> 76170
s a 76149
interest s</w> 76136
1 2 76129
重 视</w> 76106
si r</w> 76104
发 出</w> 76018
t ment</w> 76017
处 于</w> 76011
不 再</w> 76006
财 务</w> 75995
职 能</w> 75961
pros ecu 75959
机 关</w> 75949
看 起来</w> 75947
兴 趣</w> 75903
ess es</w> 75879
inform ed</w> 75858
s ound</w> 75824
loc ated</w> 75812
重 要性</w> 75798
E m 75756
登 记</w> 75753
beau ti 75745
c ateg 75701
5 . 75682
身 份</w> 75675
bi ennium</w> 75669
w ell 75665
气 候 75649
若 干</w> 75646
gh ter</w> 75625
fam ilies</w> 75581
财 产</w> 75555
B ri 75515
体 制</w> 75487
M r</w> 75483
fe el 75451
concer ns</w> 75394
运 作</w> 75392
背 景</w> 75355
基 本 75304
mar kets</w> 75245
lab our</w> 75216
de partment</w> 75211
性 质</w> 75182
预 计</w> 75156
qu ite</w> 75155
二 十 75132
contro l 75089
ne ar</w> 75062
pi ec 75052
ati c 75048
职 业</w> 75035
res ource</w> 75024
co oper 75000
der ation</w> 74969
观 察</w> 74962
rec ently</w> 74960
u g 74937
sy n 74875
stu dies</w> 74818
propos al</w> 74812
详 细</w> 74785
ne g 74782
re vis 74780
居 民</w> 74773
U S 74751
ass ist</w> 74743
T w 74734
邀 请</w> 74705
in de 74692
S i 74691
P R 74634
trav el</w> 74600
effec tively</w> 74591
impro ved</w> 74555
sh op</w> 74533
特 点</w> 74527
effici ency</w> 74502
ic ate</w> 74492
el ess</w> 74457
ste ad</w> 74451
as si 74392
人 权 74370
将 会</w> 74356
E N 74302
x ed</w> 74292
不 起</w> 74292
bec om 74223
un it</w> 74209
F ir 74183
Di vision</w> 74103
propos als</w> 74075
funda mental</w> 74061
3 9</w> 74048
ens uring</w> 74047
g one</w> 74039
放 在</w> 74026
ro c 74014
ser ies</w> 74012
han ds</w> 73933
in nov 73929
cri tical</w> 73910
finan cing</w> 73900
k y</w> 73871
g res 73867
预 期</w> 73846
if ication</w> 73838
achiev ed</w> 73830
a - 73786
客 户</w> 73777
m oun 73774
abl es</w> 73744
Com mun 73743
每 天</w> 73712
rel ation</w> 73648
自 然 73589
f low</w> 73583
气候 变化</w> 73578
awaren ess</w> 73556
事 实 73542
a ther</w> 73533
through out</w> 73518
prepar ation</w> 73474
was n</w> 73474
第 五 73471
残疾 人</w> 73459
lead ing</w> 73446
晚 上</w> 73398
法 律 73391
c el 73390
guid elines</w> 73364
le y</w> 73356
特 征</w> 73345
加拿 大</w> 73334
deb t</w> 73317
mo di 73266
尚 未</w> 73265
协 调 73258
c o</w> 73256
停 止</w> 73254
表 达</w> 73219
H ong</w> 73178
comp ared</w> 73166
百 分 73159
tr ust</w> 73154
pow er 73141
D es 73078
D o 73070
infra structure</w> 73064
C A 73019
ar ch 73007
camp ai 73007
suc cess</w> 73001
位 于</w> 72996
tran sp 72918
grow ing</w> 72918
or row</w> 72867
仅 仅</w> 72849
l oss</w> 72843
身 体</w> 72840
compl ain 72803
使 得</w> 72761
Man agement</w> 72732
后 续</w> 72696
S ome 72675
I T 72667
罪 行</w> 72626
实 验</w> 72561
ffe red</w> 72558
错 误</w> 72557
con sequ 72549
4 6</w> 72436
st y 72396
l and 72391
鉴 于</w> 72373
it ems</w> 72370
p ain 72359
no ti 72355
wh ite</w> 72348
recogn ized</w> 72343
之 外</w> 72314
associ ated</w> 72292
main ly</w> 72258
b ot 72252
ob serv 72223
阿拉 伯</w> 72185
lat eral</w> 72150
con fir 72128
indic ated</w> 72087
酷 刑</w> 72067
call s</w> 72059
故 事</w> 72058
techn i 72051
en able</w> 72038
ann oun 71970
O ur</w> 71963
suffici ent</w> 71916
发 言 71903
适 应</w> 71903
ca used</w> 71898
per f 71835
G lobal</w> 71822
mission er</w> 71796
z h 71787
contribu te</w> 71732
contr act</w> 71723
et er</w> 71696
i ble</w> 71690
l or 71677
si ght</w> 71670
arti cles</w> 71645
y l</w> 71637
state ments</w> 71636
记 者</w> 71627
不 可</w> 71621
impro ving</w> 71615
4 2</w> 71610
mom ent</w> 71576
prob ably</w> 71500
Rus sian</w> 71462
患 者</w> 71441
bab y</w> 71439
ish ment</w> 71395
cre ated</w> 71394
合 理</w> 71386
com pens 71378
jud icial</w> 71336
Con stitu 71313
学 院</w> 71288
ad ju 71263
Af gh 71226
G o</w> 71225
H ar 71209
Mill ennium</w> 71202
commun ications</w> 71185
investig ation</w> 71185
ak e 71126
F rom</w> 71111
pr ices</w> 71106
beauti ful</w> 71101
平 衡</w> 71093
tar get</w> 71091
年 人</w> 71035
negoti ations</w> 70965
领导 人</w> 70915
un g</w> 70907
regul ations</w> 70863
S A 70838
coun ter 70795
ri es</w> 70792
v ill 70757
变 成</w> 70754
6 . 70726
Ob jec 70717
ex ecu 70713
ev ents</w> 70710
好 像</w> 70703
F F 70695
n on 70630
n ice</w> 70599
f ying</w> 70599
电 子 70589
w ants</w> 70556
expen dit 70554
立 即</w> 70487
im e</w> 70487
por ary</w> 70484
只 能</w> 70462
动 力</w> 70396
si ze</w> 70385
chang ed</w> 70341
相 对</w> 70318
等 等</w> 70313
op h 70293
my self</w> 70242
he al 70225
化 学 70204
O ther</w> 70197
答 复</w> 70190
requ ire</w> 70186
z y</w> 70163
政 治 70162
fe rences</w> 70118
- based</w> 70065
re stric 70063
令 人</w> 70055
a i</w> 70052
基础 设施</w> 70049
本 身</w> 70034
K ong</w> 70028
199 2</w> 70007
be ha 69975
贸 易 69947
trans port</w> 69940
召 开</w> 69936
正 确</w> 69908
加 以</w> 69887
b at 69868
comp et 69835
一 系列</w> 69826
pati ents</w> 69815
e at</w> 69792
ph ase</w> 69789
承 担</w> 69787
怎么 样</w> 69756
is ed</w> 69719
ac if 69715
enter prises</w> 69711
各 方</w> 69674
ro l 69660
recommend ation</w> 69644
non- governmental</w> 69607
ad ap 69606
p sy 69588
sh e 69580
ph ot 69580
S er 69570
success ful</w> 69568
sur ance</w> 69559
曾 经</w> 69540
j our 69531
bu y</w> 69505
N ot 69497
st ation</w> 69474
beg an</w> 69469
如 下</w> 69463
Pl an</w> 69461
scienti fic</w> 69440
4 4</w> 69429
或 许</w> 69425
- - 69380
ten ance</w> 69369
him self</w> 69360
ter nal</w> 69340
S ud 69322
ati vely</w> 69289
posi tions</w> 69282
h us 69270
anti - 69202
cri mes</w> 69201
fol low</w> 69142
al leg 69134
S .</w> 69133
ver sion</w> 69096
hous ing</w> 69088
最 新</w> 69083
rais ed</w> 69064
m aybe</w> 69053
拟 议</w> 69033
攻 击</w> 69018
s chem 68980
claim s</w> 68947
创 新</w> 68929
s cen 68914
col le 68899
多 年</w> 68878
u n</w> 68846
行 政 68843
ec h</w> 68794
7 5</w> 68788
se ems</w> 68771
M s.</w> 68767
描 述</w> 68767
appl y</w> 68755
ul ations</w> 68660
bil ities</w> 68652
共 同 68615
M ic 68612
acif ic</w> 68588
是 不是</w> 68574
as sets</w> 68533
职 位</w> 68527
顾 问</w> 68519
B ei 68508
bre ak</w> 68486
ag ency</w> 68453
ro b 68450
bre ak 68447
ev ent</w> 68431
ie f</w> 68375
Pan el</w> 68354
enfor cement</w> 68351
o v 68346
pl en 68345
往 往</w> 68311
h it</w> 68303
usu ally</w> 68302
不 可 68290
any one</w> 68271
com par 68258
ven ant</w> 68219
指 控</w> 68199
fun d</w> 68188
se x</w> 68174
lear n</w> 68174
str ict</w> 68143
P A</w> 68100
ru ption</w> 68091
moder n</w> 68071
开 放</w> 68058
电 视</w> 68046
确 实</w> 68046
指 定</w> 68035
go al</w> 67982
拟 订</w> 67981
oc cur 67972
under taken</w> 67967
cont act</w> 67942
pat ter 67916
失 去</w> 67876
此 类</w> 67854
appl ications</w> 67854
在 于</w> 67827
form ed</w> 67823
be y 67822
thou s 67805
un its</w> 67801
y es</w> 67780
gen ce</w> 67775
ne igh 67760
it es</w> 67749
el i</w> 67723
s ources</w> 67713
contribu tion</w> 67700
ear li 67690
sem in 67688
r ound</w> 67608
坚 持</w> 67595
武 装</w> 67582
表 面</w> 67581
苏 丹</w> 67578
马 里</w> 67546
4 7</w> 67536
re ached</w> 67517
prac tical</w> 67476
监 狱</w> 67455
compli ance</w> 67451
an e</w> 67291
si bilities</w> 67275
li fer 67253
in t</w> 67243
性 能</w> 67196
o g 67177
mo ved</w> 67138
re ach</w> 67076
cred it</w> 67074
工 程 66989
多 样 66988
s ent 66983
ar m</w> 66970
Com missioner</w> 66963
sim ple</w> 66928
en ter</w> 66921
经 历</w> 66909
预 测</w> 66872
外 交 66869
合 作 66865
ap ter</w> 66838
t ask</w> 66825
r a</w> 66756
el ds</w> 66680
ad em 66674
hy dro 66636
c lo 66594
享 受</w> 66590
su ff 66578
明 天</w> 66577
syst em 66568
ne y</w> 66563
f ourth</w> 66499
cal cul 66455
li min 66453
h ot</w> 66427
Indi a</w> 66395
w ind 66365
修 改</w> 66362
profes sional</w> 66359
beha vi 66359
连 接</w> 66343
tri bu 66316
E P</w> 66313
set tle 66302
ac tors</w> 66278
Tri bunal</w> 66273
recei ve</w> 66260
m al 66256
遭 受</w> 66236
首 脑 66233
科 技</w> 66231
es sion</w> 66215
dow n 66200
Direc tor</w> 66181
C R 66164
ser ve</w> 66143
伤 害</w> 66138
房 间</w> 66130
贷 款</w> 66110
Fir st</w> 66091
w ouldn</w> 66074
ak es</w> 66065
4 1</w> 66063
co de</w> 66055
试 图</w> 66049
O per 66042
wee ks</w> 65995
7 7</w> 65981
t ting</w> 65966
首脑 会议</w> 65956
平 均</w> 65931
au tom 65870
P h 65840
事实 上</w> 65829
ra ise</w> 65798
销 售</w> 65783
房 子</w> 65783
Co ordin 65754
ta x</w> 65752
th ir 65750
temper ature</w> 65740
b ia</w> 65731
chec k</w> 65723
我 能</w> 65676
re ferred</w> 65672
gre at 65669
运 行</w> 65654
Dem ocratic</w> 65643
Nor th</w> 65638
min ist 65633
中 央</w> 65615
UN O 65609
y ed</w> 65605
操 作</w> 65595
deli very</w> 65568
pret ty</w> 65564
s am 65538
ha i</w> 65498
loo ks</w> 65498
检 测</w> 65473
bey ond</w> 65429
移 徙</w> 65401
ye ah</w> 65394
st ake 65384
赔 偿</w> 65377
beg inning</w> 65371
检 察 65304
相 当</w> 65295
str ong 65269
rec ru 65233
tr ou 65228
Co venant</w> 65211
p on 65198
reas ons</w> 65180
pro gram</w> 65161
fri end 65153
te es</w> 65152
we b 65134
spe ed</w> 65133
说 话</w> 65125
免 费</w> 65125
Bei jing</w> 65124
H ere</w> 65116
process ing</w> 65090
loo ked</w> 65084
A S 65079
决 策</w> 65067
clos ed</w> 65061
附 近</w> 65018
5 0 65015
ac tual</w> 65010
控 制 64984
cl aim</w> 64970
多 边</w> 64960
Treat y</w> 64948
dou b 64925
粮 食</w> 64918
an cy</w> 64904
avo id</w> 64885
pres ents</w> 64879
norm al</w> 64855
O ffic 64844
欧洲 联盟</w> 64788
t aining</w> 64772
car b 64753
酒 店</w> 64752
提 案</w> 64750
ad s</w> 64742
oun ded</w> 64684
有 时</w> 64677
con struc 64673
bec ame</w> 64663
circum stances</w> 64663
migr ation</w> 64645
予 以</w> 64629
for ced</w> 64608
ren ch</w> 64597
不 管</w> 64587
i i</w> 64580
lear ning</w> 64573
typ es</w> 64566
ri age</w> 64564
令 人 64554
海 洋</w> 64540
en se</w> 64533
资 助</w> 64526
h s</w> 64506
地 球</w> 64502
sh ap 64477
而 是</w> 64476
enti re</w> 64469
effici ent</w> 64440
gu n</w> 64426
M i 64423
题 为</w> 64419
A gency</w> 64417
am er 64396
新 闻 64390
gi ving</w> 64386
diffic ul 64351
举 措</w> 64342
ri t</w> 64338
tw are</w> 64317
不 了</w> 64312
敦 促</w> 64285
territ ory</w> 64282
de ep</w> 64170
tom orrow</w> 64141
th ank</w> 64140
年 龄</w> 64131
exper t</w> 64131
家 庭 64129
a x 64094
回 到</w> 64064
r ich</w> 64000
vot e</w> 63986
游 戏</w> 63978
c ell</w> 63971
E duc 63967
ac qu 63958
ing dom</w> 63956
an tly</w> 63948
有 限</w> 63947
t ol 63927
S ou 63908
lifer ation</w> 63893
自 愿</w> 63890
mar k 63839
z one</w> 63832
软 件</w> 63782
res ol 63767
A gre 63751
Sup port</w> 63720
ac ting</w> 63708
t ary</w> 63703
is on</w> 63664
con centr 63655
Co de</w> 63648
组 合</w> 63639
建 筑</w> 63624
I P 63621
fel t</w> 63621
main tain</w> 63607
Tr ade</w> 63593
ti al</w> 63560
回 家</w> 63542
n u 63502
商 定</w> 63492
commer cial</w> 63462
some times</w> 63444
k in 63443
ou ght</w> 63439
run ning</w> 63437
相 互</w> 63407
衣 服</w> 63393
fem ale</w> 63385
t al</w> 63381
tri ed</w> 63368
ec tively</w> 63360
show ed</w> 63353
writ ten</w> 63352
techn ologies</w> 63342
en ge</w> 63333
govern ance</w> 63317
h n</w> 63313
sc ope</w> 63313
dis ease</w> 63301
ar gu 63234
an ese</w> 63212
Chair man</w> 63204
en ced</w> 63187
qu ick 63177
ev a</w> 63147
recor d</w> 63144
He alth</w> 63137
p ped</w> 63129
li qu 63118
li z 63117
阿 尔 63092
上 升</w> 63032
En viron 63024
emplo ye 63013
cent ury</w> 62995
por tion</w> 62983
B el 62935
comb at</w> 62924
jur is 62913
grad u 62839
we ight</w> 62808
go es</w> 62797
fuc king</w> 62790
纲 领</w> 62765
guid ance</w> 62760
view ed</w> 62746
bro ther</w> 62703
pur poses</w> 62688
effec tiveness</w> 62676
determin ed</w> 62656
里 面</w> 62639
i er</w> 62638
欧 盟</w> 62638
不 足</w> 62603
适 合</w> 62599
下 去</w> 62589
comple x</w> 62572
s even</w> 62513
不 得</w> 62485
y er</w> 62468
b ig 62463
b order</w> 62457
及 时</w> 62449
澳 大 62438
B ar 62417
mo ving</w> 62411
4 3</w> 62397
spe ak</w> 62383
王 国</w> 62365
l ic 62363
wor ked</w> 62352
黎 巴 62350
清 单</w> 62343
enti ties</w> 62328
complet ed</w> 62299
d au 62287
a it</w> 62272
199 1</w> 62266
失 所</w> 62223
r ise</w> 62222
很 快</w> 62220
bl ack</w> 62217
commit ments</w> 62200
流 离 62176
流离 失所</w> 62170
Cri minal</w> 62154
res erv 62144
particip ate</w> 62115
mar k</w> 62103
v ince</w> 62088
ch ance</w> 62082
保 险</w> 62074
main tenance</w> 62058
t uring</w> 62056
袭 击</w> 62053
C i 62032
贫 困</w> 62014
pro hi 61955
b s</w> 61948
P - 61946
bit r 61946
ic ity</w> 61943
produc tive</w> 61942
as sist 61919
condi tion</w> 61913
平 民</w> 61905
f ru 61893
influ ence</w> 61886
gr an 61885
妻 子</w> 61845
日 内 61837
ther more</w> 61824
全 球 61813
损 害</w> 61811
institu tional</w> 61790
IC EF</w> 61779
Secret ary</w> 61776
er ve</w> 61764
sec tors</w> 61762
industri al</w> 61752
M or 61748
h our</w> 61743
particip ants</w> 61733
多 个</w> 61732
ag n 61720
还 要</w> 61713
不 用</w> 61686
西 班 61653
pris on 61636
启 动</w> 61624
司 法 61617
fa ir</w> 61617
Isra eli</w> 61599
clud ed</w> 61598
C E 61594
gener ally</w> 61565
cle arly</w> 61533
tri al</w> 61532
St at 61508
cre ation</w> 61502
其 实</w> 61496
li e</w> 61485
快 速</w> 61464
adv ice</w> 61451
estim ated</w> 61447
ang e</w> 61441
identi fy</w> 61441
emer gency</w> 61434
play ed</w> 61408
4 00</w> 61400
O K</w> 61397
声 音</w> 61379
tor al</w> 61371
J ustice</w> 61364
hi stor 61361
R ight</w> 61306
7 . 61288
少 年</w> 61285
mo vement</w> 61244
s at 61177
t l 61176
ti vity</w> 61167
男 子</w> 61164
时 代</w> 61141
out come</w> 61139
dam age</w> 61139
af ter 61132
S uch</w> 61078
sub mit</w> 61071
al ism</w> 61055
家 伙</w> 61032
ses sions</w> 61025
回 答</w> 61021
意 大 61013
plac es</w> 61008
直 到</w> 61007
美 国 61001
lar s</w> 60978
pri or</w> 60973
黎巴 嫩</w> 60968
con cept</w> 60955
v ac 60930
sk ills</w> 60923
Kore a</w> 60922
continu es</w> 60920
cl in 60910
i um</w> 60905
psy ch 60890
对 象</w> 60886
whe re 60886
用 来</w> 60852
灾 害</w> 60839
g ent</w> 60838
oper ating</w> 60836
干 事</w> 60801
态 度</w> 60764
今 晚</w> 60761
Al though</w> 60755
character istics</w> 60744
主 管</w> 60741
军 队</w> 60718
competi tion</w> 60690
um p</w> 60661
女 儿</w> 60653
ord ers</w> 60653
det ention</w> 60636
c old</w> 60632
里 亚</w> 60589
D C</w> 60588
direc tion</w> 60569
cra ft</w> 60547
t aiwan</w> 60513
任 命</w> 60512
For um</w> 60500
im age</w> 60496
i ew</w> 60486
N G 60481
recommen ds</w> 60476
sof tware</w> 60433
os is</w> 60425
est s</w> 60407
墨 西 60393
P acific</w> 60390
核 准</w> 60348
s av 60346
S te 60308
pre dic 60306
sen si 60305
P . 60278
refuge es</w> 60272
ri c</w> 60261
集 中</w> 60259
reco very</w> 60256
con c 60225
商 品</w> 60214
住 房</w> 60190
现 代</w> 60169
d ad</w> 60157
on going</w> 60138
Objec tive</w> 60121
vi de 60111
6 9</w> 60102
Institu te</w> 60098
citiz ens</w> 60081
开发 计划署</w> 60075
投 资 60063
e ding</w> 60058
非 洲 60046
年 代</w> 60021
音 乐</w> 60018
身 上</w> 60009
随 后</w> 60004
照 片</w> 60003
in surance</w> 59993
m ur 59988
Inter net</w> 59986
ex ternal</w> 59974
chall enge</w> 59960
th es 59954
pl om 59951
chem ical</w> 59943
Rev iew</w> 59925
ra z 59921
执 行 59916
Au str 59899
c ouldn</w> 59859
Pro tec 59859
少 数</w> 59852
allow ed</w> 59782
dev ice</w> 59773
str ation</w> 59760
力 于</w> 59752
文 章</w> 59735
出 席</w> 59699
legisl ative</w> 59685
f ish</w> 59661
Un it</w> 59647
fig ure</w> 59641
一 旦</w> 59631
致 力于</w> 59623
视 为</w> 59606
一 场</w> 59605
显 然</w> 59602
紧 急</w> 59563
thre at</w> 59560
sur vi 59545
elim in 59539
dec re 59516
bor n</w> 59511
2 9 59509
m ass</w> 59493
信 任</w> 59489
Per s 59446
eth n 59425
sy m 59422
台 湾</w> 59418
hus band</w> 59368
religi ous</w> 59359
公 正</w> 59329
deleg ations</w> 59312
观察 员</w> 59309
2 - 59295
at ever</w> 59285
ass es</w> 59278
produc ed</w> 59261
con n 59252
sit uations</w> 59201
op ening</w> 59199
pro te 59179
非 正式</w> 59121
ti t 59120
W est</w> 59118
消 费 59085
诉 讼</w> 59056
ou d</w> 59031
Str ate 59030
cer tain 59022
Le ban 59019
特 性</w> 59018
私 人</w> 59002
a p</w> 58981
S ci 58980
wan na</w> 58970
食 品</w> 58962
主 义 58956
h am 58933
initi ative</w> 58916
R A 58910
is ing</w> 58887
cent res</w> 58881
lit er 58868
meas ure</w> 58834
iz es</w> 58831
hap s</w> 58829
o ke</w> 58813
没 事</w> 58795
ste red</w> 58789
立 场</w> 58762
移 动</w> 58754
T ake</w> 58722
h ood</w> 58715
use ful</w> 58707
an a</w> 58706
as es</w> 58697
answ er</w> 58681
multi lateral</w> 58680
起 诉</w> 58678
道 路</w> 58676
g ol 58652
dis pu 58648
y e</w> 58635
opin ion</w> 58621
第 五</w> 58616
pre p 58599
寻 找</w> 58592
评 论</w> 58563
宪 章</w> 58547
initi al</w> 58546
elec tion</w> 58526
mu sic</w> 58446
suppor ting</w> 58438
can di 58413
转 移</w> 58402
w all</w> 58397
earli er</w> 58377
streng th</w> 58367
i onal</w> 58362
discus sions</w> 58358
requi res</w> 58357
Gen eva</w> 58311
cre te</w> 58296
面 对</w> 58269
两 性</w> 58262
会 议 58248
艺 术</w> 58232
s end</w> 58221
ex ac 58219
pres sion</w> 58216
高级 专员</w> 58201
fin ance</w> 58184
P ub 58174
C C 58162
k ers</w> 58161
dol lars</w> 58125
日 期</w> 58072
in - 58069
fil m</w> 58063
lead ership</w> 58054
数据 库</w> 58024
est er 58002
Me eting</w> 57997
Im ple 57988
com ed</w> 57980
eng ine 57973
ban ks</w> 57924
年 轻</w> 57898
sh it</w> 57886
si gn</w> 57879
Pub lic</w> 57861
see k</w> 57858
CN . 57856
上 去</w> 57853
re au</w> 57829
wel come</w> 57795
flo or</w> 57757
依 照</w> 57715
peace ful</w> 57665
ound ation</w> 57654
审 判</w> 57652
h ell</w> 57649
UN ICEF</w> 57626
har mon 57616
lin ed</w> 57603
Per manent</w> 57585
is land</w> 57559
ext ent</w> 57556
c er</w> 57540
encour age</w> 57522
ti l 57517
re t</w> 57505
dri ve</w> 57478
途 径</w> 57470
cell s</w> 57467
福 利</w> 57462
ar ity</w> 57454
pursu ant</w> 57446
inter pre 57420
Li ke</w> 57415
pro duce</w> 57400
wel comed</w> 57363
满 意</w> 57348
后 来</w> 57343
一 般 57318
or ation</w> 57307
it ors</w> 57286
更 新</w> 57272
之 中</w> 57256
to ols</w> 57240
第 三</w> 57226
c au 57207
dis abilities</w> 57183
名 单</w> 57175
私 营 57160
C hi 57154
一 只</w> 57140
差 异</w> 57134
tru th</w> 57132
E ven</w> 57118
统 计 57118
meas u 57115
cep tion</w> 57106
F ore 57093
neg ative</w> 57050
st ood</w> 57029
di g 56993
te aching</w> 56977
污 染</w> 56971
澳大 利亚</w> 56969
in sp 56958
u an</w> 56946
腐 败</w> 56944
马 上</w> 56930
ve re 56915
M aybe</w> 56914
1 1 56912
re pe 56897
li es</w> 56890
电 脑</w> 56858
第 一个</w> 56858
Fin an 56834
F I 56814
C ap 56802
t ability</w> 56789
buil t</w> 56783
tur ned</w> 56781
wat ch</w> 56764
in corpor 56713
讲 习 56710
遇 到</w> 56702
大 规模</w> 56667
M O 56663
ab use</w> 56605
follow ed</w> 56604
att ack</w> 56600
determin ation</w> 56600
in stead</w> 56585
ag ue</w> 56581
命 令</w> 56564
Sud an</w> 56522
以 外</w> 56519
为 止</w> 56513
sh ot</w> 56482
me dic 56478
si mul 56472
cor respon 56470
transi tion</w> 56469
g ation</w> 56466
L eg 56446
购 买</w> 56429
比 如</w> 56400
reas on 56398
供 应</w> 56396
7 3</w> 56393
spi rit</w> 56392
cho ice</w> 56389
or ial</w> 56355
diffe rence</w> 56353
见 到</w> 56302
bu t 56301
B i 56299
stre et</w> 56251
sub sequ 56219
专 家 56216
mach ine</w> 56203
mic ro 56187
一 件</w> 56171
fin ally</w> 56128
ac ci 56118
Par ty</w> 56111
h ab 56109
as tic</w> 56098
ity- building</w> 56066
gre en</w> 56063
ton ight</w> 56047
ti v 56036
占 领</w> 56029
转 让</w> 56025
ou se</w> 56009
r ying</w> 56008
wal k</w> 55991
O r</w> 55980
Sy ri 55967
us ers</w> 55949
ail y</w> 55941
调 查 55939
阿拉 伯 55936
公 布</w> 55919
fi elds</w> 55913
到 底</w> 55905
dem ocr 55903
E ver 55888
reduc ed</w> 55875
兄 弟</w> 55870
pur ch 55861
ro r</w> 55853
us er</w> 55836
av es</w> 55819
Serv ices</w> 55819
ad vis 55807
hou se 55804
re - 55794
pres ence</w> 55773
stake holders</w> 55769
技 能</w> 55757
cu rement</w> 55756
所 有人</w> 55750
与 会 55743
Fe deration</w> 55738
form al</w> 55730
compon ent</w> 55726
Tw o</w> 55705
至 关 55701
放 弃</w> 55683
impro vement</w> 55682
civil ian</w> 55680
w in</w> 55665
斯 特</w> 55630
di men 55628
cas h</w> 55622
各 个</w> 55615
re in 55615
现 实</w> 55610
依 然</w> 55606
maj ority</w> 55590
B ur 55564
resp ective</w> 55553
eval u 55541
immedi ately</w> 55522
规 范</w> 55520
想 法</w> 55510
辩 论</w> 55496
sty le</w> 55496
相 比</w> 55495
相 应</w> 55471
sen sus</w> 55469
h ost</w> 55456
sp on 55439
bo oks</w> 55424
electr onic</w> 55412
要 是</w> 55378
Constitu tion</w> 55377
Co operation</w> 55369
ac cur 55351
e ight</w> 55325
旅 行</w> 55321
Char ter</w> 55305
uni versal</w> 55302
collabor ation</w> 55298
follow -up</w> 55276
对 此</w> 55271
er a</w> 55265
丈 夫</w> 55260
re v 55252
发 布</w> 55226
statis tics</w> 55225
官 方</w> 55218
生 效</w> 55185
re le 55184
索 赔</w> 55171
mess age</w> 55165
第二 十 55142
你 好</w> 55118
利 于</w> 55100
采取 行动</w> 55062
R el 55060
待 遇</w> 55057
sle ep</w> 55047
se em</w> 55039
bil ateral</w> 55038
教 授</w> 55026
du ty</w> 55007
tis h</w> 54990
数 目</w> 54986
pl ant</w> 54982
d ents</w> 54974
defin ed</w> 54972
il legal</w> 54950
至关 重要</w> 54948
valu es</w> 54947
ic o</w> 54934
de g 54929
econom ies</w> 54915
n ation</w> 54912
磋 商</w> 54907
cer ti 54904
讲习 班</w> 54883
Agre ement</w> 54876
Can ada</w> 54870
6 00</w> 54843
discus s</w> 54837
hol ding</w> 54829
Protec tion</w> 54827
质 性</w> 54822
ma xim 54815
juris dic 54792
Regi onal</w> 54791
有 限 54781
dat ab 54774
y outh</w> 54771
fi gu 54750
sen ior</w> 54747
R E 54720
vulner able</w> 54710
happ en</w> 54703
develop ments</w> 54670
Ge or 54660
es day</w> 54659
am ing</w> 54653
cr iter 54645
indic ators</w> 54618
enjo y</w> 54611
职 责</w> 54609
日内 瓦</w> 54589
看 来</w> 54580
M any</w> 54578
贸 发</w> 54577
无 论</w> 54575
lo ad</w> 54570
pos t- 54568
neigh b 54554
k ids</w> 54530
n it 54496
un ited</w> 54488
K ingdom</w> 54469
n on</w> 54468
获 取</w> 54462
read ing</w> 54457
ed ings</w> 54429
expres sion</w> 54422
Al so</w> 54411
s li 54400
revis ed</w> 54397
眼 睛</w> 54385
高 度</w> 54383
截 至</w> 54364
suggest ed</w> 54358
F rench</w> 54346
consist ent</w> 54336
foc used</w> 54326
ac ked</w> 54310
la u 54271
si des</w> 54235
In v 54226
各 地</w> 54186
正 如</w> 54179
货 物</w> 54141
a ur 54129
k a</w> 54120
专 题</w> 54119
实 践</w> 54115
de e 54098
资 本</w> 54075
di plom 54049
ad or</w> 54048
an istan</w> 54031
o red</w> 54029
w aste</w> 54023
流 动</w> 54008
se as 54005
elec tions</w> 54001
as ks</w> 53992
cle an</w> 53987
mid dle</w> 53978
太 平 53957
gh t 53954
虐 待</w> 53953
员 工</w> 53916
educ ational</w> 53913
kno ws</w> 53894
伙 计</w> 53885
substan tive</w> 53866
r s</w> 53847
m ist 53838
em ed</w> 53827
a head</w> 53821
关 键 53816
er ial</w> 53765
面 前</w> 53764
writ ing</w> 53763
TH E</w> 53761
hi c</w> 53759
各 自</w> 53752
hosp ital</w> 53727
投 入</w> 53720
be an</w> 53720
ra id</w> 53719
j ob 53718
agricul tural</w> 53717
de part 53714
意大 利</w> 53694
sign al</w> 53678
展 开</w> 53669
Th ank</w> 53667
UNC TA 53662
制 作</w> 53649
remain ed</w> 53640
基 地</w> 53621
感 染</w> 53621
achiev ing</w> 53619
星 期</w> 53603
S T 53601
p ack 53578
行 使</w> 53568
遭 到</w> 53559
古 巴</w> 53547
上 诉</w> 53546
Ever y 53529
su n 53520
设 置</w> 53483
治 理</w> 53479
l ose</w> 53466
com ments</w> 53449
ex port</w> 53441
石 油</w> 53419
pl aying</w> 53418
mo del 53413
bri ef 53401
all ed</w> 53389
got ta</w> 53376
Imple mentation</w> 53371
Sum mit</w> 53359
paragrap hs</w> 53330
detail ed</w> 53303
li ber 53301
UN EP</w> 53301
tr aff 53299
心 理</w> 53279
经 营</w> 53272
inform al</w> 53272
traff ic</w> 53264
r ace</w> 53262
pri orities</w> 53246
研 讨 53235
结 婚</w> 53226
高级 别</w> 53220
UNCTA D</w> 53211
establish ing</w> 53155
e an</w> 53151
能 性</w> 53151
ar - 53133
em is 53128
compens ation</w> 53110
ati n</w> 53107
lear ned</w> 53058
el ement</w> 53053
determin e</w> 53053
respon sibilities</w> 53049
aff airs</w> 53032
后 果</w> 53031
sub si 53028
stu died</w> 53020
与会 者</w> 53015
议 员</w> 53013
T e 52979
开发 署</w> 52978
所 作</w> 52971
sear ch</w> 52962
high ly</w> 52956
al ist</w> 52949
捐 款</w> 52938
deg ree</w> 52934
O F</w> 52927
qu anti 52927
enter prise</w> 52911
et c</w> 52908
ver ing</w> 52902
dy nam 52901
家 人</w> 52896
植 物</w> 52873
上 面</w> 52861
国 人</w> 52854
inv ited</w> 52853
dest ro 52850
pl at 52823
part nership</w> 52822
研讨 会</w> 52809
私营 部门</w> 52805
sh aring</w> 52800
cou ple</w> 52798
mar riage</w> 52780
亲 爱</w> 52775
du le</w> 52738
ar r 52717
san c 52714
主 权</w> 52713
实 质性</w> 52673
ca uses</w> 52668
日 益</w> 52662
sub jec 52662
conclu sion</w> 52660
Se e</w> 52626
第 六</w> 52608
ph en 52589
投 票</w> 52561
dau ghter</w> 52509
教 师</w> 52498
publ ished</w> 52479
list en</w> 52463
per manent</w> 52462
卫 星</w> 52454
M id 52447
re iter 52447
看 法</w> 52444
sit es</w> 52419
资 格</w> 52412
compon ents</w> 52392
UN F 52390
wor th</w> 52358
mar ried</w> 52343
amen d 52343
continu ing</w> 52338
b ing</w> 52335
角 度</w> 52334
巴 基 52316
安 装</w> 52303
speci f 52279
wr ite</w> 52240
W i 52230
tol er 52212
对 不起</w> 52211
adop t</w> 52195
terror ist</w> 52172
h a</w> 52161
gu ess</w> 52137
o ther 52136
ear th</w> 52094
f ile</w> 52082
quick ly</w> 52040
个 月</w> 52032
al ed</w> 52029
g en</w> 52016
bi tion</w> 52015
resul ting</w> 52005
或 是</w> 51995
in fl 51976
平 台</w> 51974
proce edings</w> 51972
n e</w> 51964
打 电话</w> 51947
不 得 51936
Go als</w> 51928
pay ment</w> 51919
long -term</w> 51916
dra w</w> 51902
ast ern</w> 51896
这 位</w> 51873
金 属</w> 51849
U h</w> 51845
clos ely</w> 51841
A .</w> 51784
As soci 51784
刑 事 51775
sp ok 51763
O R 51758
des pite</w> 51751
ta x 51720
病 人</w> 51719
ver si 51698
set ting</w> 51696
分 享</w> 51667
cha ir 51667
sur vey</w> 51657
con crete</w> 51639
供 应 51614
那 种</w> 51608
距 离</w> 51605
r ain 51602
ar bitr 51577
coll ection</w> 51572
工 艺</w> 51554
显 著</w> 51549
手 术</w> 51545
B ud 51536
fail ure</w> 51532
Fur thermore</w> 51530
s ave</w> 51526
add ressing</w> 51525
b on 51496
专家 组</w> 51455
tu red</w> 51454
M ex 51444
ethn ic</w> 51440
laun ched</w> 51431
tic ally</w> 51418
初 步</w> 51393
ch ief</w> 51381
研究 所</w> 51375
测 量</w> 51374
自 动</w> 51279
另 一 51255
ci ties</w> 51250
bo x</w> 51250
st op 51223
capac ity-building</w> 51199
Fr ance</w> 51199
任 何 51175
c ard</w> 51161
几 年</w> 51142
漂 亮</w> 51140
confl ic 51140
emb odi 51138
indepen dence</w> 51111
值 得</w> 51109
fe atures</w> 51060
deb ate</w> 51054
预 防 51025
le aving</w> 51000
C D</w> 50985
f arm 50980
tim ate</w> 50971
难 民 50963
and a</w> 50921
Tran s 50913
deploy ment</w> 50911
ac id</w> 50905
pris on</w> 50902
m ol 50892
Educ ation</w> 50881
monit or</w> 50866
en try</w> 50861
fi gh 50857
C ub 50854
gener ation</w> 50854
im ag 50846
sal es</w> 50827
w il 50816
w est</w> 50813
rais ing</w> 50813
C O</w> 50800
get ary</w> 50797
dr ink</w> 50788
外 部</w> 50762
For ce</w> 50755
巴 西</w> 50746
延 长</w> 50728
dis aster</w> 50725
返 回</w> 50711
S om 50705
wor ry</w> 50704
tor ture</w> 50688
f are</w> 50685
he ar 50683
混 合</w> 50649
I tal 50643
tion ing</w> 50618
pu ts</w> 50611
K u 50607
Jo hn</w> 50597
ar ance</w> 50549
Ex per 50549
fl ex 50548
Ter rit 50527
定 性</w> 50513
节 目</w> 50513
常 驻</w> 50512
2 7 50508
Sec tion</w> 50505
ap s</w> 50491
突 然</w> 50488
encour aged</w> 50477
两 种</w> 50456
ill u 50456
墨西 哥</w> 50443
consul tation</w> 50419
Afgh anistan</w> 50403
Chil dren</w> 50373
t our 50357
4 0 50357
就 要</w> 50346
重 建</w> 50330
mo bil 50324
Pe ace 50275
advant age</w> 50263
j e 50259
e . 50242
b a 50242
财 务 50195
orig inal</w> 50183
ob vi 50170
stoc k</w> 50157
cen ter</w> 50146
n or</w> 50127
那 儿</w> 50127
tem porary</w> 50104
N A</w> 50103
ha ir</w> 50099
bo ys</w> 50075
ve ments</w> 50068
fo rest</w> 50049
odi c</w> 50034
结 果 50032
lay er</w> 49988
op tim 49966
吸 引</w> 49965
centr e</w> 49935
全 世界</w> 49929
自 由 49914
阻 止</w> 49912
男 孩</w> 49897
plan ned</w> 49878
赞 赏</w> 49873
Fore ign</w> 49871
竞 争 49862
Th ose</w> 49856
dru gs</w> 49856
feel ing</w> 49838
S en 49819
巴基 斯坦</w> 49817
mor t 49807
ke pt</w> 49806
m .</w> 49792
外 地</w> 49772
ag ree</w> 49743
制 裁</w> 49737
I A 49726
工 资</w> 49718
er - 49711
dis ci 49683
resp ectively</w> 49672
运 用</w> 49654
wa iting</w> 49648
国际 公约</w> 49631
sim ply</w> 49630
sol di 49625
b ly</w> 49615
ac her</w> 49606
re lease</w> 49602
警 方</w> 49594
基 因</w> 49591
四 个</w> 49589
min ute</w> 49568
fif th</w> 49559
ch an 49553
埃 及</w> 49543
Gre at</w> 49511
Re g 49498
plac ement</w> 49490
con solid 49485
用 途</w> 49484
普 通</w> 49473
mo vi 49469
分 布</w> 49448
re si 49446
之 下</w> 49445
pro liferation</w> 49406
ar my</w> 49399
S im 49393
co - 49388
多样 性</w> 49357
有 所</w> 49354
re ve 49307
土 耳 49304
di vi 49297
侵 害</w> 49276
duc tion</w> 49272
额 外</w> 49258
遗 憾</w> 49257
2 , 49255
温 度</w> 49252
adv oc 49247
on line</w> 49237
par am 49224
捐 助</w> 49213
机 场</w> 49209
各 级</w> 49200
过 渡</w> 49191
加 勒 49169
or d</w> 49155
s outh</w> 49152
m r</w> 49151
ag u 49150
Un der</w> 49150
we st 49136
well - 49126
绝 对</w> 49112
reg ime</w> 49109
可 能性</w> 49094
第 六 49091
e ous</w> 49077
Cri me</w> 49065
z ing</w> 49059
lar gest</w> 49048
vo ice</w> 49018
piec e</w> 49017
印 度 49008
stu ff</w> 49008
麻 烦</w> 48981
索 马里</w> 48972
ad es</w> 48972
ei gh 48939
g ri 48935
follow s</w> 48935
pa ir</w> 48927
更 为</w> 48900
即 将</w> 48889
air craft</w> 48885
so vere 48867
appro val</w> 48854
创 建</w> 48834
Min ist 48828
ing ing</w> 48824
T V</w> 48819
自 身</w> 48819
fac tor</w> 48807
appe ar</w> 48804
P S</w> 48794
fo ot 48793
所 谓</w> 48791
中 国 48746
取 消</w> 48743
b in 48727
ob tained</w> 48725
L ist 48675
种 族</w> 48673
称 为</w> 48644
9 . 48615
8 . 48612
uni versity</w> 48599
fu el</w> 48596
ex clu 48589
d ary</w> 48587
num bers</w> 48580
speci alized</w> 48575
heav y</w> 48569
男 性</w> 48565
D ar 48548
y st 48542
knowle d 48523
有 着</w> 48504
照 顾</w> 48474
mo m</w> 48457
释 放</w> 48455
um s</w> 48394
ac adem 48384
te ach 48379
br an 48369
痛 苦</w> 48363
账 户</w> 48352
指 示</w> 48324
并 非</w> 48307
ch i 48299
en e</w> 48295
Ger many</w> 48293
角 色</w> 48256
sh ops</w> 48253
车 辆</w> 48236
spe aking</w> 48228
原 子 48226
劳 动</w> 48214
struc tures</w> 48214
UN HC 48196
con sensus</w> 48170
ha ven</w> 48164
interest ed</w> 48153
关 心</w> 48143
appro xim 48134
W est 48095
H ave</w> 48081
太平 洋</w> 48060
satis fac 48058
inten ded</w> 48048
min ister</w> 48028
sel ected</w> 48010
separ ate</w> 48004
b ile</w> 48002
f res 47989
ex ecutive</w> 47972
Is lam 47968
A M 47955
进 步</w> 47955
com for 47926
I M 47903
n in 47871
ris ks</w> 47870
正 是</w> 47863
除 非</w> 47856
do g</w> 47817
refl ected</w> 47813
tri c</w> 47810
et er 47807
从 来</w> 47806
d aily</w> 47796
ne arly</w> 47795
怀 疑</w> 47792
旅 游</w> 47781
单 独</w> 47766
UNHC R</w> 47763
doc tor</w> 47749
w w 47746
联 网</w> 47722
inter governmental</w> 47694
上 午</w> 47677
筹 备</w> 47667
Ci vil</w> 47649
cour ts</w> 47648
perf ect</w> 47647
ul ts</w> 47644
adv anced</w> 47635
af raid</w> 47617
犯 罪 47616
人权 委员会</w> 47600
不 好</w> 47599
哪 儿</w> 47596
老 师</w> 47590
n ia</w> 47584
L ab 47573
prep are</w> 47565
minim um</w> 47556
volun tary</w> 47546
dem ocratic</w> 47541
ur ation</w> 47537
快 乐</w> 47530
v oc 47518
row n</w> 47513
F ol 47510
H er 47495
U . 47477
st ressed</w> 47474
事 业</w> 47468
工作 队</w> 47451
un d 47450
to ol</w> 47449
ati es</w> 47446
G i 47436
gi ves</w> 47421
助 理</w> 47406
k en</w> 47349
l ying</w> 47330
exac tly</w> 47328
数 额</w> 47323
便 利</w> 47320
M ore 47319
con cluded</w> 47312
p ass</w> 47299
in o</w> 47277
完 整</w> 47241
pre c 47241
cor ruption</w> 47239
作 品</w> 47235
he at</w> 47231
as sum 47224
high est</w> 47224
ac ted</w> 47219
spe ak 47195
. m.</w> 47190
国 民</w> 47182
此 种</w> 47180
st able</w> 47161
我 来</w> 47159
han g</w> 47146
8 00</w> 47135
pre gn 47120
0 - 47112
ent y- 47100
回 去</w> 47095
job s</w> 47086
trans l 47085
伊 朗</w> 47065
campai gn</w> 47036
算 法</w> 47028
参 数</w> 47021
applic able</w> 47015
ester day</w> 47001
er t</w> 46997
体 现</w> 46996
刚 刚</w> 46996
adv ance</w> 46980
su st 46979
参 考</w> 46973
证 实</w> 46966
O s</w> 46964
优 势</w> 46963
pass ed</w> 46954
pos sibility</w> 46952
教 学</w> 46925
筹 资</w> 46925
att acks</w> 46925
候 选 46920
I ran</w> 46918
fir m</w> 46888
increas ingly</w> 46872
complet ely</w> 46870
3 cH 46849
暴 力 46846
w ood</w> 46799
i ously</w> 46787
别 的</w> 46770
货 币</w> 46763
consum ption</w> 46747
invol ving</w> 46732
in ks</w> 46731
multi - 46730
is c 46721
f ting</w> 46714
化 合物</w> 46713
C y 46709
夫 人</w> 46705
g lob 46700
reduc ing</w> 46662
al ty</w> 46660
m m</w> 46645
A C 46615
g old</w> 46613
detail s</w> 46609
T O</w> 46600
地 雷</w> 46590
一 张</w> 46574
ner ships</w> 46574
et ers</w> 46563
He ad 46533
攸 关</w> 46528
紧 张</w> 46526
de struction</w> 46518
总 理</w> 46506
poin ted</w> 46505
打 开</w> 46501
B raz 46461
整 体</w> 46456
promis e</w> 46456
si t</w> 46455
任 择</w> 46435
h abil 46423
下 面</w> 46391
失 败</w> 46390
F ri 46388
自 我</w> 46362
p ping</w> 46352
成 就</w> 46352
H igh 46324
achiev ement</w> 46304
G r 46301
hot el</w> 46299
b om 46289
专 门 46288
t age</w> 46284
n ations</w> 46282
例 子</w> 46277
策 略</w> 46275
sp ent</w> 46275
pic ture</w> 46274
未 能</w> 46272
进 口</w> 46262
sm all 46230
计算 机</w> 46229
E g 46221
科 索 46185
vide o</w> 46175
depart ments</w> 46168
保 护 46157
ac cept</w> 46131
Pol itical</w> 46131
f ell</w> 46128
修 正</w> 46119
f os 46107
快 点</w> 46102
nor th</w> 46099
More over</w> 46088
tr ain</w> 46078
N on- 46075
有 没有</w> 46071
atic ally</w> 46061
指 数</w> 46043
bro ad</w> 46036
cont ains</w> 46027
charac ter</w> 46012
appreci ation</w> 45983
settle ment</w> 45983
op ened</w> 45975
看 着</w> 45955
mo bile</w> 45952
cle an 45947
sa fe 45937
instru ment</w> 45929
科索 沃</w> 45912
govern ments</w> 45905
mem ory</w> 45905
伦 敦</w> 45897
Au th 45869
20 20</w> 45862
道 德</w> 45860
妇 女 45860
wor l 45850
cont aining</w> 45848
燃 料</w> 45831
an ia</w> 45813
Sy stem</w> 45802
哪 些</w> 45784
viol ation</w> 45782
岛 屿</w> 45764
en g</w> 45756
au di 45752
留 下</w> 45739
ey e</w> 45729
H ol 45696
斯 坦 45691
fu n</w> 45675
教 育 45671
P L 45668
W el 45667
ang hai</w> 45656
gr ade</w> 45648
否 则</w> 45632
carb on</w> 45630
ide as</w> 45629
有限 公司</w> 45618
der ing</w> 45600
9 5</w> 45575
俄罗 斯 45563
ob ject</w> 45554
en em 45545
lo g 45545
总 体</w> 45541
ari b 45530
tar get 45528
is s 45525
oblig ation</w> 45504
sha red</w> 45502
p age</w> 45500
ac king</w> 45499
j un 45478
人 力 45475
mu tual</w> 45442
re sid 45436
ess or</w> 45424
sk in</w> 45423
ir ing</w> 45420
提 及</w> 45419
P ak 45377
criter ia</w> 45362
联合 王国</w> 45353
ac compl 45342
refl ect</w> 45328
l eng 45303
方 针</w> 45303
常 常</w> 45300
al le 45284
chang ing</w> 45278
ow s</w> 45277
depen dent</w> 45264
M il 45263
hur t</w> 45259
阐 述</w> 45254
res ses</w> 45250
ch apter</w> 45246
oc cas 45243
e uro 45233
i bility</w> 45221
潜 在</w> 45200
消 费</w> 45187
altern ative</w> 45185
指 南</w> 45175
fe ar</w> 45140
in ing</w> 45136
appe al</w> 45134
手 机</w> 45124
w o 45120
维 亚</w> 45113
B as 45100
南 部</w> 45041
disci pl 45037
re d 45027
Pro f 45018
appro aches</w> 45015
交 通</w> 44980
s olutions</w> 44974
recogn ition</w> 44950
jo in</w> 44946
m us 44945
想 到</w> 44906
sup posed</w> 44906
培 养</w> 44883
m aster</w> 44877
ra ft</w> 44872
V ic 44867
做 到</w> 44867
acti vely</w> 44852
应 用 44848
来 到</w> 44824
Environ ment</w> 44810
cr oss</w> 44806
j ap 44805
y n 44800
st ress</w> 44783
appoin ted</w> 44783
ap p 44775
D A 44771
ti n</w> 44767
trou ble</w> 44764
jud ges</w> 44763
coun t</w> 44724
H u 44721
s tic 44697
g ain</w> 44691
活 性</w> 44688
月 份</w> 44659
其 他人</w> 44655
r on 44652
十 二 44651
4 - 44629
eas es</w> 44626
pu ty</w> 44623
大 型</w> 44592
peri odic</w> 44592
e k</w> 44583
E ar 44557
pop ular</w> 44552
S al 44546
beg in</w> 44530
employe es</w> 44514
jurisdic tion</w> 44510
c ro 44509
C ul 44482
cre ating</w> 44477
气 候</w> 44470
强 烈</w> 44469
丰 富</w> 44469
救 济</w> 44455
逮 捕</w> 44452
aff ect</w> 44449
M ost</w> 44436
al g 44431
外 交</w> 44416
cy cle</w> 44403
西班 牙</w> 44395
l t 44385
ad d</w> 44383
de pos 44383
L ord</w> 44382
wid ely</w> 44382
有 利于</w> 44377
检察 官</w> 44377
分 类</w> 44341
这 件</w> 44339
法 案</w> 44337
葡 萄 44326
坐 在</w> 44310
in ated</w> 44304
consequ ences</w> 44299
plan e</w> 44271
像 是</w> 44264
投资 者</w> 44261
g .</w> 44258
har d 44248
difficul ties</w> 44246
ordin ary</w> 44245
re affir 44237
空 气</w> 44219
fa ult</w> 44213
严 格</w> 44210
bu s</w> 44206
土耳 其</w> 44185
听 说</w> 44180
dou ble</w> 44168
ow ned</w> 44165
一般 性</w> 44150
re ven 44120
I L 44118
武装 冲突</w> 44117
I S</w> 44111
Res ear 44111
S O 44108
诸 如</w> 44105
k id</w> 44103
op tions</w> 44101
on ed</w> 44095
star ting</w> 44087
H er</w> 44086
民 众</w> 44070
7 2</w> 44065
Austr alia</w> 44036
expendit ure</w> 44030
arib bean</w> 44009
pre - 43991
st ations</w> 43990
dis placed</w> 43969
l an 43953
on don</w> 43926
teach ers</w> 43910
si vely</w> 43902
氧 化 43872
Jo int</w> 43846
accoun ts</w> 43817
ev ision</w> 43808
accoun tability</w> 43803
Chil d</w> 43791
层 面</w> 43781
to m</w> 43780
exten ded</w> 43759
Pol ice</w> 43753
劳 工</w> 43752
per sp 43745
at tr 43744
com mission</w> 43742
提 供 43726
fif ty- 43723
增 进</w> 43696
o ffered</w> 43692
op tion</w> 43665
b ar</w> 43662
消费 者</w> 43653
ti ll</w> 43652
s cri 43639
recor ds</w> 43636
P or 43635
spe ech</w> 43635
现 场</w> 43619
所 涉</w> 43614
el er 43608
D C 43583
aren cy</w> 43581
f as 43579
en abl 43579
announ ced</w> 43578
产 业</w> 43573
investig ate</w> 43566
exist ence</w> 43565
L u 43560
候选 人</w> 43545
l ink</w> 43531
A gen 43510
datab ase</w> 43509
Add .1</w> 43491
信 托</w> 43478
交 换</w> 43460
M ore</w> 43453
su d 43447
8 5</w> 43438
re n</w> 43412
相 互 43410
cl assi 43398
se l</w> 43397
ag ent</w> 43391
Sec ond</w> 43390
qu es</w> 43387
sur ve 43383
博 士</w> 43380
out put</w> 43378
ing u 43371
雇 员</w> 43370
最 低</w> 43366
end or 43359
判 决</w> 43335
w ind</w> 43330
F ed 43329
失 踪</w> 43324
M E 43303
密 切 43297
ow ing</w> 43294
le - 43288
不得 不</w> 43272
法 治</w> 43265
fail ed</w> 43255
C aribbean</w> 43245
进 来</w> 43235
P en 43216
Eg yp 43216
公 路</w> 43190
科 威 43187
发言 人</w> 43182
conf idence</w> 43181
str ai 43178
West ern</w> 43164
bir th</w> 43161
组 成 43144
eng aged</w> 43141
aw are</w> 43141
组成 部分</w> 43139
习 惯</w> 43134
for d</w> 43130
e red</w> 43123
边 界</w> 43122
signific antly</w> 43105
S a 43102
争 取</w> 43100
l un 43098
捐 助 43095
ev en 43085
uni que</w> 43056
hol ds</w> 43054
积 极 43049
are n</w> 43042
di agn 43037
s ell</w> 43035
guaran tee</w> 43032
Administr ation</w> 43029
din ner</w> 43013
不 够</w> 43010
defin ition</w> 43008
cho ose</w> 43007
生 物 43006
th i 43001
C .</w> 43000
ex ist</w> 42990
adju st 42949
oc k</w> 42943
wh atever</w> 42934
e br 42933
hu ge</w> 42926
reli ef</w> 42924
不 利</w> 42920
to - 42918
es tions</w> 42910
合 法</w> 42901
Head quarters</w> 42901
H R</w> 42889
le gi 42889
害 怕</w> 42884
居 住</w> 42879
appe ared</w> 42878
sum mer</w> 42871
re presented</w> 42868
干 预</w> 42861
te acher</w> 42858
ar rest 42855
L atin</w> 42848
eas ily</w> 42835
thre at 42803
T im 42792
web site</w> 42788
v olu 42776
可 靠</w> 42760
mis s</w> 42744
net works</w> 42725
化 学</w> 42719
现 金</w> 42717
接 近</w> 42693
bus in 42685
enhan ced</w> 42674
小 姐</w> 42673
家 里</w> 42667
pro curement</w> 42665
认 真</w> 42657
su itable</w> 42654
气 体</w> 42640
监 管</w> 42640
广 告</w> 42622
ji ang</w> 42563
安 保</w> 42561
Islam ic</w> 42538
任何 人</w> 42533
相 反</w> 42518
协 作</w> 42514
expres s</w> 42512
multi ple</w> 42512
废 物</w> 42505
Li ber 42499
Mex ico</w> 42492
tre aties</w> 42481
stre am</w> 42453
Con go</w> 42417
Pe ace</w> 42408
ffe e</w> 42387
lat est</w> 42374
ex cept</w> 42368
上 海</w> 42366
于 是</w> 42358
方 便</w> 42333
accep ted</w> 42279
b loc 42278
b rain</w> 42278
persp ective</w> 42244
for get</w> 42242
B .</w> 42224
取 代</w> 42193
low ing</w> 42191
we ar</w> 42186
in tel 42180
Mid dle</w> 42169
su n</w> 42163
推 进</w> 42161
三 年</w> 42148
IO N</w> 42147
建 筑 42143
de aling</w> 42143
sp ir 42140
南 非</w> 42138
regi stration</w> 42116
sh ar 42114
Pol ic 42114
ing ton</w> 42101
at tribu 42082
decis i 42078
se g 42075
财 政 42069
west ern</w> 42064
大 陆</w> 42054
有 力</w> 42051
un less</w> 42029
dro p</w> 42018
ell ing</w> 42013
he re 41997
科 学家</w> 41995
ri st 41995
M at 41967
ti m</w> 41967
Fed eral</w> 41962
sist er</w> 41953
主 流</w> 41940
car rying</w> 41926
ul ed</w> 41920
inst ance</w> 41917
part ner</w> 41895
om en 41877
残 疾</w> 41876
tren d</w> 41859
tim ely</w> 41845
su me</w> 41828
re viewed</w> 41820
拉 丁 41817
干 什么</w> 41814
民主 共和国</w> 41802
Chi ef</w> 41797
cap e</w> 41796
ili ation</w> 41795
th in</w> 41790
周 期</w> 41785
电 视 41777
ish es</w> 41772
hel ped</w> 41771
acc eler 41759
col or</w> 41758
con ver 41755
colle ge</w> 41753
In te 41750
st ore</w> 41746
y esterday</w> 41719
图 像</w> 41709
el ected</w> 41707
The re 41693
no on</w> 41676
wh om</w> 41675
A sian</w> 41674
供 资</w> 41670
卢 旺 41669
secon dary</w> 41664
因 而</w> 41647
一 半</w> 41642
th anks</w> 41631
出 版 41626
事 故</w> 41623
nu tri 41601
approxim ately</w> 41579
9 9</w> 41564
em pt</w> 41563
in ven 41562
part nerships</w> 41562
通 报</w> 41556
p ain</w> 41535
conflic ts</w> 41535
democr acy</w> 41522
青 少年</w> 41510
1 - 41508
T u 41498
T ell</w> 41487
c ot 41486
婚 姻</w> 41477
sat ell 41474
强 迫</w> 41471
ur gent</w> 41449
如 今</w> 41441
进 去</w> 41411
推 广</w> 41411
om a</w> 41410
immedi ate</w> 41407
好 好</w> 41396
respon d</w> 41394
rou gh</w> 41381
it or</w> 41379
t ains</w> 41374
ic ans</w> 41372
extre m 41361
dis eases</w> 41354
7 00</w> 41344
aud it</w> 41344
gu ide</w> 41342
com mod 41340
ri ver</w> 41339
西 方</w> 41327
ti an</w> 41323
m ir 41318
li ghts</w> 41317
tar gets</w> 41300
s n 41298
突 出</w> 41297
remain ing</w> 41296
不 行</w> 41290
查 明</w> 41282
R C</w> 41279
i o</w> 41268
卢旺 达</w> 41263
lia ment</w> 41256
尝 试</w> 41255
t um 41252
p al 41247
k id 41243
F A 41233
employ ed</w> 41208
t ree</w> 41180
g ate</w> 41176
on y</w> 41173
来 看</w> 41156
expl os 41150
te sting</w> 41147
C ity</w> 41140
年 来</w> 41140
伊斯 兰 41130
sec ure</w> 41121
radi o</w> 41115
优 选</w> 41097
men d 41090
der i 41083
达 尔 41080
dre am</w> 41078
d ingly</w> 41076
全 体 41059
kin ds</w> 41058
多 种</w> 41056
含 量</w> 41048
得 以</w> 41047
vehic les</w> 41037
fe et</w> 41031
elec tro 41029
双 边</w> 41026
巴 马</w> 41017
至 于</w> 41016
ve - 41014
一 套</w> 40998
per haps</w> 40998
ther ap 40996
子 女</w> 40995
首 次</w> 40995
head s</w> 40980
enhan cing</w> 40975
am ber</w> 40969
单 元</w> 40957
sk y</w> 40957
叙 利亚</w> 40948
总 额</w> 40933
volu me</w> 40924
ser ver</w> 40913
per pet 40900
系 统 40880
6 0 40873
l a</w> 40872
Associ ation</w> 40870
ar ily</w> 40869
rap id</w> 40847
结果 表明</w> 40846
差 距</w> 40827
准 确</w> 40822
re habil 40818
figh ting</w> 40816
tre ated</w> 40793
o to</w> 40767
很 少</w> 40751
合 并</w> 40750
En g 40736
pro per</w> 40733
sp read</w> 40700
re new 40682
emer ging</w> 40674
n om 40667
il li 40667
mar ks</w> 40638
Syri an</w> 40619
起 草</w> 40618
集 体</w> 40608
re alize</w> 40608
sanc tions</w> 40603
B er 40596
克 斯</w> 40589
fac ing</w> 40579
加 工</w> 40559
约 翰</w> 40549
st one</w> 40544
替 代</w> 40542
c ast 40541
ple as 40535
Techn ology</w> 40533
comb ined</w> 40527
dar k</w> 40525
t asks</w> 40509
ob st 40509
成 绩</w> 40469
port ation</w> 40459
充 满</w> 40457
is s</w> 40435
合 适</w> 40434
a h 40426
abs ence</w> 40368
sor t</w> 40364
早 期</w> 40350
n ar 40346
全球 化</w> 40346
sub - 40321
e en</w> 40319
require ment</w> 40315
执 法</w> 40297
ch ers</w> 40297
今 日</w> 40295
ari a</w> 40285
list ed</w> 40279
Bri tish</w> 40273
thes is</w> 40269
tro ops</w> 40243
impl ications</w> 40243
obser ved</w> 40237
rele ased</w> 40237
al k 40235
schem e</w> 40234
explo itation</w> 40231
含 有</w> 40228
sw it 40225
exp ect</w> 40224
诊 断</w> 40208
can cer</w> 40206
Pr os 40205
年 轻 40203
Su stainable</w> 40175
mar ine</w> 40171
ti se</w> 40147
bas s 40141
sp end</w> 40140
en na</w> 40118
dec ide</w> 40118
干 嘛</w> 40112
cros s- 40103
lim it</w> 40091
维 也 40083
科威 特</w> 40081
Administr ative</w> 40074
连 续</w> 40073
1 50</w> 40061
er ad 40052
维也 纳</w> 40044
li mit 40035
固 定</w> 40014
y ers</w> 39987
at a</w> 39986
装 备</w> 39985
难 以</w> 39977
J ud 39968
实 验 39962
公 园</w> 39940
逐 步</w> 39935
团 结</w> 39933
刚 果 39929
Con tro 39915
战 略 39914
fac ed</w> 39906
f illed</w> 39901
8 - 39883
pros p 39871
有 趣</w> 39845
f la 39838
现 行</w> 39837
E S</w> 39834
刚 才</w> 39827
gr ounds</w> 39826
expl ain</w> 39826
好 处</w> 39820
Pers ons</w> 39813
决 心</w> 39793
proper ties</w> 39781
p ath</w> 39780
lead er</w> 39773
tr ack</w> 39763
ili ans</w> 39761
互 联网</w> 39747
sub mission</w> 39746
tow ard</w> 39734
tel evision</w> 39728
A P 39726
six ty- 39722
Add . 39717
weap on</w> 39702
agricul ture</w> 39702
期 限</w> 39699
e. g.</w> 39699
加勒 比</w> 39698
期 待</w> 39693
dig ital</w> 39680
五 年</w> 39676
申 诉</w> 39675
周 围</w> 39668
meth od 39664
密 切</w> 39663
透 明 39659
俄罗斯 联邦</w> 39659
transp arency</w> 39645
vill age</w> 39634
re al 39632
理 想</w> 39630
cl ari 39628
邮 件</w> 39627
b es</w> 39626
sel ling</w> 39619
I ts</w> 39618
cent age</w> 39580
migr ants</w> 39578
9 8</w> 39577
决 于</w> 39571
奥 巴马</w> 39569
减 轻</w> 39559
Bu reau</w> 39545
取 决于</w> 39538
exam ination</w> 39529
we ak 39527
dang erous</w> 39526
con ferences</w> 39517
展 示</w> 39509
friend ly</w> 39504
rel atively</w> 39497
g row</w> 39494
en tered</w> 39481
lin ked</w> 39476
男 女</w> 39473
透 明</w> 39473
效 益</w> 39467
F ig 39459
capac ities</w> 39447
W ait</w> 39446
输 入</w> 39442
ur ged</w> 39440
Op tional</w> 39430
惩 罚</w> 39429
人力 资源</w> 39426
期 望</w> 39425
具 体 39424
爆 炸</w> 39423
nation ally</w> 39416
尽 可能</w> 39413
tal ks</w> 39412
出 版</w> 39410
ex cell 39407
英 里</w> 39396
vehic le</w> 39396
S or 39395
reason able</w> 39388
场 所</w> 39383
direc tor</w> 39355
dist inc 39335
w ing</w> 39303
配 置</w> 39287
共 识</w> 39283
oun ding</w> 39278
cel ebr 39276
n ine</w> 39269
S m 39269
call ing</w> 39269
nam es</w> 39267
斗 争</w> 39259
sp oke</w> 39251
ol der</w> 39248
co ffee</w> 39246
U R 39241
s ale</w> 39236
军 事 39235
ic ip 39234
建 造</w> 39230
开 支</w> 39229
se as</w> 39218
ap er</w> 39213
所 载</w> 39202
Dis armament</w> 39202
B r 39191
的 确</w> 39183
伟 大</w> 39175
Re qu 39165
Pak istan</w> 39161
em o 39153
Resear ch</w> 39153
ell o</w> 39152
recogn ize</w> 39136
逐 渐</w> 39126
cru cial</w> 39126
6 - 39125
heal thy</w> 39103
d ry</w> 39096
后 面</w> 39095
Dis crimination</w> 39086
ha z 39084
f uck</w> 39082
hu h</w> 39081
当 事 39076
appoin tment</w> 39072
diffe rences</w> 39070
y i 39067
vari ety</w> 39051
believ ed</w> 39041
sch ed 39041
J er 39019
ph il 39015
re pl 39013
公 务 38999
UNF PA</w> 38993
国 籍</w> 38975
orig in</w> 38974
协调 员</w> 38973
长 官</w> 38970
秘 密</w> 38963
An nex</w> 38957
di strict</w> 38937
al ists</w> 38914
动 机</w> 38911
back ground</w> 38908
临 床</w> 38902
Cha ir</w> 38897
所 示</w> 38888
th ly</w> 38887
mot e</w> 38881
到 达</w> 38874
回 应</w> 38861
和 平 38859
f al 38857
accoun ting</w> 38857
主 持</w> 38853
种族 歧视</w> 38849
plen ary</w> 38836
A no 38829
北 部</w> 38814
stud ent</w> 38814
gr and 38789
出 生</w> 38783
7 4</w> 38778
B en 38775
et ary</w> 38775
mi x 38773
ori th 38764
tel e 38763
equ i 38761
UN ID 38747
dis crimin 38739
abs olu 38733
langu ages</w> 38731
8 7</w> 38727
wind ow</w> 38712
C l 38701
pl ate</w> 38678
elec tric</w> 38673
没 错</w> 38672
U. S.</w> 38658
早 上</w> 38651
com position</w> 38627
p ick</w> 38594
fin dings</w> 38593
tell ing</w> 38578
市 场 38569
ic ated</w> 38568
团 队</w> 38565
List en</w> 38557
re action</w> 38554
illu str 38553
完 善</w> 38546
coun cil</w> 38526
reg ulation</w> 38521
飞 行</w> 38490
各 位</w> 38487
fam ous</w> 38487
a x</w> 38486
更 大</w> 38485
vic tim</w> 38472
爱 尔 38461
There fore</w> 38447
掌 握</w> 38443
Cub a</w> 38426
拉丁 美洲</w> 38426
ob tain</w> 38420
att emp 38420
it ment</w> 38418
pre sid 38418
b ound</w> 38413
哥 伦 38399
provis ional</w> 38397
w in 38382
jud ge</w> 38378
other wise</w> 38375
0 1</w> 38360
前 往</w> 38360
patter n</w> 38360
high ligh 38354
Ano ther</w> 38335
ste el</w> 38324
g an</w> 38323
sensi tive</w> 38315
O ver 38312
experi ences</w> 38302
m el 38291
Pre vention</w> 38291
重 复</w> 38289
pol lu 38289
wee k 38282
decisi on- 38279
civ ilians</w> 38278
gr y</w> 38269
mean ing</w> 38267
ter min 38246
ph ere</w> 38226
in struc 38198
i red</w> 38192
n esses</w> 38182
cour ses</w> 38179
提 醒</w> 38175
e ds</w> 38164
str ain 38150
becom ing</w> 38145
indic ate</w> 38121
specif ically</w> 38113
see king</w> 38109
尽 快</w> 38093
regi stered</w> 38091
cra zy</w> 38086
T ra 38080
Coun tries</w> 38061
at tit 38050
赋 予</w> 38032
小 心</w> 38030
维 和</w> 38012
C H 37989
发 射</w> 37984
受 伤</w> 37980
排 放</w> 37969
sh el 37933
inter - 37931
深 入</w> 37924
中 东</w> 37920
w illing</w> 37917
无 论 37910
i ther</w> 37904
so il</w> 37898
瑞 士</w> 37890
an ci 37884
阻 碍</w> 37882
n ur 37878
draw n</w> 37874
we d 37867
z e 37864
pol i 37856
富 尔</w> 37847
依 赖</w> 37830
士 兵</w> 37822
stor age</w> 37817
j usti 37816
采取 措施</w> 37814
观 念</w> 37812
法 规</w> 37810
le ts</w> 37803
e u 37797
e ast</w> 37796
em en</w> 37794
li ons</w> 37791
经 理</w> 37784
剥 夺</w> 37781
P A 37769
P O 37766
invol vement</w> 37754
a b</w> 37749
f le 37746
终 于</w> 37742
li gence</w> 37734
他 妈 37732
m ail</w> 37719
等 待</w> 37719
现 代 37709
st ance</w> 37708
十 一 37702
中 期</w> 37697
防 治</w> 37681
他妈 的</w> 37673
动 员</w> 37655
b ill</w> 37651
1 20</w> 37650
达尔 富尔</w> 37641
充 分 37639
di a</w> 37625
日 子</w> 37621
exper tise</w> 37608
前 景</w> 37602
met al</w> 37600
NG Os</w> 37599
six th</w> 37578
we b</w> 37558
qu al 37551
同 一</w> 37547
样 子</w> 37530
E D</w> 37523
engine ering</w> 37522
每 次</w> 37516
ex ce 37516
don ors</w> 37514
Agen da</w> 37513
head quarters</w> 37503
t y 37491
quar ter</w> 37491
提 请</w> 37484
maxim um</w> 37482
retur ned</w> 37476
第二 次</w> 37475
Vi enna</w> 37466
海 洋 37454
te ams</w> 37454
ay ed</w> 37453
小 型</w> 37449
ill icit</w> 37449
教 训</w> 37428
S B 37427
声 称</w> 37426
e .</w> 37416
ter ing</w> 37414
re forms</w> 37412
gu ard</w> 37412
e ar</w> 37409
c ast</w> 37403
c row 37398
cir cul 37396
Braz il</w> 37387
tou ch</w> 37375
导 弹</w> 37374
sel ection</w> 37371
sp ring</w> 37365
效 力</w> 37362
st er 37360
全体 会议</w> 37360
im mun 37354
it i</w> 37349
pro vin 37346
t ex 37335
没 什么</w> 37332
B ased</w> 37330
裁 决</w> 37330
E R</w> 37329
recor ded</w> 37328
提 升</w> 37322
ag g 37322
mar g 37322
control led</w> 37280
咖 啡</w> 37275
中 有</w> 37272
D ru 37269
证 人</w> 37260
分 发</w> 37252
ast ers</w> 37250
f oundation</w> 37242
I C</w> 37237
G ive</w> 37227
es ia</w> 37223
Jap anese</w> 37214
alg orith 37207
On ly</w> 37204
K e 37201
bel ong 37194
生 态 37181
mis sing</w> 37177
de p 37167
invest ors</w> 37164
代 理</w> 37138
pre fer 37117
re ality</w> 37093
U N</w> 37091
警 告</w> 37089
see ing</w> 37088
frequ ency</w> 37079
observ ations</w> 37079
represent ation</w> 37076
pre ce 37063
ce re 37049
as king</w> 37044
讲 话</w> 37037
P o 37025
法 令</w> 37016
for tun 37015
工 发</w> 37009
contribu ting</w> 37008
刚果 民主共和国</w> 36992
confir med</w> 36986
为 何</w> 36977
刺 激</w> 36973
担 保</w> 36972
Lab our</w> 36961
out standing</w> 36955
而 已</w> 36949
区 域 36947
h ate</w> 36938
work shops</w> 36929
C am 36928
mo de</w> 36924
on ing</w> 36923
物 品</w> 36913
tw enty- 36882
关 闭</w> 36855
真 实</w> 36849
两 次</w> 36846
b lock</w> 36841
有 个</w> 36822
工 厂</w> 36818
年轻 人</w> 36809
昨 天</w> 36806
speci es</w> 36804
强 大</w> 36801
un ity</w> 36800
效 应</w> 36796
power ful</w> 36795
信 仰</w> 36792
m its</w> 36786
bl ue</w> 36785
th es</w> 36783
ass ess</w> 36783
保 险 36738
bri dge</w> 36735
想 象</w> 36734
J e 36732
occup ied</w> 36727
付 款</w> 36725
E A</w> 36722
spok es 36709
strength ened</w> 36707
es h</w> 36705
f ill</w> 36696
thous ands</w> 36665
sum mary</w> 36663
resul ted</w> 36659
extrem ely</w> 36659
加 快</w> 36658
最 初</w> 36656
9 6</w> 36651
国家 一级</w> 36635
deli ber 36629
memb ership</w> 36617
in sul 36602
toler ance</w> 36590
el abor 36589
F ac 36584
expl ore</w> 36543
def ence</w> 36543
emphas ized</w> 36525
Auth ority</w> 36509
on e- 36502
j ury</w> 36497
p ip 36490
ru p 36477
3 , 36470
low - 36440
ar di 36435
diffe ren 36432
con serv 36428
gl ass</w> 36428
certain ly</w> 36427
Un der 36425
offic er</w> 36411
ma p</w> 36409
conn ected</w> 36406
Wh ich</w> 36386
for um</w> 36382
pati ent</w> 36376
透明 度</w> 36371
decision- making</w> 36363
model s</w> 36359
phen omen 36351
核 查</w> 36344
pro ved</w> 36344
美 丽</w> 36340
seas on</w> 36328
蛋 白</w> 36317
公务 员</w> 36303
be ar</w> 36296
aliz ing</w> 36290
s or</w> 36288
trad ing</w> 36257
f it</w> 36240
Fur ther</w> 36235
g or 36228
work shop</w> 36228
appe ars</w> 36215
独 特</w> 36207
author ized</w> 36207
pris ing</w> 36206
m outh</w> 36194
estim ates</w> 36192
h i</w> 36191
mon y</w> 36183
noti ce</w> 36171
颁 布</w> 36155
re r</w> 36154
se emed</w> 36153
百分 之 36152
f ing 36147
techni que</w> 36142
m ale</w> 36141
第 四</w> 36136
ab sor 36122
expan sion</w> 36122
分 离</w> 36113
低 于</w> 36111
fin ding</w> 36110
容 忍</w> 36093
清 洁</w> 36088
allow s</w> 36076
The ir</w> 36073
罗 马</w> 36071
给 出</w> 36071
合作 伙伴</w> 36060
soldi ers</w> 36059
女 童</w> 36056
b ound 36052
ad y</w> 36049
cont ain</w> 36048
custom ers</w> 36036
R w 36030
科 学 36029
m ac 36016
对 待</w> 35996
来 文</w> 35996
ri er</w> 35994
i ans</w> 35992
储 存</w> 35987
contr acts</w> 35983
危 害</w> 35982
St op</w> 35980
identi fication</w> 35979
K en 35976
公 里</w> 35970
Offic er</w> 35961
L ondon</w> 35945
融 资</w> 35945
care er</w> 35943
top ic</w> 35931
exp ec 35927
7 6</w> 35915
是 从</w> 35903
K y 35888
prin cip 35888
cir cu 35887
hand le</w> 35884
分 析 35883
8 2</w> 35875
ic als</w> 35872
recru itment</w> 35872
循 环</w> 35871
农 民</w> 35854
fac es</w> 35852
以 期</w> 35840
we alth</w> 35836
integr ity</w> 35830
跟 踪</w> 35829
翻 译</w> 35827
becom es</w> 35823
Me th 35813
W ill</w> 35810
商 业 35809
M ad 35807
de grad 35788
sec ret</w> 35785
identi ty</w> 35785
Coordin ation</w> 35782
fr ame</w> 35773
ser iously</w> 35767
ac knowled 35766
年 底</w> 35761
jour n 35758
7 8</w> 35755
H a 35752
难民 署</w> 35727
应用 程序</w> 35725
某 个</w> 35705
for th</w> 35694
宝 贝</w> 35691
死 刑</w> 35688
P ow 35683
exten d</w> 35666
0 5</w> 35660
剥 削</w> 35660
能 量</w> 35656
ad ing</w> 35655
br inging</w> 35636
dev ices</w> 35617
有 用</w> 35600
解决 办法</w> 35600
sp ac 35586
sub regional</w> 35580
作 者</w> 35571
Con clu 35570
ev ening</w> 35560
巴 黎</w> 35537
地 震</w> 35520
perform ed</w> 35517
rel ative</w> 35498
A N</w> 35489
Th us</w> 35477
老 板</w> 35469
en n 35467
7 1</w> 35461
techni ques</w> 35453
具 备</w> 35451
consider ing</w> 35448
第 七 35447
W H 35440
ab ol 35439
R ob 35438
b ol 35430
off ers</w> 35426
sti mul 35425
暴力 行为</w> 35425
del ay</w> 35423
可 行</w> 35418
ad ver 35408
Fin ally</w> 35402
接 收</w> 35396
dri ving</w> 35396
A ud 35391
K os 35390
particip ated</w> 35375
爱尔 兰</w> 35370
po ol</w> 35369
analy zed</w> 35364
彻 底</w> 35363
B os 35362
制 造 35362
以 往</w> 35337
业 绩</w> 35321
信 心</w> 35312
促 使</w> 35311
arch it 35311
corpor ate</w> 35306
与 此 35302
注 册</w> 35301
i di 35295
et ter</w> 35282
th or 35277
情 报</w> 35274
te enth</w> 35273
ec ture</w> 35269
后 勤</w> 35266
rehabil itation</w> 35266
in put</w> 35255
CO N 35251
ent al</w> 35249
P op 35247
te sts</w> 35237
du m</w> 35235
organ s</w> 35230
previ ously</w> 35201
re ti 35196
eng age</w> 35193
E limin 35189
leng th</w> 35189
面 积</w> 35188
UNID O</w> 35180
correc t</w> 35175
inde x</w> 35173
D el 35171
朝 鲜</w> 35170
8 6</w> 35167
动 态</w> 35167
re presents</w> 35165
化学 品</w> 35159
co ol</w> 35158
种族 主义</w> 35157
fres h</w> 35154
every body</w> 35152
sol id</w> 35149
紧 急 35136
eng agement</w> 35134
con vic 35128
In iti 35120
nam ely</w> 35108
外 面</w> 35106
associ ation</w> 35102
Leban on</w> 35100
尼 日 35099
co he 35097
st ar</w> 35093
C D 35088
assess ments</w> 35082
载 有</w> 35064
H el 35062
F am 35059
精 神 35051
3 - 35048
conclu sions</w> 35046
原 来</w> 35014
N ucle 35012
par k</w> 35012
candi dates</w> 35007
切 实</w> 35006
gr av 35006
fi xed</w> 35003
dynam ic</w> 35003
pl ants</w> 34997
struc tural</w> 34991
地 址</w> 34989
人 物</w> 34985
表 决</w> 34984
S ev 34976
categ ory</w> 34975
s low</w> 34974
man age</w> 34970
hel ping</w> 34947
转 变</w> 34929
时 刻</w> 34911
figu res</w> 34911
big gest</w> 34910
es us</w> 34908
occup ation</w> 34907
obst ac 34894
代 码</w> 34892
s ick</w> 34878
re a</w> 34871
less ons</w> 34865
zh ou</w> 34863
Polic y</w> 34855
fu r</w> 34854
comb ination</w> 34838
ov o</w> 34838
di am 34834
pl us</w> 34831
赢 得</w> 34830
认 可</w> 34828
Oper ations</w> 34828
ke e 34818
学 会</w> 34805
9 7</w> 34798
emphas is</w> 34784
acc es 34780
艺 术 34771
re conc 34770
和 解</w> 34766
men ted</w> 34763
coordin ated</w> 34752
Som alia</w> 34750
de al 34747
histor ical</w> 34742
奇 怪</w> 34730
加 上</w> 34726
争 议</w> 34717
中 间</w> 34705
消 失</w> 34699
we ather</w> 34699
pos t 34692
def ense</w> 34688
赞 扬</w> 34681
movi e</w> 34680
introduc tion</w> 34679
inde ed</w> 34676
S we 34665
ag e 34665
anci ent</w> 34661
酌 情</w> 34659
me ant</w> 34659
m al</w> 34652
H ello</w> 34639
Finan cial</w> 34637
t ance</w> 34633
under take</w> 34625
id ent</w> 34620
some body</w> 34601
海 地</w> 34589
coll ective</w> 34582
附 属</w> 34580
El ec 34579
ell ed</w> 34571
作 业</w> 34564
elimin ate</w> 34561
绿 色</w> 34560
shap e</w> 34560
Leg al</w> 34558
cop y</w> 34555
ali ve</w> 34554
Ph il 34551
s mar 34543
increas es</w> 34532
sist ant</w> 34528
M emb 34525
thre ats</w> 34516
clo thes</w> 34511
群 岛</w> 34507
M r 34506
Commun ity</w> 34498
fun ded</w> 34491
wel comes</w> 34486
im posed</w> 34474
decre ase</w> 34471
负 担</w> 34454
clin ical</w> 34447
des er 34442
en ting</w> 34435
sp ending</w> 34433
Fig ure</w> 34433
8 8</w> 34429
li br 34427
足 以</w> 34401
pos ite</w> 34392
ad ed</w> 34385
r o</w> 34378
char ges</w> 34374
世界 银行</w> 34373
共同 体</w> 34368
An y</w> 34366
津 贴</w> 34364
el ine</w> 34359
In don 34354
特 设</w> 34352
Strate gy</w> 34350
k il 34322
续 性</w> 34318
规 划署</w> 34316
Ar ab 34315
lar ger</w> 34308
mil es</w> 34298
s co 34273
他 会</w> 34271
per form</w> 34265
per centage</w> 34263
innov ation</w> 34253
幸 福</w> 34251
appe arance</w> 34244
gi ble</w> 34234
表 演</w> 34224
G az 34221
form ing</w> 34219
希 腊</w> 34209
使 用 34199
S R 34196
人 力</w> 34179
拜 托</w> 34173
f light</w> 34171
杂 志</w> 34164
is es</w> 34147
cooper ate</w> 34147
完 美</w> 34146
loc ations</w> 34144
扩 展</w> 34141
将 来</w> 34130
M c 34124
制 止</w> 34123
9 2</w> 34117
m ar</w> 34107
medic ine</w> 34106
ter ri 34092
mat ch</w> 34092
chan nel</w> 34092
类 别</w> 34081
fr ag 34062
Egyp t</w> 34053
华 盛 34052
P C 34050
生 存</w> 34050
don or</w> 34048
事务 部</w> 34039
end ers</w> 34029
D raft</w> 34026
il s</w> 34010
ab road</w> 34010
5 - 34006
友 好</w> 33998
cu tting</w> 33997
arrest ed</w> 33993
敏 感</w> 33991
techn ological</w> 33984
UN MI 33979
religi on</w> 33979
IN G</w> 33976
dist ance</w> 33969
订 正</w> 33948
8 3</w> 33923
弹 药</w> 33923
ven tions</w> 33916
any more</w> 33915
manag er</w> 33913
T i 33911
ash ington</w> 33909
gu ards</w> 33908
摘 要</w> 33904
tw o- 33901
cl ass 33900
pro p 33897
v or 33896
D ay</w> 33895
sev enth</w> 33887
利 比 33886
Com p 33884
斯 拉 33862
rati o</w> 33857
模 拟</w> 33851
b oss</w> 33846
婴 儿</w> 33846
man dates</w> 33846
语 文</w> 33842
这 场</w> 33841
trad ition</w> 33839
任 期</w> 33838
suppor ts</w> 33838
subsequ ent</w> 33832
tren ds</w> 33830
worl d 33818
拟 定</w> 33812
them e</w> 33810
利 亚 33807
s la 33806
believ es</w> 33799
克 兰</w> 33794
ex ports</w> 33781
medi um</w> 33779
i ding</w> 33773
E U</w> 33771
D oc 33769
rest s</w> 33766
strai ght</w> 33758
咱 们</w> 33753
s ity</w> 33752
occur red</w> 33749
考 试</w> 33745
P C</w> 33736
pun ishment</w> 33736
comm and</w> 33729
开 心</w> 33728
秘 书</w> 33724
z z 33721
Pros ecu 33710
粮 食 33698
颜 色</w> 33697
0 s</w> 33690
recei ving</w> 33680
报 表</w> 33678
contribu ted</w> 33677
acci dent</w> 33673
当 中</w> 33672
diplom atic</w> 33672
am ed</w> 33665
ess ed</w> 33665
correspon ding</w> 33663
出 售</w> 33662
克 斯坦</w> 33659
uti liz 33646
左 右</w> 33641
市 民</w> 33622
工 业 33618
amoun ts</w> 33618
speci fied</w> 33617
pre me</w> 33613
申 请 33585
i ent</w> 33584
loc ked</w> 33583
anim als</w> 33583
ot ed</w> 33577
N ig 33573
ro oms</w> 33573
prohi b 33569
vis its</w> 33566
d red</w> 33565
pl ays</w> 33562
配 合</w> 33542
S C 33538
探 索</w> 33536
los ses</w> 33535
cat ch</w> 33531
S ur 33522
D r.</w> 33520
plat form</w> 33519
新 型</w> 33516
某 种</w> 33512
al i</w> 33509
To day</w> 33509
Z e 33508
re jec 33499
un able</w> 33497
li ved</w> 33486
执行 局</w> 33481
再 见</w> 33477
exam ples</w> 33470
图 书 33468
谴 责</w> 33466
S ha 33461
一 道</w> 33456
v ital</w> 33440
糟 糕</w> 33435
识 别</w> 33430
有 利</w> 33426
s low 33425
非 常 33408
os la 33407
ex hi 33400
main tained</w> 33391
m as 33381
UN I 33378
inclu sion</w> 33370
关 联</w> 33360
大 使</w> 33359
优 化</w> 33354
comple tion</w> 33349
人 生</w> 33338
ser ved</w> 33337
会 儿</w> 33333
元 素</w> 33332
deli vered</w> 33328
happen s</w> 33318
引 发</w> 33317
s pl 33310
bot tom</w> 33305
Sor ry</w> 33305
ar rest</w> 33290
供应 商</w> 33285
利比 里亚</w> 33282
be t</w> 33279
te a</w> 33277
荷 兰</w> 33265
re sistance</w> 33263
nam ed</w> 33263
enti ally</w> 33259
ap ping</w> 33252
secret ary</w> 33252
statis tical</w> 33248
high- level</w> 33236
保 存</w> 33228
F ran 33227
an cing</w> 33212
cha in</w> 33210
推 出</w> 33207
sol ve</w> 33207
tri p</w> 33195
M L</w> 33190
阿 根 33188
att empt</w> 33188
收 益</w> 33184
sou ght</w> 33179
Th anks</w> 33178
原 理</w> 33176
advant ages</w> 33151
enem y</w> 33150
D NA</w> 33148
m iti 33148
这 份</w> 33148
ti tu 33147
hun dred</w> 33147
加 拉 33141
pro vince</w> 33139
H i</w> 33127
9 00</w> 33122
证 书</w> 33121
te dly</w> 33117
T able</w> 33109
B rit 33106
pro ve</w> 33091
ag ents</w> 33086
F if 33082
谈 谈</w> 33076
常 设</w> 33070
categ ories</w> 33068
mak ers</w> 33065
Rus sia</w> 33060
ga p</w> 33041
after noon</w> 33041
感 兴趣</w> 33039
ac tor</w> 33038
respon ses</w> 33035
mit ting</w> 33023
护 理</w> 33022
id ity</w> 33008
w ards</w> 33005
l ar</w> 32974
看 上去</w> 32963
大 楼</w> 32954
an k 32952
M u 32947
韩 国</w> 32946
att ached</w> 32938
mun icip 32935
怎么 办</w> 32935
S un 32934
fe ren 32913
cap it 32911
主 动</w> 32901
ne ur 32895
非洲 联盟</w> 32892
sec u 32885
y an</w> 32879
dam n</w> 32868
In cre 32863
b ac 32861
strong ly</w> 32860
太 太</w> 32854
抓 住</w> 32850
cap able</w> 32849
investig ations</w> 32838
flow s</w> 32837
doub t</w> 32829
w are</w> 32820
回 事</w> 32817
Sp ace</w> 32817
er ies</w> 32813
in t 32810
ar d 32795
N et 32786
ag gres 32785
ug osla 32783
总 结</w> 32777
作 出 32756
Sh anghai</w> 32753
char ged</w> 32739
com man 32734
l i</w> 32727
负 责 32715
f ly</w> 32713
achiev ements</w> 32703
l uc 32700
sent ence</w> 32698
off ences</w> 32691
hon our</w> 32674
派 遣</w> 32667
li fe 32660
S am 32639
lar g 32634
B ro 32633
no w 32633
y uan</w> 32617
intro duce</w> 32614
re present</w> 32610
不 久</w> 32597
8 1</w> 32592
particip ating</w> 32579
聪 明</w> 32575
议 题</w> 32574
合 众 32568
perpet r 32567
美 利 32559
scre en</w> 32557
trans mission</w> 32551
会 计 32549
A C</w> 32547
in form</w> 32545
substan tial</w> 32534
ail s</w> 32516
conven tions</w> 32515
laun ch</w> 32510
意 外</w> 32505
已 有</w> 32495
new sp 32481
ul l</w> 32478
潜 力</w> 32470
jud g 32467
rest aur 32466
embodi ment</w> 32464
gran ted</w> 32462
squ are</w> 32455
尼 斯</w> 32450
s ports</w> 32447
mar ked</w> 32420
雇 主</w> 32408
反 恐</w> 32405
赞 同</w> 32402
融 入</w> 32398
ch en</w> 32395
ten d</w> 32387
rac ial</w> 32386
v el 32381
usu al</w> 32381
manag ed</w> 32374
min es</w> 32361
Contro l</w> 32354
9 4</w> 32353
测 定</w> 32352
D A</w> 32348
Techn ical</w> 32338
联 络</w> 32337
on to</w> 32329
死 亡 32327
ex plan 32319
Elimin ation</w> 32313
di ary</w> 32298
fac ts</w> 32298
pa rent</w> 32285
preven ting</w> 32285
补 救</w> 32276
fav or 32273
sev ere</w> 32271
z a</w> 32268
val ent</w> 32266
bro ken</w> 32262
药 品</w> 32254
政 党</w> 32245
补 偿</w> 32240
E very</w> 32235
ing - 32235
ograp hic</w> 32235
dec laration</w> 32226
claim ed</w> 32223
is ol 32221
emis sions</w> 32219
tell ec 32218
发 起</w> 32215
scen e</w> 32213
资 源 32194
首 席</w> 32193
Se a</w> 32193
实验 室</w> 32192
res er 32185
I T</w> 32183
克 服</w> 32182
处 罚</w> 32182
秩 序</w> 32181
A t 32170
b le 32168
inter n 32168
roc k</w> 32165
通 讯</w> 32152
原子 能</w> 32152
V I</w> 32147
工程 处</w> 32141
avail ability</w> 32139
buil dings</w> 32134
脆 弱</w> 32130
Fi eld</w> 32128
al a</w> 32122
refuge e</w> 32117
那 时</w> 32112
cli ent</w> 32112
e tic</w> 32095
behavi or</w> 32094
F o 32089
we ak</w> 32080
bin ding</w> 32068
主 席 32056
be aring</w> 32053
海 关</w> 32029
th ro 32027
劳 动力</w> 32025
立 法 32005
注 重</w> 32005
9 3</w> 31999
思 考</w> 31997
上 文</w> 31996
lin ks</w> 31996
atten ded</w> 31991
por ting</w> 31989
涵 盖</w> 31987
op en 31984
ur ch</w> 31982
tion ally</w> 31981
J i 31976
gr oss</w> 31969
t i</w> 31961
生 长</w> 31955
there by</w> 31952
Rec o 31952
I D</w> 31951
8 4</w> 31940
W ould</w> 31940
L oc 31936
protec ted</w> 31930
形 势</w> 31918
car s</w> 31911
M y 31906
手 册</w> 31901
9 1</w> 31895
det ail</w> 31890
Ital y</w> 31881
跨 国</w> 31877
欧 元</w> 31876
ograph y</w> 31874
本 来</w> 31871
highligh ted</w> 31867
ou ter</w> 31864
调 动</w> 31861
Ear th</w> 31851
很 难</w> 31849
Par t 31848
docu mentation</w> 31840
争 端</w> 31839
留 在</w> 31839
Th ree</w> 31823
J esus</w> 31818
与 其</w> 31815
per sist 31812
curren cy</w> 31802
妇女 地位</w> 31799
g ames</w> 31783
N E 31779
恶 化</w> 31778
视 频</w> 31773
comb ating</w> 31771
dom in 31763
忘 记</w> 31759
图书 馆</w> 31759
pow ers</w> 31758
Tr aining</w> 31752
印度 尼 31752
知 识 31720
ip p 31719
ne ither</w> 31715
at mos 31713
min ing</w> 31711
We ap 31710
O HC 31698
co verage</w> 31695
T or 31694
per s</w> 31694
巩 固</w> 31693
R ules</w> 31689
家庭 暴力</w> 31681
out comes</w> 31680
国 务 31662
anim al</w> 31650
x i 31643
coun ter</w> 31638
dec la 31633
St atis 31627
D avi 31626
z ation</w> 31603
clos ure</w> 31599
fo ot</w> 31596
R u 31577
美利 坚 31571
答 案</w> 31567
出 于</w> 31565
心 理 31563
标 志</w> 31560
pil ot</w> 31559
恐 怖</w> 31556
pres enting</w> 31551
美利坚 合众 31542
假 设</w> 31537
ro te</w> 31537
计 数</w> 31535
i on 31531
be at</w> 31526
环境 署</w> 31521
b es 31518
h es 31517
gen t 31517
机 器</w> 31516
那 边</w> 31515
aim s</w> 31512
excell ent</w> 31506
u ally</w> 31495
休 息</w> 31489
constitu te</w> 31489
信 贷</w> 31480
D ef 31474
限 于</w> 31473
服务 器</w> 31472
做 好</w> 31470
protec ting</w> 31465
f ra 31463
is ation</w> 31462
太 阳</w> 31459
体 育</w> 31456
interpre tation</w> 31452
缺 陷</w> 31450
Mr s.</w> 31450
manufac turing</w> 31442
s old</w> 31440
礼 物</w> 31435
in k 31432
We b</w> 31425
main taining</w> 31421
南 斯拉 31404
con sci 31403
expl ained</w> 31401
sovere ign 31397
up id</w> 31394
产 权</w> 31393
satell ite</w> 31393
fi re 31381
E ach</w> 31379
prefer ably</w> 31362
H on 31355
五 个</w> 31350
world wide</w> 31350
意 愿</w> 31348
F O 31342
ap ped</w> 31341
E st 31338
dis play</w> 31337
num erous</w> 31335
re mote</w> 31330
tour ism</w> 31321
Kos ovo</w> 31318
确 立</w> 31317
ba g</w> 31315
Con gress</w> 31312
G DP</w> 31300
conven tional</w> 31293
exp and</w> 31282
衡 量</w> 31268
妨 碍</w> 31250
情 绪</w> 31246
insp ection</w> 31243
主 张</w> 31241
complain ts</w> 31241
de ad 31240
f air 31228
or al</w> 31225
f ted</w> 31222
ly mp 31222
著 名</w> 31206
大 小</w> 31205
lad y</w> 31201
刑 法</w> 31200
contro ls</w> 31198
并 未</w> 31189
arri ved</w> 31184
t ely</w> 31174
现 状</w> 31171
乐 部</w> 31165
prepar ing</w> 31162
段 时间</w> 31159
ed oms</w> 31153
和 华</w> 31152
che dule</w> 31146
nin th</w> 31141
得 出</w> 31140
suppl ies</w> 31140
ab o 31139
hu a</w> 31130
Par is</w> 31123
wor se</w> 31122
inter nationally</w> 31120
同 事</w> 31118
V ol 31115
耶 和华</w> 31112
ir y</w> 31112
新 西 31110
从 未</w> 31109
sh ad 31104
con cep 31096
S ir</w> 31094
Gen der</w> 31081
regul atory</w> 31081
fe d 31075
cont ing 31068
俱 乐部</w> 31062
要 素</w> 31059
与此 同时</w> 31053
终 止</w> 31052
institu tion</w> 31050
encour ages</w> 31049
削 减</w> 31048
制 备</w> 31041
7 9</w> 31040
as ing</w> 31026
OHC HR</w> 31024
As sistance</w> 31019
cau ght</w> 30997
头 发</w> 30994
So ci 30989
accep table</w> 30982
un g 30975
t ations</w> 30973
彼 此</w> 30969
q i</w> 30967
i - 30946
始 终</w> 30943
泰 国</w> 30942
In du 30938
不 少</w> 30913
fin ished</w> 30903
if y</w> 30902
阅 读</w> 30899
独 立 30892
加 速</w> 30885
Ch rist 30885
ast y</w> 30885
随 时</w> 30876
论 文</w> 30862
ori ented</w> 30861
S T</w> 30860
本 地</w> 30859
w ine</w> 30855
2 50</w> 30852
fas hi 30849
受害 人</w> 30844
pay ments</w> 30843
E qu 30839
bo at</w> 30830
典 型</w> 30826
委 员</w> 30815
Ye ar</w> 30811
industri es</w> 30808
an ning</w> 30801
great est</w> 30798
func tional</w> 30796
部 长 30789
管理 局</w> 30773
Fr amework</w> 30771
M ul 30758
AN D</w> 30750
概 述</w> 30749
ha el</w> 30746
Memb ers</w> 30742
第五 十 30732
体 化</w> 30731
文 明</w> 30730
S cho 30725
dre w</w> 30718
S ing 30714
s ong</w> 30702
w rote</w> 30700
join ed</w> 30700
W al 30697
organiz ational</w> 30693
organ ic</w> 30692
fed eral</w> 30686
sou thern</w> 30684
gen der 30683
任 意</w> 30680
present ation</w> 30667
i tions</w> 30663
ow nership</w> 30661
interest ing</w> 30659
draw ing</w> 30657
f ts</w> 30647
利 比亚</w> 30638
suff ering</w> 30633
Y ugosla 30632
hol e</w> 30631
su stain 30625
教 科 30614
讨 厌</w> 30613
trans portation</w> 30603
UN - 30597
co vering</w> 30594
continu ous</w> 30593
分 之一</w> 30585
pres sed</w> 30571
百 万</w> 30565
sugg est</w> 30564
W A</w> 30562
dep th</w> 30561
R O 30552
ash ed</w> 30548
be i 30534
全 体</w> 30533
war m</w> 30524
ti le</w> 30522
E C</w> 30518
consider able</w> 30516
gr ant</w> 30515
仲 裁</w> 30512
ris ing</w> 30511
国 会</w> 30510
国 王</w> 30509
示 范</w> 30505
R em 30502
Rec alling</w> 30496
V al 30492
航 空</w> 30484
询 问</w> 30467
F ood</w> 30461
signific ance</w> 30453
ann i 30439
ap ar 30437
ro ll</w> 30437
滥 用</w> 30435
pollu tion</w> 30434
案 例</w> 30433
sovereign ty</w> 30432
添 加</w> 30419
殖 民 30416
stop ped</w> 30414
i . 30410
d um 30410
几 内 30408
批 评</w> 30400
纤 维</w> 30390
m as</w> 30385
let ters</w> 30379
预防 犯罪</w> 30368
m ad</w> 30366
志 愿 30366
排 除</w> 30364
华盛 顿</w> 30358
有 效 30356
CO P</w> 30354
algorith m</w> 30353
dol lar</w> 30350
k es</w> 30338
b ought</w> 30332
g un 30324
ol es 30319
Be fore</w> 30315
au l</w> 30313
有 所 30305
小 孩</w> 30303
lo ved</w> 30299
国 内 30295
设 法</w> 30295
ici ary</w> 30294
fe ature</w> 30291
西 部</w> 30290
高 专</w> 30289
s ors</w> 30285
year - 30276
ad visory</w> 30272
gr at 30271
Tr ust</w> 30271
美利坚合众 国</w> 30266
菲 律 30263
参 与 30257
持 久</w> 30243
毫 无 30232
挪 威</w> 30231
有 机</w> 30229
Ku wait</w> 30229
pan el</w> 30215
名 称</w> 30202
param eters</w> 30197
D .</w> 30190
成 分</w> 30190
experi enced</w> 30190
Requ ests</w> 30182
mar ily</w> 30181
thous and</w> 30181
cust oms</w> 30176
乌 克兰</w> 30175
great ly</w> 30155
交 通 30148
管 辖</w> 30144
liqu id</w> 30140
本 人</w> 30138
fa ith</w> 30128
接 着</w> 30121
alleg ed</w> 30115
自 从</w> 30100
几 天</w> 30093
gg le</w> 30086
v a</w> 30084
publ ic 30083
玩 笑</w> 30074
Exper ts</w> 30059
皮 肤</w> 30053
he aring</w> 30048
sur r 30031
certi f 30026
ever th 30025
列 出</w> 30022
spokes man</w> 30018
8 9</w> 30008
invest ments</w> 30008
target ed</w> 30008
pl i 30004
Cul tural</w> 29989
everth eless</w> 29985
高 于</w> 29975
营 养</w> 29973
v an 29963
le aves</w> 29959
lat ter</w> 29958
帝 汶</w> 29957
尼 亚 29955
pu tting</w> 29955
k illing</w> 29941
A L 29940
感 受</w> 29938
许 可</w> 29937
国 外</w> 29936
id ly</w> 29934
议 事 29932
princip al</w> 29929
territ ories</w> 29923
cu r</w> 29921
di ff 29919
强 度</w> 29918
. 2</w> 29910
sit ting</w> 29910
Inte gr 29908
ti e</w> 29904
st ant</w> 29900
resol ve</w> 29900
输 出</w> 29887
l ay</w> 29877
hop ed</w> 29874
evalu ate</w> 29865
庆 祝</w> 29863
C ur 29860
交 给</w> 29858
limin ary</w> 29855
un employment</w> 29847
细 节</w> 29846
加 沙</w> 29836
说 法</w> 29835
198 9</w> 29831
f ab 29830
ser ving</w> 29826
革 命</w> 29818
建 设 29806
Des pite</w> 29805
it ely</w> 29804
n one</w> 29802
尸 体</w> 29799
tre es</w> 29799
网 上</w> 29796
tion ary</w> 29793
it at</w> 29791
pack age</w> 29787
acc used</w> 29782
valu able</w> 29776
S at 29753
gu il 29743
por ted</w> 29736
den ly</w> 29732
g y 29722
comp ound</w> 29721
e ties</w> 29719
形 象</w> 29717
fe as 29716
死亡 率</w> 29714
isc al</w> 29707
O ver</w> 29695
war ning</w> 29694
o dy</w> 29690
un ion</w> 29681
bus y</w> 29675
jun c 29671
a rent</w> 29656
多 么</w> 29639
grap h 29636
出版 物</w> 29632
academ ic</w> 29625
阿根 廷</w> 29621
一 体化</w> 29612
M ac 29610
会议 室</w> 29604
最 高 29602
医 疗 29598
一 块</w> 29591
吸 收</w> 29589
eigh th</w> 29588
5 , 29586
satisfac tion</w> 29575
检 查 29573
先 进</w> 29561
y ours</w> 29560
案 文</w> 29559
帮 忙</w> 29535
人 群</w> 29533
r i</w> 29528
M ed 29528
该 项</w> 29528
l in</w> 29516
A S</w> 29505
dec ades</w> 29504
东 帝汶</w> 29499
min ority</w> 29494
ac compan 29488
战 斗</w> 29477
多 次</w> 29474
mis s 29464
天 气</w> 29463
Ch r 29454
融 合</w> 29452
房 屋</w> 29449
it ting</w> 29449
r ose</w> 29447
pop ulations</w> 29442
im possible</w> 29439
an i</w> 29438
设 想</w> 29433
Davi d</w> 29433
mag ne 29420
表 示 29415
流 程</w> 29413
客 人</w> 29400
pat ri 29392
swe et</w> 29390
有 时候</w> 29388
main land</w> 29379
Th ird</w> 29377
uti li 29377
版 本</w> 29368
生 殖</w> 29352
qu ick</w> 29351
r ul 29347
con vention</w> 29346
inci dent</w> 29338
On ce</w> 29336
不 必</w> 29335
情 形</w> 29331
manag ers</w> 29329
mur der</w> 29329
合 成</w> 29319
生 成</w> 29318
wat ching</w> 29301
p as 29300
可 爱</w> 29299
form ulation</w> 29291
人道 主义 29290
pen alty</w> 29289
人道主义 法</w> 29288
dem ands</w> 29286
the tic</w> 29282
财 富</w> 29275
区 别</w> 29272
se at</w> 29268
pri marily</w> 29264
ur s 29259
k ill 29250
海 外</w> 29248
objec ts</w> 29245
监 禁</w> 29242
y al</w> 29226
resear chers</w> 29224
cl ude</w> 29218
菲律 宾</w> 29218
实 例</w> 29217
出 发</w> 29204
格 式</w> 29203
restric tions</w> 29202
dang er</w> 29189
k rain 29187
O lymp 29183
f ish 29169
Brit ain</w> 29166
告 知</w> 29164
B e</w> 29155
compet ent</w> 29155
神 经 29153
印度尼 西亚</w> 29153
B l 29138
B ang 29131
st o 29131
program s</w> 29123
W at 29116
f at</w> 29106
前 面</w> 29104
ter y</w> 29098
li v 29093
sp ot</w> 29080
under stood</w> 29076
4 , 29070
es tion</w> 29065
Govern ing</w> 29063
H ab 29048
inclu sive</w> 29046
cat aly 29043
An y 29041
应 付</w> 29033
ri ers</w> 29030
in ary</w> 29028
con sent</w> 29024
pen ding</w> 29022
sust ained</w> 29022
S P 29019
瑞 典</w> 29014
会 计</w> 29011
tr ained</w> 28999
B us 28986
st ers</w> 28982
M D 28977
预 算 28972
被 告</w> 28965
联合 会</w> 28957
i. e.</w> 28951
Li b 28950
success fully</w> 28949
X i 28945
报 纸</w> 28944
四 年</w> 28939
co c 28937
a qu 28931
al and</w> 28929
rel and</w> 28929
Weap ons</w> 28915
Indon esia</w> 28910
漠 化</w> 28902
伊斯 兰</w> 28896
clu b</w> 28883
职 务</w> 28881
审 理</w> 28875
塞 尔</w> 28875
chil d 28872
om et 28869
constitu tional</w> 28868
E M</w> 28866
fir ms</w> 28861
下 文</w> 28858
v ice</w> 28849
Pri me</w> 28845
r ay</w> 28840
大 概</w> 28834
ce - 28827
o v</w> 28791
职 业 28791
新西 兰</w> 28788
主席 团</w> 28780
ri d</w> 28778
b ad 28775
su red</w> 28773
Tur key</w> 28773
j i</w> 28763
shor t 28748
部 件</w> 28737
追 求</w> 28728
梦 想</w> 28725
S wit 28721
Vi ol 28718
所 说</w> 28708
il ed</w> 28705
bei jing</w> 28680
主 意</w> 28677
scienti sts</w> 28674
bass ador</w> 28672
特 别 28668
ass embly</w> 28662
B oth</w> 28657
埃 塞 28656
Ger man</w> 28654
exten sive</w> 28642
custom er</w> 28640
拉 斯</w> 28635
emb ar 28621
s ac 28618
de a 28616
警 察 28615
alleg ations</w> 28615
re alization</w> 28596
成 长</w> 28590
mort ality</w> 28587
stre aming</w> 28586
长 时间</w> 28584
deli ver</w> 28580
con strain 28579
Ar gent 28567
Peace keeping</w> 28566
书 面</w> 28565
ograph ical</w> 28563
exten sion</w> 28561
consi ders</w> 28557
U r 28553
to x 28553
可 怕</w> 28551
品 牌</w> 28541
流 行</w> 28539
高 等 28536
exam ine</w> 28535
du ties</w> 28533
ot ing</w> 28519
sub stitu 28515
失 业</w> 28512
成 年人</w> 28508
Palest ine</w> 28505
in ations</w> 28474
am p</w> 28470
m ate</w> 28458
会 见</w> 28458
Gaz a</w> 28458
w ave</w> 28455
st upid</w> 28442
Fri day</w> 28439
nor ms</w> 28438
J u 28432
Sou th- 28429
mis sed</w> 28426
吁 请</w> 28423
Sev eral</w> 28420
z es</w> 28419
re sum 28416
glob alization</w> 28413
ul ated</w> 28411
fre edoms</w> 28410
col um 28408
di versity</w> 28402
tre at</w> 28388
p ush 28380
航 空 28380
o king</w> 28377
E L 28369
Sp ain</w> 28361
F re 28353
对 手</w> 28348
b id</w> 28343
intel ligence</w> 28341
记 忆</w> 28327
H o 28325
Rw anda</w> 28323
倾 向</w> 28322
pro portion</w> 28309
议事 规则</w> 28300
re productive</w> 28299
ear th 28291
协 商 28283
Par liament</w> 28279
b a</w> 28277
min orities</w> 28275
bi ological</w> 28274
共 享</w> 28273
pursu e</w> 28272
款 项</w> 28271
怀 孕</w> 28265
互 动</w> 28262
oper ate</w> 28262
制 品</w> 28261
ch ann 28254
未 经</w> 28250
up dated</w> 28249
hous es</w> 28239
St and 28227
experi ment</w> 28224
埃塞 俄 28223
g ar</w> 28222
he y</w> 28222
自然 资源</w> 28216
mor al</w> 28213
C. 3</w> 28211
难 道</w> 28210
so ft</w> 28202
顺 利</w> 28189
推 行</w> 28184
人 才</w> 28178
l - 28175
in tellec 28175
响 应</w> 28171
busin esses</w> 28168
bro ke</w> 28157
eng ine</w> 28155
chair man</w> 28155
su it</w> 28153
哥伦 比亚</w> 28152
所 在</w> 28151
re alized</w> 28149
周 年</w> 28147
负责 人</w> 28145
电 路</w> 28141
func tioning</w> 28140
urs day</w> 28140
show ing</w> 28132
世界 各地</w> 28130
profes sion 28129
larg ely</w> 28126
公 民 28120
Mon day</w> 28119
pap ers</w> 28115
l abor 28112
ang le</w> 28106
Con si 28099
ur ges</w> 28089
Gu ine 28089
l aid</w> 28082
s in 28078
一 段</w> 28072
transp arent</w> 28063
该 死</w> 28059
substan ti 28059
expen ses</w> 28054
劳 动 28053
真 相</w> 28053
M us 28052
少 数 28048
对 方</w> 28045
界 定</w> 28044
sem ination</w> 28044
leg ally</w> 28043
proper ly</w> 28036
extr a</w> 28030
ment ally</w> 28020
N P 28016
re mo 28012
S af 28010
Territ ory</w> 28003
次 级</w> 27999
昨 晚</w> 27994
il ing</w> 27993
indic ates</w> 27993
武装 部队</w> 27987
dec line</w> 27986
off ence</w> 27985
M er 27983
ve get 27975
care ful</w> 27964
第二 个</w> 27961
R ac 27955
Ad di 27940
power ment</w> 27939
缺 少</w> 27937
澄 清</w> 27937
acqu is 27935
consum er</w> 27934
近 年来</w> 27931
就 此</w> 27923
神 经</w> 27916
依 靠</w> 27908
十 五 27906
强 化</w> 27906
k in</w> 27902
能 否</w> 27898
am bi 27893
Tur k 27891
id ation</w> 27889
C a 27880
接 下来</w> 27874
r us 27873
pa th 27872
pro of</w> 27870
re move</w> 27867
另一 方面</w> 27853
b ra 27851
rati fication</w> 27851
在 线</w> 27846
两 名</w> 27846
R ed</w> 27843
结 构 27839
小 说</w> 27828
decla red</w> 27828
fru it</w> 27825
har m</w> 27821
o gen 27818
X X 27806
w ishes</w> 27804
ha m</w> 27804
pl as 27802
族 裔</w> 27793
搜 索</w> 27788
elec toral</w> 27781
extre me</w> 27779
货 币 27778
ri de</w> 27777
gg ing</w> 27777
c in 27775
pul l</w> 27770
工 会</w> 27762
重 返</w> 27762
obser vers</w> 27755
distribu ted</w> 27735
ail ing</w> 27732
T S</w> 27728
enti ty</w> 27725
ti fication</w> 27721
风 格</w> 27718
su ffered</w> 27708
il and</w> 27705
人 口 27700
reli able</w> 27697
purch ase</w> 27695
prin t</w> 27693
p .m.</w> 27692
resid ents</w> 27692
patter ns</w> 27686
j an</w> 27685
ang er</w> 27684
共 有</w> 27674
og le</w> 27674
国 防 27673
small er</w> 27668
con dem 27664
sh r 27664
退 休</w> 27661
reg ularly</w> 27653
身 边</w> 27652
f ishing</w> 27645
Pro ject</w> 27645
文 本</w> 27639
短 期</w> 27634
姑 娘</w> 27626
公共 部门</w> 27620
管 辖 27617
实 在</w> 27614
信息 技术</w> 27603
零 零 27598
sup ple 27595
them atic</w> 27582
不 见</w> 27580
敌 人</w> 27579
di gn 27578
vers ary</w> 27578
inten tion</w> 27577
I V 27575
dr inking</w> 27575
pos iti 27570
暂 时</w> 27566
dec ade</w> 27562
olo g 27560
sched uled</w> 27554
正 义</w> 27551
fin ish</w> 27544
阁 下</w> 27539
产 出</w> 27517
der ly</w> 27514
territ orial</w> 27503
Geor gi 27501
ic ul 27499
以 此</w> 27493
判 断</w> 27492
荒 漠化</w> 27489
mos tly</w> 27488
p p 27485
Ro om</w> 27478
prof it</w> 27477
v it 27474
198 8</w> 27474
inten si 27474
老 年人</w> 27473
利 昂</w> 27471
re medi 27465
wel fare</w> 27459
shi ft</w> 27445
会 谈</w> 27436
produc ing</w> 27432
t ac 27430
推 迟</w> 27425
f iscal</w> 27421
um in 27420
hosp it 27414
H ouse</w> 27411
路 上</w> 27409
er ra</w> 27406
纪 念</w> 27404
动 作</w> 27404
机 械</w> 27401
encour aging</w> 27400
competi tive</w> 27392
价 值 27391
本 书</w> 27381
ir on</w> 27370
尔 斯</w> 27369
不 多</w> 27369
验 证</w> 27368
不 幸</w> 27367
波 斯 27367
领 袖</w> 27365
C P 27358
一 致 27358
Is lands</w> 27356
修 正 27352
庇 护</w> 27349
ro ot</w> 27349
一 边</w> 27348
tu m</w> 27347
clos er</w> 27338
govern ing</w> 27334
可 用</w> 27323
0 ,000</w> 27322
pre mis 27320
小 岛屿</w> 27307
过 度</w> 27289
年 度 27286
生 意</w> 27283
捐助 者</w> 27279
im port</w> 27275
h an</w> 27272
处 理 27269
S ar 27266
A l</w> 27264
e ating</w> 27262
P os 27248
F u 27246
众 多</w> 27243
zer land</w> 27239
本 次</w> 27235
摩 洛 27233
函 数</w> 27233
利 率</w> 27227
ec tor</w> 27223
thi op 27216
塞 拉 27215
解决 方案</w> 27212
gener ated</w> 27208
F F</w> 27192
为 期</w> 27188
tw ice</w> 27185
atten d</w> 27177
巴勒 斯坦 27177
nucle ar- 27171
op position</w> 27170
现代 化</w> 27169
Not e</w> 27168
Minist ers</w> 27167
design ated</w> 27164
时 间 27162
al location</w> 27161
bur den</w> 27148
enabl ing</w> 27138
In de 27136
英 文</w> 27133
moun tain</w> 27132
st aff 27130
innov ative</w> 27126
in jec 27124
- related</w> 27123
migr ant</w> 27123
system atic</w> 27122
S ol 27113
U krain 27110
C. 5</w> 27108
20 2020</w> 27107
存 储</w> 27102
3cH 202020</w> 27101
P ur 27093
gl ing</w> 27091
估 计数</w> 27085
un k</w> 27083
asp ect</w> 27083
k it 27078
am az 27067
nation ality</w> 27064
发 放</w> 27063
Ter ror 27060
生 育</w> 27046
ul ate</w> 27043
驱 动</w> 27040
C u 27033
覆 盖</w> 27031
qu ali 27031
De puty</w> 27024
放 松</w> 27021
adver ti 27020
re min 27019
Th rough</w> 27010
rap idly</w> 27008
应 急</w> 27007
约 会</w> 27004
胜 利</w> 26987
in ner</w> 26987
hom es</w> 26984
commit tees</w> 26965
ag s</w> 26963
de dic 26960
initi ated</w> 26951
re fer</w> 26939
sh ut</w> 26933
shi p 26933
um ber</w> 26915
St ud 26913
th u 26909
y o</w> 26902
经济 体</w> 26893
compl y</w> 26882
受 益</w> 26881
1 10</w> 26879
地 面</w> 26879
circu it</w> 26862
ol i 26859
amend ments</w> 26859
adjust ment</w> 26841
用 品</w> 26837
1 st</w> 26833
旅 游 26825
Col om 26816
就 业 26812
in jury</w> 26811
促 请</w> 26806
stan ds</w> 26805
名 义</w> 26802
生 态</w> 26802
re aching</w> 26800
sho ot</w> 26797
个 人 26791
M S</w> 26786
program ming</w> 26785
any way</w> 26782
行 预</w> 26779
利 润</w> 26770
修正 案</w> 26764
pass eng 26759
沟 通</w> 26757
hol id 26757
allow ing</w> 26752
Fol lowing</w> 26750
空 缺</w> 26749
legi timate</w> 26741
r ice</w> 26721
pris ed</w> 26717
ec h 26716
com ment</w> 26715
im prison 26705
Hum an 26697
el a</w> 26692
s chedule</w> 26689
一 九 26689
tele phone</w> 26688
fi es</w> 26682
不 论</w> 26681
Pre par 26680
fun ny</w> 26679
acti v 26678
补 贴</w> 26673
si bly</w> 26672
决 策 26667
s ounds</w> 26661
ex ha 26660
dee ply</w> 26660
浓 度</w> 26656
实 地</w> 26650
go od 26646
stic k</w> 26646
el e 26641
许 可 26638
ass et</w> 26633
提 名</w> 26626
Reco gn 26626
ti s</w> 26624
频 率</w> 26613
Ob ama</w> 26613
co al</w> 26607
塞拉 利昂</w> 26595
ame works</w> 26585
pos s 26578
Pop ulation</w> 26577
join tly</w> 26573
J am 26568
no tic 26566
guaran te 26559
Ex c 26557
dri ven</w> 26555
拿 到</w> 26553
pre liminary</w> 26553
fam ili 26550
No thing</w> 26550
拨 款</w> 26546
登 记 26542
三 届</w> 26529
政 府 26526
sam ple</w> 26525
Sci enti 26516
红 色</w> 26515
farm ers</w> 26514
论 述</w> 26507
赞 成</w> 26506
繁 荣</w> 26504
cap abilities</w> 26504
ic ing</w> 26503
检 验</w> 26491
flow ers</w> 26486
D om 26485
chem icals</w> 26482
suc ce 26480
综 合 26475
trans actions</w> 26474
obvi ous</w> 26471
Pr inci 26468
E thiop 26467
Par t</w> 26454
gr ave</w> 26448
sum mar 26447
W ar</w> 26444
c up 26443
A gr 26439
cont ain 26430
assess ed</w> 26430
dis asters</w> 26429
过 境</w> 26426
b one</w> 26423
Bu il 26422
代 价</w> 26417
ch lor 26412
fe ed</w> 26412
d ress</w> 26409
expendit ures</w> 26407
ex pos 26406
belie f</w> 26402
ed ge</w> 26395
St re 26393
顾 客</w> 26386
I reland</w> 26379
驱 逐</w> 26373
布 隆 26366
季 度</w> 26364
su e</w> 26358
成 熟</w> 26354
w ast 26350
mo on</w> 26338
Dar fur</w> 26338
J ack</w> 26325
equ ity</w> 26322
abl ed</w> 26319
队 伍</w> 26309
Ap pl 26306
tot ally</w> 26286
elim ination</w> 26286
accur ate</w> 26286
极 大</w> 26281
Nucle ar</w> 26278
bi o 26274
expan ded</w> 26268
titu tion</w> 26261
prosecu tion</w> 26256
im pe 26253
dis semin 26252
人 人</w> 26248
ex pe 26247
蒙 特 26242
law yer</w> 26241
杰 克</w> 26240
V er 26236
新 加 26236
支 援</w> 26235
国 民 26233
agg reg 26229
Ze aland</w> 26225
vir us</w> 26221
后 者</w> 26212
bir th 26212
Si erra</w> 26212
publ ication</w> 26202
bl ed</w> 26199
ru b 26194
之 内</w> 26193
宗 旨</w> 26192
up date</w> 26187
endor sed</w> 26180
care fully</w> 26173
U p 26154
coordin ate</w> 26151
relation ships</w> 26151
sh ouldn</w> 26148
dispu te</w> 26141
记 住</w> 26140
P at 26139
id en 26138
air port</w> 26128
M os 26125
Y et</w> 26123
ex tra 26109
cul tiv 26106
enjo y 26102
e ded</w> 26100
exam ined</w> 26097
转 换</w> 26092
ak ed</w> 26092
cont em 26089
fil es</w> 26089
lab or</w> 26085
埃塞俄 比亚</w> 26080
aff ecting</w> 26077
对 付</w> 26073
pre ferred</w> 26068
遵 循</w> 26067
p ush</w> 26065
小 学</w> 26064
ev ol 26064
au t 26064
Al - 26063
混 蛋</w> 26061
oc cur</w> 26056
Swit zerland</w> 26056
睡 觉</w> 26054
美 好</w> 26053
s y</w> 26042
direc ted</w> 26039
nor thern</w> 26038
地 带</w> 26035
合 法 26030
W ashington</w> 26028
el ev 26026
over come</w> 26022
vis ited</w> 26020
克 罗 26018
con stant</w> 26015
塞 浦 26009
塞浦 路 26006
股 票</w> 26005
sti pul 26004
民 族 25993
form ity</w> 25993
z en</w> 25992
sign s</w> 25992
I I 25979
no ise</w> 25971
campai gn 25964
sav ings</w> 25960
马 来 25951
历 史 25951
L ast</w> 25947
st - 25943
辐 射</w> 25942
抑 制</w> 25935
单 一</w> 25929
标 记</w> 25928
prote in</w> 25928
爆 发</w> 25921
gl ad</w> 25915
两 项</w> 25913
格 兰</w> 25908
di vision</w> 25908
fac tory</w> 25906
th inks</w> 25901
et ed</w> 25898
up per</w> 25895
we aring</w> 25890
通 道</w> 25875
sec tions</w> 25871
持 有</w> 25858
体 育 25856
mil lions</w> 25855
布 鲁 25853
大 脑</w> 25850
cr yst 25850
社会 主义</w> 25847
联 邦 25845
olo gi 25844
Mic hael</w> 25843
re views</w> 25840
poli tics</w> 25832
hel ps</w> 25830
te sted</w> 25825
gradu ally</w> 25816
6 , 25815
el low</w> 25813
第三 次</w> 25813
al es</w> 25798
Su preme</w> 25798
on ia</w> 25796
w age</w> 25785
构 建</w> 25784
dis covered</w> 25782
intern ally</w> 25778
won der</w> 25774
p ace</w> 25772
in duc 25770
lo ans</w> 25770
inci dents</w> 25762
super vision</w> 25761
al co 25757
appreci ate</w> 25755
N A 25754
a c</w> 25752
er ia</w> 25751
至 今</w> 25749
our selves</w> 25744
arrang ement</w> 25742
许可 证</w> 25742
2 5 25738
our ing</w> 25738
S ch 25737
er ror</w> 25735
inst all 25730
ligh tly</w> 25730
re moved</w> 25728
th row</w> 25727
la sting</w> 25720
orig in 25719
咨 询 25717
lim its</w> 25714
won der 25710
im ages</w> 25705
ro les</w> 25702
S P</w> 25701
摩洛 哥</w> 25699
over sight</w> 25696
l o</w> 25693
her it 25693
re integration</w> 25687
sud denly</w> 25686
formul a</w> 25680
囚 犯</w> 25673
ar ising</w> 25669
Par ti 25661
divi ded</w> 25660
te en</w> 25658
ro p 25656
w inter</w> 25652
诉 人</w> 25651
Fam ily</w> 25650
各 类</w> 25646
ent re 25641
mark eting</w> 25641
尼日 利亚</w> 25632
查 询</w> 25631
常 见</w> 25628
to col 25625
形 态</w> 25624
Do es</w> 25619
the ore 25618
Hab itat</w> 25616
beau ty</w> 25612
fer ring</w> 25606
工作 者</w> 25594
imp acts</w> 25594
jap an</w> 25583
M om</w> 25582
失 望</w> 25575
轨 道</w> 25570
trans mitted</w> 25561
deploy ed</w> 25553
hop es</w> 25550
demonstr ated</w> 25542
reconc iliation</w> 25538
Inter nal</w> 25536
ther lands</w> 25536
impro vements</w> 25536
每 月</w> 25532
pl astic</w> 25529
bl ing</w> 25515
恐 惧</w> 25509
讨 论 25507
tr uly</w> 25499
I G 25492
渠 道</w> 25491
C al 25489
st an</w> 25489
dis pos 25489
de ar</w> 25486
sou l</w> 25479
al ties</w> 25468
c lock</w> 25462
商 务</w> 25450
fr ameworks</w> 25450
volun te 25450
当 选</w> 25446
删 除</w> 25446
des ire</w> 25441
免 疫</w> 25435
prison ers</w> 25434
总 数</w> 25433
UNO DC</w> 25433
pres cri 25429
br and</w> 25428
lun ch</w> 25426
comfor table</w> 25419
off ering</w> 25413
anti cip 25413
eas ier</w> 25412
N ic 25408
IA EA</w> 25407
A h</w> 25405
格 鲁 25405
con fig 25405
定 位</w> 25404
空 中</w> 25403
外 国人</w> 25401
qu iry</w> 25392
h as 25388
相 似</w> 25388
co m</w> 25387
stru ggle</w> 25386
dis semination</w> 25382
n an 25381
豁 免</w> 25377
wed ding</w> 25376
pri me</w> 25375
re construction</w> 25374
investig ated</w> 25374
带 有</w> 25373
重 新 25371
管辖 权</w> 25371
U se</w> 25368
amend ment</w> 25368
听 取</w> 25365
es sive</w> 25365
引 入</w> 25359
p aying</w> 25355
呼 吸</w> 25354
even tually</w> 25351
S pan 25346
play ers</w> 25338
多 久</w> 25334
交 易 25326
dis ability</w> 25325
dre ds</w> 25324
T a 25323
St aff</w> 25322
ti red</w> 25321
穿 着</w> 25320
企 图</w> 25319
F D 25317
con vers 25316
mil k</w> 25316
Pro ce 25313
事 先</w> 25299
er r 25296
j ac 25285
se ment</w> 25285
金融 机构</w> 25284
L i</w> 25277
sch ol 25275
n esday</w> 25274
发 送</w> 25270
dri ver</w> 25270
号 码</w> 25269
St reng 25267
198 0</w> 25260
ag er</w> 25254
ec e</w> 25249
上 次</w> 25244
est er</w> 25233
fi l</w> 25231
D an 25222
phenomen on</w> 25222
缅 甸</w> 25221
ous ness</w> 25219
An n 25215
上 涨</w> 25207
ev il</w> 25206
auth ors</w> 25198
Ab out</w> 25194
阿尔 及 25182
A C. 25178
det ection</w> 25171
Liber ia</w> 25166
引 渡</w> 25162
基本 上</w> 25155
既 然</w> 25151
fav our</w> 25150
wal king</w> 25148
康 复</w> 25144
一 座</w> 25141
Scho ol</w> 25138
um b 25127
y m 25122
cre di 25113
加 剧</w> 25111
t ap 25110
as signed</w> 25107
tocol s</w> 25106
征 聘</w> 25105
d ur 25088
科 技 25088
辅 助</w> 25086
Res pon 25083
quali fied</w> 25082
u es</w> 25081
f ications</w> 25079
ex cep 25076
卫生 组织</w> 25074
不 仅仅</w> 25070
玻 璃</w> 25067
inter face</w> 25067
identi fying</w> 25066
医 学</w> 25063
耶 路 25062
ti tle</w> 25061
逻 辑</w> 25051
bat tle</w> 25051
耶路 撒 25051
an - 25050
concentr ation</w> 25046
inter view</w> 25043
ple ased</w> 25038
expen sive</w> 25035
com prising</w> 25026
表 格</w> 25022
st ories</w> 25022
us al 25004
ar ts</w> 25000
地 图</w> 24998
活 着</w> 24990
anni versary</w> 24987
parti al</w> 24985
atmos phere</w> 24980
灵 活</w> 24975
尊 严</w> 24974
air e</w> 24962
疯 狂</w> 24958
ob il 24954
忽 视</w> 24952
pros per 24949
comp ati 24935
bound ary</w> 24933
w arm 24925
e astern</w> 24916
t ons</w> 24915
太 阳 24914
luc ky</w> 24906
y ou 24905
改 造</w> 24905
坚 定</w> 24902
较 大</w> 24892
广 播</w> 24886
灾 难</w> 24883
Res ources</w> 24883
gener ate</w> 24880
trans ferred</w> 24875
en vis 24872
越 南</w> 24867
前 提</w> 24866
phil os 24862
car ds</w> 24856
哪 个</w> 24847
档 案</w> 24847
go v 24835
re rs</w> 24832
par lia 24832
教 堂</w> 24831
暂 停</w> 24821
um - 24816
qui et</w> 24815
thre e- 24812
耶路撒 冷</w> 24807
lin ing</w> 24801
S C</w> 24798
cam p</w> 24789
obstac les</w> 24784
T ha 24779
一 部</w> 24775
co vers</w> 24772
an ding</w> 24767
M IN 24762
持 续性</w> 24761
pro gres 24761
ol ing</w> 24760
伊 朗 24757
usal em</w> 24750
head ed</w> 24745
con vin 24741
ph arm 24741
hand ling</w> 24733
幅 度</w> 24732
mist ake</w> 24726
0 8</w> 24724
那 天</w> 24722
c ope</w> 24720
C T 24720
Agr icul 24718
f alling</w> 24716
K ing</w> 24714
分 摊</w> 24708
ap art</w> 24708
any body</w> 24707
汇 率</w> 24703
h t 24701
限 度</w> 24701
谅 解</w> 24693
flex ible</w> 24689
peri ods</w> 24688
equi valent</w> 24686
0 9</w> 24671
附 加</w> 24670
amen ded</w> 24668
moder n 24666
Mon it 24665
常 规</w> 24657
earth qu 24656
o ked</w> 24655
自 治</w> 24655
li ability</w> 24647
new ly</w> 24643
克 里 24639
部长 级</w> 24639
M echan 24628
政治 权利</w> 24624
矛 盾</w> 24623
house hold</w> 24620
充 足</w> 24619
波斯 尼亚</w> 24619
G ol 24616
in no 24614
正 规</w> 24609
nutri tion</w> 24602
投 诉</w> 24599
罪 犯</w> 24598
阿 塞 24592
安 置</w> 24589
refl ects</w> 24586
老 人</w> 24585
stoc ks</w> 24579
生态 系统</w> 24573
- level</w> 24568
C ro 24568
球 队</w> 24557
un t</w> 24557
os en</w> 24555
局 长</w> 24545
infl ation</w> 24539
bal anced</w> 24537
恤 金</w> 24533
wor st</w> 24515
coun tr 24513
ten sion</w> 24512
普 遍 24510
sh op 24509
mon thly</w> 24500
measu red</w> 24496
东 部</w> 24486
equ itable</w> 24486
还 好</w> 24478
指 挥 24477
et e</w> 24466
编 辑</w> 24463
极 端</w> 24460
b ai 24456
爱 情</w> 24455
dispu tes</w> 24454
人 格</w> 24452
ch er</w> 24450
hol der</w> 24448
简 直</w> 24446
as sign 24446
一 周</w> 24442
men tion</w> 24442
文 化 24440
over seas</w> 24434
as yl 24433
v il 24426
阿塞 拜 24426
res c 24425
rati fied</w> 24423
专 业 24421
网 络 24420
不 该</w> 24419
陷 入</w> 24418
幸 运</w> 24417
strong er</w> 24416
制 性</w> 24405
餐 厅</w> 24401
变 革</w> 24400
defin itely</w> 24398
o a</w> 24392
演 员</w> 24389
初 级</w> 24386
promis ed</w> 24384
V en 24378
ful fil</w> 24373
fac ility</w> 24371
比 率</w> 24367
发 行</w> 24367
cha ir</w> 24363
no body</w> 24362
smar t</w> 24350
开 车</w> 24348
Monit oring</w> 24344
c ad 24341
b right</w> 24338
担 忧</w> 24337
transi t</w> 24337
trac ted</w> 24334
Net work</w> 24332
ri f 24330
会 上</w> 24326
foc using</w> 24326
商 店</w> 24324
B a 24319
着 手</w> 24315
re place</w> 24307
ther ing</w> 24306
ver ification</w> 24305
Parti cip 24304
中 央 24302
WH O</w> 24300
升 级</w> 24294
g ery</w> 24293
外 勤</w> 24293
ox ide</w> 24287
measu rement</w> 24285
Sci ence</w> 24280
Con sul 24273
乌 干 24268
pre ad</w> 24267
fore ver</w> 24266
pro tocol</w> 24262
马来 西亚</w> 24262
劳 工 24259
电 池</w> 24256
感 情</w> 24256
U .</w> 24254
高 效</w> 24249
co ast 24243
ad ding</w> 24236
Indi genous</w> 24234
格鲁 吉 24231
I .</w> 24223
inter action</w> 24215
wor ried</w> 24212
adap tation</w> 24210
0 7</w> 24209
序 列</w> 24201
invol ve</w> 24200
简 要</w> 24198
斯 洛 24196
人 居</w> 24193
fo rec 24193
hor se</w> 24193
I P</w> 24192
com missions</w> 24189
me at</w> 24181
t ack 24171
dro pped</w> 24171
愿 望</w> 24163
sustain ability</w> 24163
En ergy</w> 24162
肿 瘤</w> 24161
Mis s</w> 24158
suggest s</w> 24156
play er</w> 24155
外 层 24147
外层 空间</w> 24147
her self</w> 24146
由 此</w> 24143
先 前</w> 24141
view ing</w> 24141
新加 坡</w> 24141
Le one</w> 24138
边 缘</w> 24134
P u 24126
减 贫</w> 24123
Rec om 24116
销 毁</w> 24111
二 零零 24109
IC T</w> 24108
entre pre 24105
调 节</w> 24098
destro yed</w> 24098
be red</w> 24094
D on 24085
E .</w> 24080
l uck</w> 24076
肯 尼亚</w> 24076
reserv ations</w> 24076
Ma j 24073
sh oul 24071
保 持 24065
ge ographical</w> 24064
pl ed</w> 24052
libr ary</w> 24052
ci de</w> 24047
有 害</w> 24045
frequ ently</w> 24035
教科 文 24032
aut onom 24030
acc um 24017
竞争 力</w> 24014
per mit</w> 24011
E M 24010
elec om 24009
ic h 24008
Inter - 24006
al located</w> 24002
grow n</w> 24001
Terror ism</w> 24000
utiliz ation</w> 23998
P ut</w> 23997
Ne therlands</w> 23991
Ri ver</w> 23989
垃 圾</w> 23985
human ity</w> 23984
o h</w> 23983
C ould</w> 23977
attit ude</w> 23974
教科文 组织</w> 23973
疑 问</w> 23971
日 起</w> 23971
reven ue</w> 23961
oc k 23958
级 别</w> 23956
简 化</w> 23953
or dered</w> 23953
feel ings</w> 23952
intellec tual</w> 23950
税 收</w> 23943
圣 诞 23940
乌干 达</w> 23939
t ings</w> 23938
熟 悉</w> 23935
substan ces</w> 23935
大 幅</w> 23934
发 生 23932
灵 魂</w> 23931
10 5</w> 23929
忘 录</w> 23927
Stat us</w> 23926
T ER 23922
备 忘录</w> 23922
t ative</w> 23921
form at</w> 23919
mach in 23917
an c 23915
质 疑</w> 23908
南 方</w> 23906
一 支</w> 23905
一 生</w> 23904
main streaming</w> 23897
ou red</w> 23891
break fast</w> 23891
bran ch</w> 23884
re ply</w> 23882
magne tic</w> 23882
et te</w> 23879
ic ide</w> 23877
electr icity</w> 23876
em powerment</w> 23875
W as</w> 23874
缓 解</w> 23874
普 通 23872
facilit ating</w> 23866
C r 23862
Human itarian</w> 23856
1. 5</w> 23853
Initi ative</w> 23853
gen tl 23842
as er</w> 23839
O ut 23837
土 壤</w> 23832
vis ible</w> 23828
Geor ge</w> 23813
piec es</w> 23812
C .1</w> 23811
reserv ation</w> 23807
被 迫</w> 23806
D en 23803
产 量</w> 23801
谈 到</w> 23798
est ate</w> 23791
Nor thern</w> 23789
文 学</w> 23788
sha res</w> 23788
难 以 23785
mi xed</w> 23777
0 3</w> 23762
radi ation</w> 23760
仪 式</w> 23755
acquis ition</w> 23752
C er 23750
ari time</w> 23747
生 气</w> 23744
薪 金</w> 23743
基 督 23742
毕 业</w> 23730
subsi diary</w> 23727
got ten</w> 23725
st airs</w> 23718
wat er 23716
C. 2</w> 23713
alle l</w> 23712
南斯拉 夫</w> 23710
ec os 23708
mo tiv 23707
fl at</w> 23704
s aving</w> 23700
C os 23698
C enter</w> 23692
Fif th</w> 23686
无 线 23685
of - 23683
地 产</w> 23677
CN. 4</w> 23670
0 2</w> 23661
cur ricul 23661
oc ean</w> 23657
enjoy ment</w> 23654
L a 23652
reiter ated</w> 23652
活 力</w> 23651
不 良</w> 23649
男 女 23643
g ro 23638
sub programme</w> 23637
lin ear</w> 23635
t une</w> 23632
Phil ipp 23630
Indi an</w> 23621
dedic ated</w> 23621
M an</w> 23615
A B 23614
一 句</w> 23614
W TO</w> 23608
pregn ant</w> 23608
dra fting</w> 23603
tal ked</w> 23600
spec tr 23600
坚 决</w> 23598
Conclu sion</w> 23597
J ord 23595
球 员</w> 23595
fortun ately</w> 23593
经 委会</w> 23587
苹 果</w> 23587
cli ents</w> 23587
作 家</w> 23585
obser ve</w> 23585
破 产</w> 23583
b ye</w> 23580
wonder ful</w> 23579
东 道 23577
铁 路</w> 23576
fi red</w> 23573
acces sible</w> 23568
一 辆</w> 23564
cont ents</w> 23562
董 事会</w> 23559
总 值</w> 23555
constrain ts</w> 23548
ent ation</w> 23546
惯 例</w> 23541
经 验 23540
bo x 23540
compar ison</w> 23540
Leban ese</w> 23533
sal ary</w> 23531
recommen d</w> 23525
v ast</w> 23522
培 训 23520
depen ds</w> 23515
publ ications</w> 23513
Nor way</w> 23508
D et 23506
coll ected</w> 23505
Christ mas</w> 23505
wit ness</w> 23503
imag ine</w> 23502
格鲁吉 亚</w> 23489
模 块</w> 23487
or g</w> 23483
d less</w> 23480
har m 23479
成 效</w> 23470
年 前</w> 23459
year- old</w> 23457
用 作</w> 23454
deri ved</w> 23448
inf ection</w> 23447
l l 23444
专门 机构</w> 23441
第三 十 23438
受 理</w> 23437
fin ds</w> 23434
基 准</w> 23431
IL O</w> 23429
E ff 23426
到 处</w> 23426
ES CO</w> 23420
点 儿</w> 23417
re cip 23417
en cing</w> 23414
th r 23405
奥 地 23402
物 理</w> 23402
Rev .1</w> 23402
H am 23401
there of</w> 23396
一 片</w> 23394
分 为</w> 23388
布隆 迪</w> 23386
s man</w> 23384
foc al</w> 23382
生 命 23374
有 益</w> 23371
摆 脱</w> 23365
塞 尔 23363
边 境</w> 23363
Re fuge 23363
H en 23361
E astern</w> 23356
谈 话</w> 23356
对 外</w> 23353
周 末</w> 23347
ra il 23337
Direc tor 23333
建设 性</w> 23330
u tr 23327
qui red</w> 23320
j um 23319
As sistant</w> 23314
u d</w> 23313
d able</w> 23313
e di 23312
ic ious</w> 23307
res erve</w> 23306
Span ish</w> 23305
A zer 23294
清 理</w> 23283
j a</w> 23261
versi ties</w> 23255
0 6</w> 23252
血 管</w> 23252
听 见</w> 23249
f ro 23243
S ure</w> 23241
e ing</w> 23239
认 定</w> 23238
N O 23235
Argent ina</w> 23235
st abil 23232
讨论 会</w> 23230
杀 死</w> 23226
最 为</w> 23224
val uation</w> 23223
therap y</w> 23221
di r 23217
反 对 23216
传 输</w> 23203
or - 23203
promot ed</w> 23199
rec alled</w> 23197
amer ican</w> 23192
Tu esday</w> 23191
耶 稣</w> 23190
间 接</w> 23189
人民 共和国</w> 23189
找 出</w> 23186
Amer icans</w> 23180
渔 业</w> 23178
A D 23177
组 件</w> 23166
Jer usalem</w> 23166
top ics</w> 23157
li sts</w> 23150
par as</w> 23149
chann els</w> 23148
这 家</w> 23146
提供 援助</w> 23146
SR . 23145
干 扰</w> 23139
命 运</w> 23138
柬 埔 23135
Princi ples</w> 23128
L etter</w> 23127
L O 23126
杀 害</w> 23123
Con tin 23123
conduc ting</w> 23118
相 当 23117
在 乎</w> 23115
金 额</w> 23108
separ ation</w> 23101
少数 民族</w> 23101
核 裁军</w> 23095
cl asses</w> 23086
gi ft</w> 23083
some where</w> 23080
增 长 23072
cap ability</w> 23072
al li 23068
t esti 23066
d ness</w> 23064
c ab 23062
am b 23058
elecom mun 23057
dign ity</w> 23041
te ach</w> 23040
An aly 23039
es sional</w> 23037
sub stance</w> 23037
h ang 23034
n d</w> 23029
ap ore</w> 23027
happ iness</w> 23027
e es</w> 23021
appl ying</w> 23020
一 方面</w> 23015
inter vention</w> 23014
character istic</w> 23005
不 安</w> 23004
o on</w> 22995
ch urch</w> 22994
man i 22993
1 30</w> 22989
the red</w> 22979
ter - 22978
Gi ven</w> 22978
技 巧</w> 22974
ef ul 22969
en de 22967
pr us</w> 22967
produc tivity</w> 22966
F ourth</w> 22960
Ch ris 22954
ell s</w> 22954
监 察 22953
K ar 22950
刚 果</w> 22942
Pow er</w> 22941
ref ers</w> 22939
n ings</w> 22938
explan ation</w> 22933
愉 快</w> 22922
s cr 22913
m ation</w> 22910
提 高 22910
hun dreds</w> 22908
defin e</w> 22904
Ha iti</w> 22904
消 耗</w> 22893
pres sing</w> 22888
plan et</w> 22885
rel ess</w> 22884
cam era</w> 22884
信息 系统</w> 22878
f illing</w> 22872
规 约</w> 22872
fi x 22872
首 都</w> 22865
prof ile</w> 22860
第 九 22856
st ages</w> 22853
想 想</w> 22851
企 业 22850
优 秀</w> 22850
consum ers</w> 22848
stud ying</w> 22845
R om 22842
筹 措</w> 22835
f aster</w> 22833
S el 22829
k o</w> 22828
早 餐</w> 22825
h in 22822
设 定</w> 22821
Yugosla via</w> 22819
stan tly</w> 22816
协 同</w> 22812
Prosecu tor</w> 22800
年度 报告</w> 22799
D ad</w> 22794
tur ning</w> 22794
维 修</w> 22793
朝 鲜 22786
对 抗</w> 22785
口 头</w> 22783
好 了</w> 22779
Ukrain e</w> 22777
op tical</w> 22776
炸 弹</w> 22775
UN ESCO</w> 22774
蛋 白 22769
pr oud</w> 22767
ant i</w> 22766
S S</w> 22765
密切 合作</w> 22765
雇 用</w> 22755
债 券</w> 22752
主 管 22747
reve aled</w> 22729
遗 产</w> 22723
营 养 22720
西 非</w> 22719
W il 22718
选 民</w> 22715
es pread</w> 22713
FA O</w> 22704
T om</w> 22697
心 里</w> 22684
入 侵</w> 22684
transl ation</w> 22679
Ch amber</w> 22663
n a 22655
execu tion</w> 22655
al ign 22652
erad ication</w> 22651
冲 击</w> 22650
Azer bai 22641
Exc use</w> 22638
C M 22635
穆 斯 22634
contr ary</w> 22634
Inv est 22632
丧 失</w> 22631
B . 22630
kno c 22628
conclu ding</w> 22626
di vor 22625
物 体</w> 22618
str ange</w> 22612
liter ature</w> 22609
废 除</w> 22608
par allel</w> 22607
sc ared</w> 22607
fe es</w> 22600
内 地</w> 22592
IO S</w> 22590
交 付</w> 22585
ick en</w> 22585
前 进</w> 22584
极 为</w> 22584
学 者</w> 22583
exist s</w> 22579
D u 22576
D am 22576
假 如</w> 22575
一 百 22574
pre mi 22574
broad er</w> 22569
波 兰</w> 22551
S hi 22550
lin k 22549
布 什</w> 22545
其 余</w> 22545
V II</w> 22540
ch r 22538
suff er</w> 22537
创 造 22534
10 . 22530
Cy prus</w> 22525
m on</w> 22519
guaran tees</w> 22519
ti ous</w> 22514
Bus iness</w> 22514
战 斗 22511
绑 架</w> 22506
穷 人</w> 22504
P eter</w> 22503
an o</w> 22500
obvi ously</w> 22498
不 好 22497
作 物</w> 22496
al ian</w> 22495
ban king</w> 22485
pro por 22484
sho es</w> 22483
人 道</w> 22477
as ion</w> 22475
t aste</w> 22472
compl ex 22472
实 质</w> 22467
谋 杀</w> 22460
抗 议</w> 22458
0 4</w> 22454
损 伤</w> 22450
il ateral</w> 22450
psych ological</w> 22449
inv itation</w> 22442
mem or 22439
E d 22433
细 则</w> 22423
sti c</w> 22420
路 线</w> 22414
运 会</w> 22411
subjec ts</w> 22411
设 在</w> 22410
司 机</w> 22404
失 业 22404
最高 法院</w> 22403
w ake</w> 22399
sugg estions</w> 22399
descri ption</w> 22384
案 子</w> 22381
en ever</w> 22379
S lo 22377
mess ages</w> 22373
2. 5</w> 22363
加 大</w> 22358
约 束 22357
junc tion</w> 22356
Tha iland</w> 22355
包 装</w> 22354
s . 22349
下 次</w> 22345
显 得</w> 22344
stri ke</w> 22342
异 常</w> 22338
M eas 22336
ail ed</w> 22335
restaur ant</w> 22333
清 除</w> 22332
p it 22328
l ity</w> 22310
ox y 22310
sh ir 22308
陈 述</w> 22307
怎么 回事</w> 22304
re presenting</w> 22303
种 类</w> 22300
d ating</w> 22297
将 军</w> 22297
diagn osis</w> 22292
Meth ods</w> 22290
马 拉</w> 22289
有 罪</w> 22289
campaign s</w> 22287
ati on- 22284
修 复</w> 22281
Th ursday</w> 22281
au ght</w> 22278
U m</w> 22277
ju red</w> 22277
提 取</w> 22274
T ar 22273
事 物</w> 22264
下 跌</w> 22263
无 核武器</w> 22258
non- proliferation</w> 22250
只 会</w> 22248
Ira qi</w> 22247
smo king</w> 22246
mol ec 22242
议 院</w> 22241
阿尔及 利亚</w> 22241
百分 比</w> 22240
ain t</w> 22229
wid espread</w> 22225
中 学</w> 22224
当事 人</w> 22223
presid ential</w> 22223
Ex am 22212
incorpor ated</w> 22211
尽 量</w> 22210
哈 拉</w> 22206
特 里亚</w> 22201
层 次</w> 22201
规 律</w> 22201
博 物 22200
婚 礼</w> 22197
症 状</w> 22197
t ough</w> 22190
密 度</w> 22189
u ph 22185
viol ent</w> 22185
und i</w> 22183
subsequ ently</w> 22177
An g 22176
inter im</w> 22175
卖 淫</w> 22173
采 访</w> 22169
外交 部</w> 22156
酒 吧</w> 22155
id a</w> 22154
移 交</w> 22152
construc tive</w> 22150
大 大</w> 22149
仔 细</w> 22149
pos sibly</w> 22148
dis h</w> 22145
inter net</w> 22139
剩 下</w> 22136
申 诉人</w> 22134
bud getary</w> 22133
re ce 22130
br ings</w> 22123
conserv ation</w> 22117
B et 22112
electr ical</w> 22109
en ty</w> 22102
开 枪</w> 22101
lead s</w> 22095
处 境</w> 22094
透 过</w> 22093
wit nesses</w> 22093
围 绕</w> 22091
三 十 22089
cos t- 22088
政 权</w> 22087
m l</w> 22085
dist ingu 22084
p c</w> 22083
一 段时间</w> 22083
M ain 22081
fl ying</w> 22070
or m 22062
gen e</w> 22061
一 会儿</w> 22059
迹 象</w> 22058
tre as 22058
印 象</w> 22057
a ven 22056
big ger</w> 22056
答 应</w> 22054
U gan 22053
一 方</w> 22053
疫 苗</w> 22052
太 好了</w> 22050
imprison ment</w> 22048
or t</w> 22041
强 奸</w> 22039
be gun</w> 22037
ex changes</w> 22035
san itation</w> 22030
go d</w> 22027
pleas ure</w> 22027
method ology</w> 22021
离 婚</w> 22020
birth day</w> 22020
从 没</w> 22017
An ti 22015
Bos nia</w> 22014
N i 22013
解 放 22013
aud i</w> 22013
一 杯</w> 22010
comp ounds</w> 22009
备 选</w> 21997
not ing</w> 21996
pic tures</w> 21996
Stre et</w> 21986
什 么 21985
Vol un 21979
row ing</w> 21977
火 车</w> 21970
trans formation</w> 21969
dist ur 21968
ric h 21961
manag ing</w> 21960
typ ical</w> 21959
Every thing</w> 21959
wil d</w> 21958
互 相</w> 21946
Sou thern</w> 21941
富 有</w> 21940
con grat 21937
introduc es</w> 21934
bit ch</w> 21931
继 承</w> 21929
pr o</w> 21929
私 营</w> 21927
cor ner</w> 21918
f our 21913
M ake</w> 21913
in spec 21912
不 如</w> 21905
mo ther 21900
厄 立 21894
fashi on</w> 21893
可 怜</w> 21890
个 别</w> 21888
回 收</w> 21886
dr am 21886
奥地 利</w> 21886
rel ates</w> 21885
一 个 21884
编 码</w> 21884
A tl 21879
厄立 特里亚</w> 21877
四 届</w> 21857
海 上</w> 21853
ch amp 21847
famili ar</w> 21846
st om 21844
C T</w> 21837
开 玩笑</w> 21837
品 质</w> 21836
nov el</w> 21836
智 利</w> 21825
观 众</w> 21825
深 刻</w> 21821
W ater</w> 21814
re ts</w> 21810
dea ths</w> 21808
typ ically</w> 21804
preven tive</w> 21804
Comp any</w> 21804
地 理</w> 21802
com posed</w> 21801
ag on</w> 21789
compl icated</w> 21789
r are</w> 21786
f alls</w> 21786
pl ing</w> 21784
a f</w> 21768
an mar</w> 21763
gre w</w> 21763
ud es</w> 21760
b ird</w> 21754
伊斯兰 共和国</w> 21754
bo y 21749
联 络 21748
k ore 21747
比 利 21742
获 悉</w> 21742
线 性</w> 21740
东道 国</w> 21740
in ser 21733
f ast 21729
I N</w> 21721
Nig eria</w> 21718
reg ards</w> 21716
主 办</w> 21711
fav our 21711
ass ur 21702
pol iti 21701
x i</w> 21700
Finan cing</w> 21700
suc c 21699
T un 21697
城 市 21689
Au stri 21689
黑 暗</w> 21687
穆斯 林</w> 21684
k et 21683
k ind 21681
谈 会</w> 21676
contr ast</w> 21675
ad dy</w> 21672
每 周</w> 21669
accep tance</w> 21666
premis es</w> 21666
P aul</w> 21658
还 会</w> 21656
k istan</w> 21653
自 杀</w> 21652
什么 样</w> 21649
心 脏</w> 21644
rac ism</w> 21644
re pu 21641
博物 馆</w> 21636
否 认</w> 21630
bri ef</w> 21627
resol ved</w> 21607
com mon 21606
送 到</w> 21605
ru pt</w> 21603
骚 扰</w> 21599
in jured</w> 21599
sav ed</w> 21598
associ ations</w> 21595
g aps</w> 21594
clu ster</w> 21594
〇 〇 21591
1 000</w> 21580
种 植</w> 21580
col on 21580
乔 治</w> 21577
Accor dingly</w> 21572
con formity</w> 21571
丹 麦</w> 21568
l ots</w> 21567
是 说</w> 21565
T ot 21562
本 届</w> 21558
Reg ulations</w> 21557
n t</w> 21554
su res</w> 21554
w is 21550
ques tion 21550
conven ed</w> 21543
bac ter 21542
Dru gs</w> 21541
转 型</w> 21537
港 口</w> 21537
第四 十 21536
晚 餐</w> 21535
统 治</w> 21520
em ic</w> 21516
in hi 21510
重 于</w> 21508
性 恋</w> 21505
此 次</w> 21502
es cape</w> 21500
Sm all</w> 21492
发言 者</w> 21489
ne utr 21488
Sim il 21487
克 尔</w> 21485
i ii</w> 21480
smo ke</w> 21480
无论 是</w> 21479
A T</w> 21478
regar ded</w> 21477
Com b 21476
al lo 21472
hon ey</w> 21471
sequ ence</w> 21469
Mal ay 21469
archit ecture</w> 21467
prepar atory</w> 21466
fu sion</w> 21464
立 刻</w> 21463
advoc acy</w> 21457
Est abl 21450
ca using</w> 21447
fos ter</w> 21442
力 学</w> 21440
对 策</w> 21432
2 3 21431
设 计 21430
追 踪</w> 21426
浪 费</w> 21425
Develop ing</w> 21420
di um</w> 21411
ear s</w> 21409
Some times</w> 21408
对 比</w> 21407
Bur undi</w> 21405
不 应</w> 21401
occ o</w> 21401
des k</w> 21399
star s</w> 21398
00 0 21396
sum mit</w> 21395
mag az 21393
los ing</w> 21393
ch osen</w> 21392
tin y</w> 21392
Ro ad</w> 21382
f all 21379
gh ly</w> 21379
v acc 21374
白 色</w> 21374
帐 户</w> 21366
k i</w> 21364
re p 21361
s lightly</w> 21351
重 大 21351
Ch apter</w> 21351
ple d 21347
公 寓</w> 21344
simul ation</w> 21344
指 挥</w> 21343
汇 报</w> 21341
g ains</w> 21336
lau gh 21329
et tle 21326
溶 液</w> 21324
Dec ade</w> 21323
H y 21319
名 额</w> 21306
公民 权利</w> 21304
Gu id 21303
mas sive</w> 21301
穿 过</w> 21297
entrepre neur 21297
g al</w> 21294
Am bassador</w> 21292
Is land</w> 21286
em an</w> 21278
p ill 21270
re sident</w> 21270
a e</w> 21266
签 订</w> 21266
拉 圭</w> 21261
sal t</w> 21261
证 券</w> 21258
cal m</w> 21252
expos ure</w> 21252
七 届</w> 21248
charac ters</w> 21248
long - 21244
an gry</w> 21240
esti val</w> 21240
emp ty</w> 21239
Pro vince</w> 21238
ro t 21235
viol ated</w> 21235
ic tion</w> 21232
祝 贺</w> 21231
7 , 21230
网 页</w> 21229
要 么</w> 21218
estim ate</w> 21214
E rit 21212
考 察</w> 21208
音 乐 21208
创 作</w> 21206
约 束</w> 21202
武 力</w> 21200
例 外</w> 21195
f ail</w> 21191
容 器</w> 21189
T ask</w> 21184
coll ect</w> 21184
Ethiop ia</w> 21182
sur prise</w> 21181
coll ap 21179
严 重 21177
tur ns</w> 21171
尺 寸</w> 21170
thou ghts</w> 21166
用 水</w> 21163
pre v 21162
离 子</w> 21161
ende av 21158
O IOS</w> 21156
pro mp 21155
邻 国</w> 21152
裁 军 21137
转 化</w> 21136
裁军 谈判</w> 21135
传 递</w> 21134
稳 定性</w> 21125
bi an</w> 21120
wid er</w> 21118
seg ment</w> 21117
integr ate</w> 21116
财务 报表</w> 21114
D istr 21110
Scienti fic</w> 21110
阿塞拜 疆</w> 21105
demonstr ate</w> 21104
c at</w> 21099
wat ers</w> 21098
gar den</w> 21096
f an</w> 21095
discrimin atory</w> 21095
organiz e</w> 21094
com prises</w> 21092
激 励</w> 21087
aw ard</w> 21085
R ome</w> 21084
For ms</w> 21079
Ch em 21074
experi mental</w> 21073
as c 21072
uni versities</w> 21072
见 面</w> 21066
mo vements</w> 21064
lo an</w> 21063
L an 21060
机 器 21059
pen sion</w> 21056
jud iciary</w> 21056
yi eld</w> 21056
sim pl 21054
f ers</w> 21053
cere mony</w> 21039
bl es</w> 21037
ad mis 21036
b its</w> 21033
到 来</w> 21032
Colom bia</w> 21030
遣 队</w> 21027
花 费</w> 21026
Saf ety</w> 21026
法 定</w> 21024
consist s</w> 21023
p ir 21020
norm ally</w> 21020
ti eth</w> 21016
ti me 21015
B ill</w> 21010
modi fied</w> 21009
accompan ied</w> 21009
再 说</w> 21004
s at</w> 21001
we ren</w> 20999
19 67</w> 20998
感 器</w> 20990
trav el 20989
expan ding</w> 20988
7 - 20985
ide al</w> 20985
新闻 部</w> 20982
clos ing</w> 20981
Territ ories</w> 20978
理 念</w> 20971
ari o</w> 20969
何 种</w> 20968
fe els</w> 20966
t ab 20962
南 亚</w> 20960
m ile</w> 20958
叙 利亚 20952
ur day</w> 20950
su m</w> 20944
文 字</w> 20941
A ir 20938
Ke ep</w> 20938
Inde ed</w> 20938
T om 20937
认 证</w> 20937
区 分</w> 20936
家 族</w> 20930
再 也</w> 20925
差 不多</w> 20925
ch ro 20925
元 件</w> 20924
tim ately</w> 20921
doc tors</w> 20920
信 用 20919
承 受</w> 20912
NP T</w> 20910
G ar 20906
as sume</w> 20903
deal t</w> 20901
管理 人员</w> 20898
相当 于</w> 20898
gov ina</w> 20889
如 同</w> 20886
S an</w> 20884
定 于</w> 20884
v als</w> 20883
- to- 20881
ec tions</w> 20881
膨 胀</w> 20880
农 业 20878
谈 论</w> 20875
s car 20872
b low</w> 20872
竞 选</w> 20872
instruc tions</w> 20872
时间 表</w> 20871
gen u 20870
英 雄</w> 20869
学 科</w> 20860
sec ur 20859
Eng land</w> 20857
ze govina</w> 20856
八 届</w> 20851
ex ception</w> 20846
Le ague</w> 20845
ate ful</w> 20844
wal ked</w> 20844
原 料</w> 20843
属 性</w> 20840
mot or</w> 20832
sign als</w> 20831
sm ile</w> 20830
g am 20828
oper ative</w> 20828
P lat 20826
speak ers</w> 20822
共 体</w> 20821
Georgi a</w> 20821
拍 摄</w> 20820
复 苏</w> 20819
群 众</w> 20814
friend ship</w> 20814
lt d</w> 20814
jo y</w> 20812
ali for 20810
V ery</w> 20807
af ford</w> 20805
cour age</w> 20803
& lt 20802
&lt ;</w> 20802
L in 20799
out lined</w> 20798
DA W</w> 20796
enti rely</w> 20793
D O 20785
尼 泊 20781
其 次</w> 20776
吃 饭</w> 20774
lik es</w> 20774
国务 院</w> 20773
any where</w> 20770
近 期</w> 20768
可 持续性</w> 20767
equ ally</w> 20766
ex posed</w> 20765
politi ci 20760
terri ble</w> 20757
标 准 20756
e z 20753
分 散</w> 20750
监 控</w> 20749
奥 运会</w> 20748
收 费</w> 20736
ro ads</w> 20732
w er</w> 20727
fi x</w> 20726
lic en 20726
mix ture</w> 20720
Part nership</w> 20719
tor ies</w> 20718
profession als</w> 20718
Chair person</w> 20715
slow ly</w> 20711
着 重</w> 20709
Strate gic</w> 20706
引 导</w> 20704
mar ry</w> 20701
decre ased</w> 20691
on ally</w> 20686
miss ile</w> 20673
s ad</w> 20671
su peri 20664
分 开</w> 20663
b loo 20660
re placed</w> 20657
subjec ted</w> 20655
st ly</w> 20654
据 称</w> 20653
Swe den</w> 20641
Ken ya</w> 20637
hon or</w> 20632
commer ce</w> 20628
resi dence</w> 20625
secon ds</w> 20623
Fi g</w> 20618
u sted</w> 20613
philos oph 20610
Her zegovina</w> 20608
必 要 20607
Mor occo</w> 20604
CE DAW</w> 20603
uc k 20601
拯 救</w> 20597
原 子</w> 20596
enn ial</w> 20593
remo val</w> 20593
差 别</w> 20592
s wi 20591
ra w</w> 20590
r ant</w> 20588
隔 离</w> 20585
and - 20585
农 组织</w> 20582
粮 农组织</w> 20582
Sa har 20574
Soci ety</w> 20571
happen ing</w> 20570
地 上</w> 20565
W ed 20563
作 战</w> 20563
早 就</w> 20563
apar tment</w> 20563
民 国</w> 20553
ak h 20552
gen etic</w> 20550
退 化</w> 20543
rap e</w> 20519
bar riers</w> 20518
寿 命</w> 20515
一 群</w> 20511
特 色</w> 20507
慢 慢</w> 20503
gen tly</w> 20501
R ad 20493
perpetr ators</w> 20491
日 常</w> 20485
depen dence</w> 20483
星期 五</w> 20482
run s</w> 20476
behavi our</w> 20476
Mo vement</w> 20475
Vic e- 20472
N umber</w> 20470
DC s</w> 20468
S A</w> 20466
残 忍</w> 20463
su es</w> 20463
Am ong</w> 20463
hon est</w> 20462
Statis tics</w> 20462
化 剂</w> 20458
ash ing</w> 20457
My anmar</w> 20449
agu es</w> 20448
走 向</w> 20447
ti de</w> 20441
毁 灭 20436
machin ery</w> 20436
me rely</w> 20432
vol tage</w> 20430
smo oth</w> 20428
Ap pe 20426
m ut 20425
under ing</w> 20425
zer o</w> 20420
伯 特</w> 20419
运 动员</w> 20419
Mul ti 20419
直 升 20417
Pl anning</w> 20417
super vis 20417
平 均 20414
Wor k</w> 20412
flex ibility</w> 20406
N U 20403
ot yp 20400
广 大</w> 20399
fe ed 20399
哥 哥</w> 20397
自 动 20394
absolu tely</w> 20394
F oundation</w> 20393
fal se</w> 20392
dis cre 20389
参 照</w> 20381
披 露</w> 20373
即 便</w> 20371
转 向</w> 20369
塞浦路 斯</w> 20369
大 卫</w> 20360
Cam bo 20360
descri be</w> 20356
驻 地</w> 20355
det ained</w> 20352
I B 20351
de par 20350
C re 20349
审 计 20346
积极 参与</w> 20340
W ang</w> 20335
指 导 20332
Mo del</w> 20322
newsp aper</w> 20322
演 讲</w> 20321
grad ing</w> 20321
主 人</w> 20319
rece ip 20319
hy per 20317
quanti ty</w> 20317
必 需</w> 20315
高 速</w> 20308
约束 力</w> 20298
处 置</w> 20293
L E 20292
Al ger 20292
行 事</w> 20290
家 长</w> 20283
爆 炸 20282
出 色</w> 20280
st ret 20280
Doc u 20280
反 腐败</w> 20279
law yers</w> 20277
必 要性</w> 20276
调 解</w> 20269
图 片</w> 20268
参 观</w> 20266
f ate</w> 20260
co w</w> 20259
体 验</w> 20247
这 类</w> 20245
safe guards</w> 20242
伊朗 伊斯兰共和国</w> 20242
ch ron 20241
保 安</w> 20238
ad ult</w> 20238
问 责 20237
k - 20231
observ ation</w> 20231
改 为</w> 20229
af for 20229
sy mp 20229
P i 20228
gir l 20227
house holds</w> 20227
in hua</w> 20224
CO M 20222
10 2</w> 20220
ref used</w> 20207
意 图</w> 20201
警 官</w> 20197
容 性</w> 20195
comm it</w> 20195
prepar ations</w> 20195
semin ars</w> 20194
靠 近</w> 20193
练 习</w> 20192
分 歧</w> 20187
le g</w> 20186
determin ing</w> 20186
十 字 20184
mac ro 20184
consult ative</w> 20182
旁 边</w> 20178
旋 转</w> 20175
分 裂</w> 20174
Jord an</w> 20173
sur gery</w> 20172
冷 静</w> 20167
ow ners</w> 20163
p ac 20158
at er 20158
Sun day</w> 20157
毁灭 性</w> 20153
新 华 20152
犹 太 20148
智 慧</w> 20145
海 岸</w> 20144
会计 准则</w> 20144
过 于</w> 20140
O ce 20138
c ents</w> 20134
h ol</w> 20132
remedi es</w> 20125
be l</w> 20120
裁 定</w> 20119
h at 20118
Pro vi 20116
en ess</w> 20113
vis ual</w> 20113
C o</w> 20112
纪 念 20107
mani fe 20107
Distr ict</w> 20107
S pe 20106
介 意</w> 20104
enter ing</w> 20104
黑 塞 20102
dispos al</w> 20102
热 情</w> 20100
Ch ange</w> 20093
C lim 20092
she et</w> 20091
ge - 20088
Y O 20084
favor ite</w> 20063
发 誓</w> 20062
过 渡 20061
y ang</w> 20059
局 面</w> 20056
mechan ical</w> 20052
car rier</w> 20049
E l</w> 20040
渴 望</w> 20040
人 会</w> 20035
Kore an</w> 20034
克罗 地 20033
d il 20031
上 空</w> 20031
签 名</w> 20026
Philipp ines</w> 20026
传 染 20022
Prof essional</w> 20018
拖 延</w> 20015
arbitr ary</w> 20008
degrad ation</w> 20006
dis abled</w> 19999
every where</w> 19998
staff ing</w> 19995
prof essor</w> 19991
撒 哈拉</w> 19990
inv ite</w> 19989
付 出</w> 19988
settle ments</w> 19988
ef s</w> 19986
源 于</w> 19985
swit ch</w> 19983
钥 匙</w> 19980
8 , 19978
D r 19973
-- --</w> 19972
观 测</w> 19963
宇 宙</w> 19957
S audi</w> 19956
Pre sid 19953
传 感器</w> 19949
ju ven 19949
究 竟</w> 19948
约 旦</w> 19947
退 出</w> 19947
tu be</w> 19947
轻 松</w> 19943
Exper t</w> 19943
de gre 19942
电 力</w> 19939
bud get 19938
T aking</w> 19931
妹 妹</w> 19930
inven tory</w> 19930
事 态</w> 19928
mar ch</w> 19923
complain t</w> 19922
fr ac 19920
ste re 19916
hi de</w> 19914
head ing</w> 19913
b ath 19911
有效 性</w> 19909
coun ty</w> 19908
形 状</w> 19901
宝 贵</w> 19897
近 东</w> 19895
产 妇</w> 19894
派 对</w> 19886
全 面 19882
p ages</w> 19879
c up</w> 19876
新 兴</w> 19875
flu id</w> 19875
config uration</w> 19875
协商 一致</w> 19874
trans action</w> 19872
soci eties</w> 19872
counter - 19871
lo ves</w> 19867
ow ner</w> 19862
施 工</w> 19861
2 nd</w> 19859
产 物</w> 19857
adop ting</w> 19851
C he 19849
Sub committee</w> 19848
尔 德</w> 19846
F P</w> 19843
in sufficient</w> 19842
y ellow</w> 19840
depen d</w> 19840
知识 产权</w> 19838
种 种</w> 19837
use um</w> 19833
明 年</w> 19830
客 观</w> 19828
亚 太 19824
week end</w> 19817
autom atic</w> 19814
pu s</w> 19813
man dated</w> 19810
assist ing</w> 19808
d ay 19803
ho c</w> 19798
癌 症</w> 19795
永 久</w> 19794
n ity</w> 19793
缓 慢</w> 19790
cast ing</w> 19786
mean ing 19784
rou te</w> 19781
earthqu ake</w> 19781
打 破</w> 19779
gr ati 19778
- I</w> 19776
mon etary</w> 19772
原 谅</w> 19770
Wi th 19768
200 8- 19763
住 宅</w> 19761
coordin ating</w> 19761
内 陆</w> 19759
老 婆</w> 19751
hor iz 19749
重 量</w> 19748
for ty- 19744
冠 军</w> 19743
con fron 19742
du al</w> 19742
sec toral</w> 19738
两 位</w> 19734
obser ver</w> 19734
acknowled ged</w> 19734
内 罗 19733
ep id 19733
bre aking</w> 19732
voc ational</w> 19732
g t 19729
天 然 19723
g ained</w> 19722
Wh ite</w> 19722
Olymp ic</w> 19718
2 6 19716
shor t- 19712
h all</w> 19711
as ia</w> 19711
兴 奋</w> 19706
min i 19705
阿拉伯 叙利亚 19705
阿拉伯叙利亚 共和国</w> 19705
H RC</w> 19703
国际 法庭</w> 19700
bur g</w> 19696
跟 着</w> 19692
巴勒斯坦 人</w> 19691
rejec ted</w> 19689
w ished</w> 19683
法 语</w> 19682
柬埔 寨</w> 19681
ow ed</w> 19676
o es</w> 19675
物 种</w> 19674
就 算</w> 19674
T ru 19671
St u 19671
bir ds</w> 19670
occas ion</w> 19670
des ired</w> 19662
z ones</w> 19660
Cor r 19657
长 期 19656
注 射</w> 19654
黑塞 哥 19654
bu ying</w> 19650
alifor nia</w> 19648
Buil ding</w> 19646
就 是说</w> 19644
血 液</w> 19643
注 意 19643
necess arily</w> 19636
guil ty</w> 19632
law ful</w> 19630
semin ar</w> 19630
自然 灾害</w> 19628
sam ples</w> 19625
invol ves</w> 19623
st ro 19622
维 那</w> 19621
黑塞哥 维那</w> 19620
vulner ability</w> 19618
内罗 毕</w> 19617
regi ster</w> 19615
pain ting</w> 19614
环 保</w> 19610
O u 19608
cooper ative</w> 19607
cur y</w> 19605
gre en 19604
衰 退</w> 19601
as ser 19601
concep ts</w> 19601
be d 19597
迄 今 19596
不 知</w> 19591
w ill 19589
安 静</w> 19586
被 捕</w> 19584
面 向</w> 19583
职 等</w> 19583
schem es</w> 19583
污 染 19580
h ome 19579
coast al</w> 19578
优 点</w> 19571
cam ps</w> 19569
不 愿</w> 19566
soci o- 19562
ad verse</w> 19560
convin ced</w> 19560
ad oles 19557
commod ity</w> 19554
游 客</w> 19551
资 讯</w> 19550
N ai 19549
For ces</w> 19543
超 出</w> 19540
cont acts</w> 19539
Me an 19538
manufac tu 19535
起 到</w> 19532
行 性</w> 19531
里 兰 19528
Te am</w> 19528
志愿 人员</w> 19526
trac ting</w> 19523
机器 人</w> 19519
电 台</w> 19514
资源 管理</w> 19511
汇 编</w> 19502
定 居 19499
pos ing</w> 19495
vi br 19490
Ma ur 19489
ber g</w> 19484
prohib ited</w> 19482
cri tic 19480
gr ants</w> 19478
deter i 19478
性 暴力</w> 19477
重 组</w> 19473
mobil ization</w> 19471
integr al</w> 19466
Ugan da</w> 19464
ro l</w> 19459
Mechan ism</w> 19458
Azerbai jan</w> 19458
混 乱</w> 19457
自 行 19457
多 地</w> 19455
sequ ently</w> 19455
k ni 19454
recogn izes</w> 19453
S il 19452
Qu estions</w> 19451
液 体</w> 19450
L t 19442
系 数</w> 19439
28 8</w> 19436
守 则</w> 19435
学 术</w> 19433
H ot 19432
保 罗</w> 19432
la h</w> 19432
教 会</w> 19431
支 持 19430
巴 布 19428
ministr y</w> 19428
对 应</w> 19427
pe p 19423
电 压</w> 19422
difficul ty</w> 19413
v es 19409
相 关 19409
ill ance</w> 19407
with draw 19403
操 作 19400
各 个 19395
汤 姆</w> 19393
偿 还</w> 19392
M A</w> 19390
bud gets</w> 19386
星期 一</w> 19384
In dependent</w> 19383
标 题</w> 19379
FO R</w> 19376
re pair</w> 19375
1 40</w> 19363
问责 制</w> 19363
c um 19360
dev oted</w> 19360
f at 19348
通 用</w> 19348
T ok 19347
C la 19344
r on</w> 19341
指 令</w> 19341
1 ,000</w> 19339
长 度</w> 19336
余 额</w> 19333
oph ob 19332
provin cial</w> 19327
ven ture</w> 19323
一 人</w> 19322
和 谐</w> 19319
脱 离</w> 19318
金融 危机</w> 19315
restric ted</w> 19315
旅 馆</w> 19314
t aught</w> 19313
p ig 19313
al d</w> 19311
Res ults</w> 19308
a .m.</w> 19301
太 多</w> 19301
份 额</w> 19301
fo rests</w> 19301
纲 要</w> 19299
an z 19298
list ening</w> 19284
钻 石</w> 19281
stor m</w> 19278
p ra 19276
功 率</w> 19274
孟 加拉 19273
内 部 19263
b id 19262
un to</w> 19258
analy ses</w> 19257
w alls</w> 19254
inter ference</w> 19242
dre ams</w> 19242
ci ve</w> 19238
ori entation</w> 19237
amaz ing</w> 19237
s- based</w> 19235
Z h 19234
v an</w> 19233
relev ance</w> 19229
se es</w> 19228
M ag 19226
paren tly</w> 19226
标 签</w> 19225
Dec ides</w> 19220
ac cess 19219
198 6</w> 19219
期 内</w> 19214
Loc al</w> 19212
复 员</w> 19211
精 确</w> 19209
li ver</w> 19209
极 了</w> 19201
compet ence</w> 19201
电 话 19199
S ign 19198
入 境</w> 19195
mic ros 19192
干 净</w> 19189
calcul ated</w> 19189
N ever</w> 19185
foot ball</w> 19184
Com prehensive</w> 19180
舒 适</w> 19173
ess ing</w> 19170
pass ing</w> 19167
阳 光</w> 19165
L im 19164
L DCs</w> 19163
m ly</w> 19162
机 遇</w> 19162
pic ked</w> 19162
看 过</w> 19159
sel ect</w> 19158
9 , 19157
却 是</w> 19156
ri gh 19154
gr ateful</w> 19152
观察 团</w> 19151
degre es</w> 19151
变 动</w> 19149
18 0</w> 19148
监 察</w> 19146
恐怖 分子</w> 19146
de fe 19145
想 起</w> 19144
激 烈</w> 19140
a str 19136
设 有</w> 19134
ph ones</w> 19134
s ory</w> 19131
CC C</w> 19128
en rol 19126
Par k</w> 19126
提 起</w> 19125
pros titution</w> 19125
一 把</w> 19124
attemp ts</w> 19123
proce ed</w> 19122
t ant</w> 19120
整 合</w> 19117
承 包 19111
透 露</w> 19110
D S</w> 19106
ph oto</w> 19106
substanti ally</w> 19106
新华 社</w> 19106
发 动</w> 19098
C C</w> 19097
d uration</w> 19094
bal ances</w> 19090
每 日</w> 19089
缔 结</w> 19089
据 说</w> 19087
代 替</w> 19087
w av 19086
犯 下</w> 19085
a uc 19084
温 室</w> 19082
发 达</w> 19081
B ul 19080
writ er</w> 19077
芬 兰</w> 19074
on e 19072
海 军</w> 19068
den ied</w> 19059
reaffir med</w> 19058
斯 特 19055
会 晤</w> 19052
duc t</w> 19051
p oc 19050
女 子</w> 19048
m ates</w> 19046
an ch 19045
meas uring</w> 19044
小 子</w> 19042
所 得</w> 19041
fi ber</w> 19040
mo dule</w> 19038
说 道</w> 19033
mater nal</w> 19031
继 续 19029
封 锁</w> 19029
Re ally</w> 19029
M e</w> 19022
玻 利 19019
解 除</w> 19017
N ep 19016
sign ing</w> 19015
d den</w> 19013
f arm</w> 19011
guarante ed</w> 19008
第四 次</w> 19000
教 练</w> 18995
candi date</w> 18995
预 定</w> 18992
c ry</w> 18991
特 遣队</w> 18991
姆 斯</w> 18991
Coordin ator</w> 18991
舒 服</w> 18990
教 学 18989
P E 18986
术 语</w> 18983
构 造</w> 18978
si zed</w> 18978
监 视</w> 18976
sol ved</w> 18976
stre ets</w> 18972
建筑 物</w> 18972
物 资</w> 18965
argu ment</w> 18964
更 改</w> 18963
职 人员</w> 18962
nec k</w> 18961
同 学</w> 18960
b orders</w> 18957
b al</w> 18954
bre a 18947
re y</w> 18946
不 让</w> 18942
此 项</w> 18942
li p 18942
gu ests</w> 18940
一 个月</w> 18937
imp unity</w> 18934
Clim ate</w> 18934
m ad 18932
ac commod 18932
提 前</w> 18931
en orm 18929
干 旱</w> 18926
susp ected</w> 18924
库 存</w> 18920
阐 明</w> 18920
exc use</w> 18920
O pen 18919
主 体</w> 18918
reser ves</w> 18918
国际 贸易</w> 18915
比利 时</w> 18915
bus h</w> 18912
cust ody</w> 18910
纪 律</w> 18908
figu red</w> 18905
colum n</w> 18901
元 首</w> 18896
施 加</w> 18886
t ables</w> 18884
Por tu 18884
ten ed</w> 18883
tre ach</w> 18882
夏 天</w> 18874
法 典</w> 18873
J os 18864
S he 18864
Sh ould</w> 18863
首 脑</w> 18860
adv an 18860
放 射 18857
liber ty</w> 18849
regar dless</w> 18848
s now</w> 18845
compu ters</w> 18842
av en</w> 18841
bu ff 18840
in cur 18838
sen ding</w> 18838
& gt 18837
&gt ;</w> 18837
制 约</w> 18836
毫 无</w> 18832
数 学</w> 18831
根 源</w> 18830
单 方面</w> 18830
ur ge</w> 18827
Viol ence</w> 18824
des ir 18818
特 网</w> 18816
饥 饿</w> 18813
D F</w> 18812
sm ell</w> 18810
cris es</w> 18810
洗 钱</w> 18809
一 代</w> 18806
cohe rence</w> 18806
负 债</w> 18804
只 不过</w> 18802
X ML</w> 18800
Malay sia</w> 18799
d ency</w> 18797
m atic</w> 18796
道 歉</w> 18795
N S</w> 18793
抵 达</w> 18787
C S 18785
引 擎</w> 18780
专门 知识</w> 18778
ph y 18771
弟 弟</w> 18767
solid arity</w> 18766
推 荐</w> 18765
处 决</w> 18764
o de</w> 18760
el derly</w> 18760
地 域</w> 18759
land s 18757
详 细 18755
合 格</w> 18754
牺 牲</w> 18753
and y</w> 18753
r d</w> 18751
Corr .1</w> 18750
do gs</w> 18742
pre fer</w> 18740
op posite</w> 18739
audi ence</w> 18737
Jam a 18736
classi fication</w> 18731
ev i 18728
inno cent</w> 18725
retur ns</w> 18722
大 众</w> 18721
hab it 18718
Sing apore</w> 18716
Refuge es</w> 18712
二 〇〇 18710
im migration</w> 18707
混 合物</w> 18706
匹 配</w> 18706
su gar</w> 18706
n es 18702
em or 18699
inter ventions</w> 18699
强 制</w> 18696
一 国</w> 18696
半 年</w> 18695
储 备</w> 18694
employ ers</w> 18690
M et 18688
ac ute</w> 18685
ro ots</w> 18683
a er 18682
M ary</w> 18677
用 以</w> 18675
tax es</w> 18668
Com mit 18661
ar us</w> 18660
收 购</w> 18659
极 其</w> 18655
愤 怒</w> 18655
nation als</w> 18653
resc ue</w> 18648
抱 怨</w> 18646
地 说</w> 18643
the ast</w> 18640
ke ys</w> 18640
calcul ation</w> 18638
Ar my</w> 18633
rob i</w> 18631
白 俄罗斯</w> 18628
影 响 18627
定 罪</w> 18622
be ach</w> 18609
Mus li 18608
亚 美 18600
destro y</w> 18598
W o 18596
Uni versal</w> 18596
p ure</w> 18595
South- South</w> 18592
ain ees</w> 18591
s h</w> 18583
艰 难</w> 18582
无 疑</w> 18581
两 天</w> 18580
fore ign 18577
麻 醉 18574
Wed nesday</w> 18574
dis charge</w> 18573
之 类</w> 18572
rec ur 18568
应 有</w> 18567
de - 18559
目 录</w> 18555
shop ping</w> 18554
vis ions</w> 18552
fe e</w> 18549
vis itors</w> 18549
PR O 18546
tr uck</w> 18540
fav or</w> 18537
任 职</w> 18535
Em ploy 18533
dimen sional</w> 18532
气 氛</w> 18528
dis placement</w> 18528
has n</w> 18527
学 位</w> 18525
这 边</w> 18521
M oun 18520
Some thing</w> 18517
味 道</w> 18516
ph os 18516
ti ght</w> 18509
bl ind</w> 18509
assist ed</w> 18509
Fin ance</w> 18508
prosp ects</w> 18507
Go t</w> 18505
影响 力</w> 18505
下 载</w> 18504
平 方 18501
har dly</w> 18501
speci ally</w> 18495
不好 意思</w> 18495
ev olution</w> 18485
英 尺</w> 18483
根 本 18473
negoti ation</w> 18468
ad ults</w> 18466
Si x 18462
1 60</w> 18459
descri bes</w> 18457
survi val</w> 18447
叫 做</w> 18445
超 级</w> 18441
sol ar</w> 18440
Indu stri 18438
上 来</w> 18436
cre ative</w> 18434
谨 慎</w> 18433
C L 18429
expec tations</w> 18428
V ir 18427
op ol 18421
J ames</w> 18417
曲 线</w> 18411
Nai robi</w> 18410
A g 18407
im per 18401
uni form</w> 18399
纪 录</w> 18393
远 远</w> 18390
yl ene</w> 18380
故 障</w> 18379
formul ated</w> 18378
min ent</w> 18373
罗 马 18372
上 学</w> 18368
b o</w> 18363
C le 18362
w ire</w> 18357
h ad 18357
核 定</w> 18356
colle agues</w> 18352
B C</w> 18349
alco hol</w> 18349
农 场</w> 18347
Streng th 18347
Go ogle</w> 18341
O m 18339
star ts</w> 18329
simul tan 18329
mo thers</w> 18324
S E 18323
ic ed</w> 18323
T ime</w> 18322
H old</w> 18317
首 长</w> 18311
啤 酒</w> 18310
聚 合物</w> 18308
没 收</w> 18307
援 助 18307
ac he</w> 18304
E quality</w> 18302
故 意</w> 18301
将 要</w> 18301
se ats</w> 18299
satis fied</w> 18295
杀 人</w> 18294
价值 观</w> 18294
sac rif 18291
10 1</w> 18290
演 出</w> 18289
孟加拉 国</w> 18284
首 要</w> 18280
val id</w> 18279
n avi 18277
迄 今</w> 18275
社会 保障</w> 18272
Recom mend 18268
I A</w> 18266
引 力</w> 18264
绩 效</w> 18260
under taking</w> 18260
198 7</w> 18259
diagn os 18255
certif icate</w> 18253
不 然</w> 18252
恐 怕</w> 18250
情 感</w> 18248
be ings</w> 18248
客 房</w> 18246
较 为</w> 18241
此 事</w> 18239
inter medi 18236
思 维</w> 18235
municip al</w> 18233
驾 驶</w> 18229
Ac coun 18229
A d</w> 18224
10 4</w> 18219
电 机</w> 18218
订 立</w> 18218
Cro ati 18218
六 个</w> 18214
modi ties</w> 18213
疗 效</w> 18209
ass ment</w> 18204
指 责</w> 18203
minist erial</w> 18201
ur o</w> 18200
沿 着</w> 18198
久 性</w> 18197
expl oration</w> 18197
dimen sion</w> 18197
摧 毁</w> 18195
bur n</w> 18192
shar p</w> 18192
convers ation</w> 18192
尼泊 尔</w> 18188
di versi 18186
生 活 18174
mun ition</w> 18170
B re 18168
Ch ile</w> 18167
li ft</w> 18166
ast s</w> 18165
discipl inary</w> 18164
年 初</w> 18162
手 中</w> 18161
理 性</w> 18161
li ked</w> 18158
人 体</w> 18145
ti vities</w> 18145
withdraw al</w> 18144
摊 款</w> 18141
i fied</w> 18140
因 特网</w> 18138
布 尔</w> 18136
Turk ish</w> 18132
一 所</w> 18131
遭 遇</w> 18131
银 行 18130
mod alities</w> 18126
in ev 18123
ess els</w> 18121
纠 正</w> 18118
discipl ine</w> 18118
accur acy</w> 18116
I R 18113
言 论</w> 18104
den sity</w> 18102
Gu ang 18102
f loo 18100
迫 使</w> 18100
t ments</w> 18098
ic ks</w> 18098
水 果</w> 18097
布 莱 18095
困 境</w> 18091
employe e</w> 18087
def ici 18086
complain ant</w> 18086
With out</w> 18086
hum ans</w> 18084
超 越</w> 18082
min or</w> 18082
constitu tes</w> 18080
A ir</w> 18079
几内 亚</w> 18079
journ alists</w> 18075
p y 18071
de als</w> 18070
dom ain</w> 18068
we igh 18066
- year</w> 18063
i tive</w> 18061
统计 数据</w> 18059
t ude</w> 18057
du pl 18051
ww w</w> 18047
Stat ute</w> 18045
就业 机会</w> 18044
很 棒</w> 18042
干 涉</w> 18040
Ex cell 18040
所 属</w> 18038
graph y</w> 18038
本 质</w> 18035
D ata</w> 18033
Mil itary</w> 18031
s ist</w> 18029
P un 18027
促 成</w> 18027
low s</w> 18025
ec k</w> 18023
hospit als</w> 18021
F . 18019
违 背</w> 18019
大 韩 18013
ri x</w> 18013
198 5</w> 18012
B oli 18011
之 上</w> 18011
两 人</w> 18008
requ iring</w> 18007
电子 邮件</w> 18003
A P</w> 18001
厨 房</w> 18000
斯 科</w> 17999
u l</w> 17995
me al</w> 17995
船 舶</w> 17991
人民 币</w> 17989
resum ed</w> 17988
大韩 民国</w> 17988
法 行为</w> 17983
几 次</w> 17979
秘 鲁</w> 17976
surve illance</w> 17975
H aving</w> 17973
架 构</w> 17972
im bur 17972
Integr ated</w> 17972
z o 17965
均 衡</w> 17962
r ation 17960
re ver 17959
Prof essor</w> 17959
ner v 17958
inci dence</w> 17958
平 面</w> 17956
1. 2</w> 17953
tis sue</w> 17953
C F 17951
in adequate</w> 17946
B A</w> 17945
Bel gi 17940
研 制</w> 17939
lad esh</w> 17937
depen ding</w> 17936
bu reau</w> 17935
ic ked</w> 17933
pow der</w> 17929
颗 粒</w> 17927
manufac ture</w> 17926
FF FF</w> 17924
st y</w> 17922
UN R 17920
必 然</w> 17914
nat ur 17910
trans mit</w> 17907
te eth</w> 17898
ter minal</w> 17896
Jo hn 17895
leg s</w> 17892
ann y</w> 17891
不 妨</w> 17887
ar ded</w> 17885
黑 色</w> 17879
re struc 17878
n ose</w> 17877
立法 会</w> 17875
t ine</w> 17874
kit chen</w> 17872
con clude</w> 17868
Plat form</w> 17866
se p 17860
ni e</w> 17858
为 主</w> 17855
数 值</w> 17851
A L</w> 17850
接 到</w> 17850
ear n</w> 17850
ick ness</w> 17850
ber t</w> 17847
安 哥 17846
hel p 17845
ate - 17844
b all 17837
划 分</w> 17834
沿 海</w> 17833
loc ate</w> 17833
Ad vis 17827
control ling</w> 17827
电 流</w> 17826
长 大</w> 17824
燃 烧</w> 17822
10 9</w> 17819
一 届</w> 17816
in et</w> 17814
Chr ist</w> 17814
概 算</w> 17810
约 翰 17809
Tot al</w> 17808
一 大 17806
没 关系</w> 17804
地 下</w> 17804
延 迟</w> 17803
E mer 17802
fil ed</w> 17802
odi versity</w> 17802
prin ting</w> 17800
sil ver</w> 17800
provin ces</w> 17797
船 只</w> 17794
管 道</w> 17791
聚 会</w> 17790
cont am 17789
一 组</w> 17787
i ves</w> 17785
制造 商</w> 17782
行政 当局</w> 17780
f ounded</w> 17778
所 列</w> 17778
opin ions</w> 17778
进 度</w> 17777
thir ty- 17777
s olu 17776
专 利</w> 17776
选 择 17775
tic ket</w> 17772
排 雷</w> 17770
accor dingly</w> 17766
天 然</w> 17765
en a</w> 17765
kee ps</w> 17765
Afgh an</w> 17762
re patri 17760
毛 里 17759
de pri 17758
certain ty</w> 17754
appe als</w> 17741
so - 17733
N ice</w> 17729
干 部</w> 17729
计算 机 17729
某 人</w> 17726
上 班</w> 17725
反 应 17724
上 周</w> 17723
贩 卖</w> 17721
a ult</w> 17717
Incre ased</w> 17716
两 者</w> 17712
t our</w> 17703
跳 舞</w> 17695
han ded</w> 17694
for ums</w> 17690
德 里</w> 17689
当 作</w> 17688
恰 当</w> 17685
vis iting</w> 17684
i ally</w> 17683
deliber ations</w> 17681
b ond</w> 17680
工程 师</w> 17676
O M</w> 17673
照 料</w> 17672
prof its</w> 17671
l aser</w> 17668
theore tical</w> 17664
see ks</w> 17663
con stantly</w> 17662
S - 17661
ic op 17657
u . 17655
198 2</w> 17655
ace u 17653
absolu te</w> 17653
Prepar atory</w> 17653
突 尼斯</w> 17649
筹 备 17642
读 者</w> 17641
requ is 17639
不 人道</w> 17636
侵 略</w> 17633
fil ter</w> 17633
当 代</w> 17632
细 菌</w> 17631
NG O</w> 17627
[...]
