the 47324045
的 44121757
, 41059143
. 40665132
， 32387589
of 28011772
。 27756337
and 22453054
to 20806215
in 14421226
a 13227325
和 11432697
在 10031259
了 8804984
我 7970132
for 7476025
是 7306931
that 7247400
I 7184854
&quot; 6907352
is 6741302
on 6598584
) 6592130
( 6534308
你 6474924
、 6003962
you 5609209
- 5360631
&apos;s 4874106
? 4841752
with 4779706
The 4498061
it 4281410
be 4176557
as 3976618
/ 3816819
by 3791987
他 3567960
was 3390684
are 3343960
对 3255010
我们 3085918
年 2872878
有 2857059
have 2844589
？ 2832683
at 2818695
this 2702864
中 2618888
不 2555827
from 2536567
or 2535579
not 2524573
an 2502859
: 2422681
与 2311661
一个 2271023
为 2233286
&apos;t 2221689
将 2121215
人 2111029
; 2084384
就 2061089
its 2049503
并 2042804
has 1940908
上 1931792
all 1911990
will 1861880
这 1849896
问题 1834236
! 1822369
也 1815899
到 1784667
can 1784571
we 1758044
he 1756578
都 1710385
； 1675661
： 1672851
月 1660764
their 1659356
说 1638584
国家 1631778
which 1628366
他们 1624559
委员会 1614340
会 1603516
她 1602600
me 1535959
或 1534661
第 1533947
》 1528729
《 1528235
were 1478432
... 1441993
You 1440382
been 1430017
had 1422423
1 1416644
your 1411501
（ 1392254
） 1391649
It 1367963
one 1364101
以 1362342
A 1353463
其 1321038
United 1320580
they 1311655
my 1310482
会议 1301495
工作 1291180
his 1287441
also 1282066
In 1282004
发展 1279577
out 1278446
但 1271742
提供 1271187
可以 1254871
被 1248112
but 1247076
还 1244197
进行 1229091
要 1217340
这些 1214610
没有 1209287
而 1189276
日 1184872
do 1182920
来 1176493
would 1172952
other 1156955
吗 1155628
好 1153724
more 1150655
up 1140869
报告 1116645
该 1116502
所 1116000
国际 1115137
地 1115127
about 1110156
个 1107350
联合国 1095462
以及 1093060
should 1088124
2 1082919
Nations 1078084
很 1074695
there 1067944
通过 1044976
组织 1036220
它 1029063
包括 1022485
把 1017856
时 1007161
关于 1006837
what 987769
！ 983424
so 976210
及 969044
什么 968385
从 967810
向 966802
于 963078
3 962241
&apos;m 955687
like 955377
去 950120
可 950052
time 948959
下 948445
know 944712
政府 934579
her 925583
&apos;re 915463
development 912410
if 907267
情况 904567
知道 904352
&apos; 900473
给 899290
其他 892866
international 891630
如果 888182
into 886110
no 883936
社会 878729
需要 875630
可能 871581
Committee 870656
能 869329
such 858931
这个 858869
We 856612
-@@ 854457
just 852685
people 850710
States 842198
work 838723
don 837221
所有 829526
想 827941
some 820199
new 818230
方面 818199
who 817301
有关 809858
\ 808828
让 806518
着 806405
方案 788973
said 787793
our 786995
right 786444
countries 784881
特别 783693
% 783304
when 780130
them 778079
him 771949
4 769397
@-@ 763942
机构 763768
5 760139
10 756935
He 753209
做 749123
新 746445
活动 745528
号 742010
吧 738247
更 737149
经济 735677
执行 729929
two 717779
than 714762
she 708944
And 707528
已经 707353
could 704138
后 702923
us 700639
6 700572
get 698656
under 694274
多 693966
那 689406
一 688502
安全 688039
rights 686380
only 682805
made 675385
S@@ 673979
因为 671588
性 669217
system 666949
自己 665390
研究 664401
建议 662474
any 662029
等 661285
一@@ 660270
through 659374
But 659185
里 656782
including 655760
This 652963
well 650795
使 650245
women 649291
者 648478
行动 645487
may 645420
一些 643539
妇女 643501
these 638327
un@@ 638080
report 636677
here 636636
系统 635314
between 632297
over 631401
need 630346
认为 630074
information 628107
human 622949
go 621873
必须 621861
决议 618298
now 617969
不是 616742
用 616022
根据 614383
不@@ 612876
技术 611510
由 610814
first 608788
但是 607769
support 606931
12 605036
中国 604612
those 603748
影响 600241
已 599146
take 597080
使用 596790
national 596617
7 596336
see 595378
现在 594132
提出 593573
re@@ 592932
b 590901
得 589830
应 589635
过 589567
What 589207
i 588702
s 586716
&apos;ll 584921
项目 583599
Council 579451
in@@ 575830
make 573872
人权 571361
区域 570072
use 567009
合作 564482
公约 563920
支持 551170
决定 550883
内 547546
公司 547361
years 547250
规定 543169
how 538101
good 536140
这种 534823
want 534269
儿童 533797
这样 532978
way 531139
美国 526037
最 524892
think 521613
要求 521370
B@@ 516132
9 515621
per 515552
8 513918
方法 512937
主要 509058
就是 508250
against 508007
大会 507590
重要 506260
本 505979
作为 504474
计划 501478
resolution 500240
服务 498412
你们 497428
after 495612
country 495323
大@@ 494039
任何 493639
继续 493337
目标 491022
代表 490916
T@@ 489605
管理 487241
各 486209
政策 485745
must 484240
most 480582
法律 479970
very 479879
That 478530
year 475282
State 474412
world 473936
General 473294
back 471082
一种 470723
did 470643
e 470422
能力 469407
P@@ 467559
many 465298
got 465154
law 463834
保护 462909
理事会 462354
权利 461310
开始 460399
man 459925
先生 458296
D@@ 458197
30 456733
11 455979
20 454330
L@@ 453764
implementation 453211
s@@ 452081
啊 451889
又 449648
where 448885
activities 445138
世界 445136
请 444206
o 443793
大 443694
时间 443634
M@@ 442051
· 441609
number 441038
加强 440787
G@@ 439874
&apos;ve 438688
因此 438648
used 437128
不能 436711
Government 436691
得到 435943
d@@ 434418
A@@ 433913
C@@ 432936
之间 432039
促进 432017
F@@ 431851
children 431239
$ 431067
条 430931
建立 430885
措施 430276
出 429992
前 429750
es 427931
being 425152
before 424927
Assembly 424697
信息 423786
采取 422260
当 422051
then 420846
15 416976
process 416819
事 416793
economic 415530
R@@ 414863
地区 414700
确保 413926
努力 413370
H@@ 410486
子 410181
If 410032
实现 408904
不会 408192
No 407809
K@@ 407432
ing 407304
er 406356
security 405487
t@@ 403397
应该 402474
点 400583
order 400084
人员 398520
表示 398321
教育 398219
和平 397966
Convention 397678
down 396812
life 396509
going 396158
because 395457
其中 390752
able 390424
ed 390200
呢 389956
They 389121
t 387095
c 386556
even 385543
国 385245
during 385127
N@@ 384965
session 384308
Commission 383992
法 383802
注意 383643
实施 382697
k@@ 382404
环境 380128
段 379957
它们 377807
没 377210
处理 376758
时候 375965
public 375539
measures 374925
three 373212
行为 373104
增加 372729
To 372476
meeting 372187
像 371609
b@@ 371267
both 369246
资源 368975
提交 368677
p@@ 368132
day 368075
秘书长 367765
2008 367470
希望 367351
part 366263
正在 366055
International 365622
come 365056
still 365010
们 364460
能够 364000
" 363412
provide 363366
2005 363311
important 362034
名 360049
期间 359407
作用 358966
这一 358682
same 358581
分析 358474
获得 358252
cooperation 357454
发生 357055
3@@ 356524
看 356298
至 356270
much 355691
比 355621
具有 354678
d 354267
关系 354103
social 353951
party 353543
efforts 352434
文件 352113
So 352080
小@@ 351775
y@@ 351686
举行 351663
Mr. 351408
financial 350807
She 350407
management 350127
cent 350098
相关 349866
level 349780
resources 349524
领域 349229
China 346607
考虑 346433
全球 345755
off 345743
2010 345729
2006 345623
为了 344942
services 344411
生活 342654
further 342244
不同 342064
2009 342054
each 341984
am 341983
由于 341749
W@@ 341726
ate 340630
There 339273
As 338558
中@@ 337218
say 336380
-- 336181
方式 336143
too 334660
within 334659
ation 334657
成为 334200
organizations 333573
地方 332649
再 332391
告诉 331312
而且 330616
中心 330274
提高 329580
主席 328937
2007 328696
while 328464
o@@ 328113
有效 328064
同时 327891
last 327770
E@@ 327668
许多 327304
regional 324803
al 324444
缔约国 324250
走 322910
place 322496
2004 321908
无@@ 321540
high 321468
set 320745
issues 320480
所以 319629
programme 319009
这里 317747
help 317719
开展 317669
目前 317353
基金 316934
e@@ 316593
参与 316576
Oh 316369
article 316018
4@@ 315676
education 315548
次 315361
members 313465
g@@ 313407
那些 313010
持续 312672
讨论 310566
成员 310533
解决 310504
14 310420
long 309535
ensure 309159
战略 308768
end 308605
i@@ 308521
跟 308481
部分 308311
只是 308043
目的 307874
health 307536
data 307484
areas 306754
一项 306640
各国 306453
m@@ 306437
little 305601
shall 305200
ers 304991
provided 304892
l@@ 304844
water 303595
审查 303462
period 302759
Secretary-General 301846
区 301603
政治 301212
2000 301178
c@@ 300013
指出 299987
without 299645
对于 299635
草案 299491
程序 299178
援助 298659
审议 298653
间 298506
您 297996
怎么 297805
结果 297707
存在 297300
government 296177
调查 295735
确定 295316
及其 295211
2011 294811
never 293890
数据 293258
18 292733
这是 292182
化 292172
两个 291621
利用 291558
developing 290813
人民 290470
political 289555
control 289536
发现 289180
since 289141
n@@ 289103
2003 288066
Development 287896
多@@ 287863
C 287582
really 286866
let 286681
based 286159
different 285696
assistance 284221
&#91; 283846
进一步 283366
16 283298
S 283100
最后 282734
give 282526
an@@ 282256
policy 281593
Conference 281069
* 280986
case 280827
present 280311
h@@ 279979
一次 279866
13 279731
own 279731
高 279698
任务 279686
Well 279379
一样 279218
2002 278899
dis@@ 278629
gonna 278134
喜欢 277459
training 277113
作出 276841
held 276817
B 276496
小组 276439
O@@ 275405
action 274831
working 274768
如何 274669
高@@ 274626
还是 274548
Security 274377
Yeah 274025
E 273753
related 273737
人@@ 273092
f@@ 273013
J@@ 272906
5@@ 272905
particular 272811
参加 272666
&#93; 272639
水 272434
y 272400
协调 271827
draft 271733
en@@ 271366
资料 271157
something 271077
Group 271075
如 270617
非常 270599
减少 270558
机制 270491
among 270227
并且 269868
斯 269600
V@@ 269502
为什么 269406
人们 269198
look 269077
只 268907
staff 268358
一直 267917
Rights 267427
之 267281
产生 267280
great 266924
better 266570
relevant 266332
小 266247
孩子 266227
市场 266091
一起 265310
For 264883
25 264581
2001 264372
支助 264176
过程 263918
上@@ 263664
文化 263338
group 262732
是否 262716
At 262410
听 262116
taken 261851
put 261761
或者 261598
还有 261375
2012 261165
标准 260752
有@@ 260510
部 260377
一切 260214
&apos;d 259463
special 259401
All 258824
帮助 258745
Republic 258623
部门 258318
觉得 258005
does 257626
接受 257463
didn 256707
st@@ 256304
situation 256149
area 255163
programmes 255154
ts 255107
legal 254995
取得 254689
见 254626
同 254236
看到 254162
企业 253822
预算 253804
paragraph 253775
Office 253583
控制 253459
那么 253215
意见 252957
al@@ 252692
ch@@ 252452
家 252429
起 252186
才 252088
各种 251829
r@@ 250465
美元 250262
ar@@ 249791
following 249700
I@@ 249549
7@@ 249374
access 248948
用于 248728
around 248692
age 248208
every 248157
protection 247668
基础 247493
则 247419
培训 247358
find 247238
机会 247089
second 246852
m 246130
effective 246001
评估 245910
水@@ 245592
change 245424
view 245294
continue 245006
persons 244943
another 244791
出现 244328
之后 244248
g 243899
东西 243451
million 243326
制定 243253
21 243160
6@@ 243118
tell 242840
说明 242692
home 242176
工作人员 242040
global 241740
带 241651
原则 241588
ting 241128
人口 240942
love 240916
17 240663
business 240435
local 239427
设计 239403
role 239310
found 239117
事务 238397
community 238126
那个 238002
Special 237951
review 237790
代表团 237497
之前 237199
u@@ 237185
on@@ 236515
full 236160
1999 236065
头 235948
might 235825
ating 235786
2@@ 235737
投资 235437
期 235431
ated 234730
特派团 234701
非洲 234500
men 234331
.@@ 234229
decision 234089
How 233976
31 233964
Human 233856
受 233683
制度 233347
old 233297
family 233272
again 233210
w@@ 232198
谁 231913
条件 231825
不过 231797
24 231662
框架 231445
always 231215
采用 231194
a@@ 231176
例如 231105
19 230861
possible 230598
今天 229956
然后 229606
范围 229395
死 229367
field 229305
造成 228865
why 228368
cases 226978
选择 226317
以便 226243
器 225355
study 225252
条约 225093
非 225020
best 224997
建设 224942
却 224629
起来 224568
trade 224532
regard 224514
needs 224478
50 224246
进程 224213
paper 224092
这么 223248
作 223039
结构 222242
general 221855
adopted 221785
此外 221704
可@@ 221654
8@@ 221523
means 221429
机 221101
尔 220900
next 220840
respect 220365
力 220269
之@@ 220132
完成 220074
market 219824
technology 219542
很多 219439
established 219065
v@@ 219025
parties 218981
家庭 218893
ted 218431
less 218368
22 218258
介绍 218237
peace 217856
别 217855
today 217677
am@@ 217441
即 216747
一定 216711
强调 216628
受到 216478
increase 216283
过去 216251
自@@ 215857
j@@ 215638
service 215361
progress 215209
岁 215204
using 215158
不要 214698
只有 214624
u 214571
away 214540
办法 214497
费用 214429
认识 214428
处 214089
这@@ 213636
small 213310
平等 212757
发展中国家 212753
1998 212681
When 212511
三@@ 212508
车 212262
thing 212084
2013 211990
current 211888
mean 211742
秘书处 211691
特 211643
原因 211333
必要 210381
power 209822
下@@ 209555
necessary 209502
9@@ 209431
权 209111
拉@@ 209039
体 209008
款 208867
plan 208677
严重 208517
P 208468
basis 208441
德 208141
On 207983
两@@ 207915
准备 207532
groups 207496
future 207476
include 207318
马@@ 207231
military 207015
care 206283
called 205751
person 205729
专家 205277
or@@ 205091
call 204723
z@@ 204539
line 204307
天 204304
land 204295
新@@ 204180
region 204176
l 204175
23 204101
D 203849
阿@@ 203461
technical 203309
project 203175
责任 203163
money 203087
钱 202978
约 202927
分 202898
developed 202820
手 202609
President 202572
负责 202418
di@@ 202362
形式 202300
already 202135
Why 202004
因 201740
state 201678
research 201583
together 201457
爱 201438
尽管 201421
reports 201374
自由 200507
的话 200470
results 200377
it@@ 200279
产品 200232
发@@ 200198
things 200002
生产 199934
按照 199836
量 199514
er@@ 199424
式 199345
various 199303
了解 199303
given 199172
school 199057
key 198905
available 198490
适当 198456
另 198336
accordance 198191
issue 198185
example 198044
无法 197526
住 197405
我要 197239
days 197128
society 197087
My 197010
th@@ 196965
全面 196851
改革 196809
food 196720
分@@ 196675
become 196643
图 196470
需 196237
拉 196070
china 195313
贸易 195298
000 195262
method 195075
工作组 194963
police 194289
100 194269
con@@ 193779
ro@@ 193557
行 193396
n 193340
violence 193328
具体 193177
child 193071
doing 192847
克 192360
心@@ 192204
进展 191846
k 191592
thought 191497
长 191338
资金 191214
problem 191165
外@@ 191139
直接 191138
point 190986
is@@ 190954
应当 190949
共同 190913
December 190686
major 190650
ab@@ 190514
recommendations 190450
维持 190183
im@@ 190156
upon 189976
60 189894
specific 189697
基本 189524
few 189419
加@@ 189219
National 189160
non-@@ 188961
承诺 188934
度 188775
de@@ 188275
尤其 188214
一点 188204
此 188109
真的 187943
出@@ 187898
40 187886
完全 187293
议程 187234
找 187066
道 187047
os@@ 186652
消除 186515
涉及 186463
一下 186306
外 186306
capacity 186083
course 186078
成 186036
虽然 186014
方 185973
增长 185886
设立 185657
健康 185655
policies 185630
应用 185617
个人 185499
ad@@ 185267
New 185160
at@@ 184716
缔约方 184637
Chinese 184246
Y@@ 183857
仍然 183848
result 183798
took 183757
application 183600
as@@ 183536
light 183414
出来 183411
Member 183342
proposed 183179
安排 182966
institutions 182962
company 182949
打@@ 182910
业务 182674
son 182429
朋友 182393
事情 182346
rate 182233
el@@ 182101
我@@ 181781
World 181626
night 181594
仍 181437
U@@ 181381
Programme 181154
least 181135
正 181073
叫 180940
办公室 180916
快 180750
Organization 180558
协助 180460
犯罪 180190
budget 179918
Africa 179834
地@@ 179832
's 179773
appropriate 179702
ic@@ 179490
内容 179351
较 179335
kind 179250
类 179248
大学 179214
做法 179140
西@@ 178846
above 178693
total 178529
吃 178522
levels 178476
线 178440
26 178430
free 178430
表明 178081
未 177981
four 177932
自 177882
making 177786
然而 177754
done 177657
whether 177647
找到 177428
那@@ 177307
conditions 177300
法院 176973
来自 176897
five 176775
quality 176743
办事处 176598
keep 176481
最近 176480
T 176381
司法 176302
鼓励 176243
p 176193
相信 176187
addition 176153
行政 176149
account 175977
form 175894
欢迎 175829
本@@ 175779
率 175765
main 175496
name 175373
会员国 175322
taking 174910
导致 174736
problems 174677
充分 174359
每个 174291
项 174034
en 173941
ine 173653
large 173634
left 173415
house 173402
systems 173118
28 172875
nuclear 172758
body 172570
改善 172562
address 172390
部队 172210
发言 172207
growth 172004
性别 171919
ic 171909
成功 171760
挑战 171623
told 171576
公@@ 171285
材料 171270
ac@@ 171128
ly 171045
利益 171017
结束 170986
特@@ 170686
内@@ 170436
以来 170223
force 170180
网络 170018
With 169991
斯@@ 169899
required 169805
having 169657
side 169539
海@@ 169511
经 169307
生 169282
武器 169172
building 169081
June 169014
监测 168924
心 168574
27 168553
关注 168451
says 168402
several 168397
ar 168358
国内 168343
学生 168311
ti@@ 168308
effect 168251
particularly 167967
总统 167786
ever 167628
稳定 167598
Z@@ 167500
城市 167274
promote 167229
ant 167107
一般 166967
人类 166959
however 166906
often 166893
冲突 166762
学校 166713
整个 166570
Do 166410
安@@ 166374
显示 166212
每 166135
sector 165899
show 165843
concerned 165772
时@@ 165413
&apos;@@ 165383
重@@ 165224
以色列 165218
Hey 165197
学 164946
private 164906
各项 164810
咨询 164781
天@@ 164726
电@@ 164681
room 164525
environment 164335
Board 164262
noted 164099
ous 163944
real 163874
foreign 163844
因素 163837
设备 163808
来说 163767
之一 163685
型 163644
big 163396
义务 163245
considered 162804
治疗 162798
analysis 162709
es@@ 162675
警察 162642
Let 162639
past 162390
Yes 162387
attention 162254
came 162132
believe 161983
question 161958
sp@@ 161841
fact 161822
M 161814
当然 161810
改变 161737
whole 161529
meet 161527
However 161329
ates 161319
联系 160930
tion 160827
especially 160793
场 160778
gender 160759
以下 160623
这方面 160403
In@@ 160121
开@@ 160109
risk 159788
improve 159775
sure 159769
前@@ 159700
agenda 159372
production 159348
Parties 159338
le 159246
approach 159073
framework 158807
projects 158783
哦 158503
value 158378
位 158367
yet 158326
ap@@ 158270
有人 158211
African 158175
ex@@ 158015
far 157965
open 157965
表 157863
适用 157786
ri@@ 157773
按 157763
requirements 157682
评价 157678
feel 157578
fully 157395
保证 157337
common 157224
importance 157161
European 157137
称 156964
continued 156959
全@@ 156728
需求 156636
co@@ 156605
保持 156569
e-@@ 156287
inter@@ 155997
according 155862
拥有 155851
impact 155673
meetings 155628
face 155517
ations 155483
lot 155450
early 155421
op@@ 155399
f 155208
批准 155134
银行 155079
同意 155020
29 154808
歧视 154807
civil 154729
authorities 154490
h 154427
play 154386
energy 154231
matter 154211
开 154029
office 153974
God 153941
太 153447
事件 153443
member 153413
low 153405
pre@@ 153393
ent 153213
独立 152964
hand 152955
provisions 152922
anything 152716
population 152663
treatment 152611
1997 152466
针对 152388
increased 152196
． 152060
变化 152011
风险 151911
operations 151770
发 151719
一份 151599
基于 151567
联合 151465
议定书 151447
离开 151421
社区 151163
space 150987
young 150899
日本 150724
物 150680
Re@@ 150655
ding 150493
once 150207
限制 150115
position 150072
案件 150024
head 150007
ag@@ 149653
Now 149573
consideration 149562
job 149446
状况 149076
达 149053
city 148938
欧洲 148917
运动 148878
水平 148746
同@@ 148685
选举 148665
due 148627
sustainable 148614
有些 148573
卡@@ 148239
red 148217
进入 148214
won 148211
加入 148008
打 147676
我国 147635
成果 147630
19@@ 147616
那里 147572
towards 147336
当局 147322
问 147301
带来 147164
please 147108
until 147038
July 146911
F 146900
协定 146799
talk 146737
ability 146530
Department 146444
非政府 146428
bodies 146352
德@@ 146223
1@@ 146152
某些 146089
面 145986
ol@@ 145805
两年 145722
局 145720
光@@ 145629
开发 145602
design 145591
香港 145504
这项 145384
led 145282
economy 145269
我会 144958
法@@ 144871
门 144867
additional 144817
performance 144765
recent 144700
实际 144596
went 144491
站 144459
Okay 144372
als 144281
These 144138
Social 144131
received 144110
therefore 144067
转@@ 144048
air 143976
Economic 143916
ment 143697
罗@@ 143668
利 143624
One 143568
未来 143508
amount 143496
Is 143404
暴力 143348
积极 143238
不断 143181
两 143075
路 143005
从而 142981
leave 142430
Just 142421
重新 142355
May 142344
现有 142271
曾 142079
长@@ 142075
二@@ 141948
％ 141921
集团 141901
em@@ 141884
domestic 141636
times 141618
帮 141485
L 141480
收入 141460
enough 141391
感到 141323
participation 141293
third 141128
others 140949
model 140918
ings 140892
更加 140620
相@@ 140586
months 140542
承认 140437
weapons 140416
Court 140376
sh@@ 140342
低 140323
层 140286
利@@ 140285
空间 140265
poverty 140175
delegation 140050
防止 140002
均 139905
事项 139619
同样 139504
甚至 139443
le@@ 139420
入 139256
三 139010
传统 138964
打击 138948
优先 138917
li@@ 138909
科学 138862
综合 138775
广泛 138741
agreed 138674
巴@@ 138597
老@@ 138498
organization 138188
如此 137954
书 137728
note 137470
也许 137404
terms 137399
本文 137367
live 137212
pay 137144
好@@ 137104
seen 137069
成@@ 137001
组 136978
existing 136925
ter 136828
想要 136816
status 136618
Fund 136535
nothing 136459
价值 136458
达到 136361
living 136318
经验 136163
地位 136102
provides 136067
意义 136007
对@@ 135818
国@@ 135654
程度 135511
Working 135413
tions 135351
cost 135257
ul@@ 135202
一名 135010
员 134959
尔@@ 134939
team 134888
clear 134887
记录 134887
协议 134833
禁止 134681
practice 134361
四@@ 134259
structure 134130
consider 134122
以前 134008
立法 133948
rules 133782
response 133768
hard 133662
级 133657
agencies 133653
拿 133600
面临 133529
花 133391
上述 133351
最大 133351
气 133316
真 133257
威胁 133204
L.@@ 132964
解释 132861
Women 132779
规则 132690
受@@ 132635
占 132586
war 132532
Come 132485
2014 132406
比较 132371
South 132356
关切 132305
develop 132237
1996 132209
证明 132183
bring 132159
costs 132072
conflict 131987
investment 131963
二 131932
形成 131866
推动 131859
hours 131729
humanitarian 131632
Because 131592
reported 131559
所述 131504
厅 131390
手@@ 131348
G 131343
products 131275
0@@ 131214
收到 131101
难民 130986
州 130970
over@@ 130963
be@@ 130858
item 130779
mind 130607
那样 130564
certain 130509
长期 130430
队 130370
il@@ 130250
数 130220
concern 130046
si@@ 129996
Ch@@ 129975
文@@ 129822
无 129821
经常 129813
不想 129410
一位 129280
document 129259
扩大 129218
全国 129197
文 129191
needed 129182
过@@ 129173
context 129074
流@@ 129048
值 129030
工具 128924
Union 128665
种 128634
monitoring 128600
通常 128549
establishment 128524
热@@ 128517
动 128499
close 128473
学习 128433
cannot 128379
重点 128320
forward 128169
谈判 128034
人道主义 127956
el 127929
请求 127886
Don 127885
request 127825
week 127691
experience 127625
日至 127615
significant 127591
管 127225
小时 127088
II 127085
September 127005
personnel 126902
looking 126786
om@@ 126693
附件 126677
per@@ 126663
justice 126634
ur@@ 126623
car 126619
十@@ 126572
subject 126543
至少 126528
um 126427
et@@ 126350
strong 126340
standards 126301
x@@ 126244
监督 126193
higher 125949
pl@@ 125863
king 125836
感觉 125718
start 125705
environmental 125656
规划 125621
Law 125560
模式 125503
America 125479
质量 125445
万@@ 125427
R 125424
he@@ 125330
进 125267
写 125242
军事 125240
submitted 125193
basic 125147
comprehensive 125128
最好 125102
指导 125082
超过 124934
father 124805
reform 124668
industry 124622
operation 124504
interest 124367
included 124364
报告员 124077
coming 123984
杀 123973
Action 123919
恐怖主义 123858
生@@ 123752
x 123740
responsibility 123654
se@@ 123631
Al@@ 123630
ago 123575
bo@@ 123567
五@@ 123490
当地 123355
strategy 123349
金@@ 123318
节 123308
日@@ 123290
允许 123268
呼吁 123242
strengthen 123151
光 123126
woman 123112
de 123097
planning 123062
结论 122953
履行 122926
主@@ 122924
expressed 122808
历史 122786
material 122632
mother 122600
保障 122502
understand 122455
agreement 122404
students 122401
armed 122268
会@@ 122218
death 122176
土地 122121
later 122045
id@@ 122021
Secretariat 121938
requested 121933
另外 121860
try 121836
serious 121772
lo@@ 121766
ia 121761
美@@ 121738
专业 121719
几个 121689
reporting 121619
克@@ 121559
forces 121557
October 121447
大量 121260
ir@@ 121116
Where 121101
cultural 120965
table 120961
asked 120929
其它 120815
1995 120719
做出 120643
March 120638
掉 120542
hope 120518
X@@ 120506
test 120490
交@@ 120464
基 120387
everything 120330
decided 120249
非@@ 120245
stop 120202
legislation 120101
funds 119951
cause 119920
制 119917
statement 119813
equipment 119773
saw 119661
论坛 119578
回 119569
对话 119515
电话 119463
法庭 119459
Your 119423
妈妈 119411
亚@@ 119335
N 119276
反应 119059
发挥 119021
里@@ 118978
据 118947
wanted 118943
内部 118918
ans 118878
date 118833
阶段 118790
Governments 118769
危险 118606
临时 118556
大家 118553
natural 118502
派 118453
criminal 118412
November 118384
表现 118330
changes 118247
ec@@ 118243
focus 118178
doesn 118126
implement 118054
署 117926
科@@ 117861
所@@ 117809
ing@@ 117768
ways 117719
bad 117583
00 117521
基@@ 117484
run 117326
改进 117136
回来 116978
片 116942
三个 116866
用@@ 116768
件 116767
纳入 116624
200 116618
property 116609
principles 116589
几@@ 116457
list 116383
知识 116344
恢复 116314
ha@@ 116311
明确 116307
巴勒斯坦 116054
O 116051
干 116022
procedures 115898
providing 115861
six 115828
His 115823
看看 115690
市 115675
剂 115650
act 115646
tr@@ 115635
重申 115625
representatives 115602
section 115565
soon 115491
预防 115489
真正 115342
girls 115206
mission 115086
knowledge 115076
along 115031
type 114957
heart 114941
} 114939
okay 114858
科 114720
非法 114683
伊拉克 114646
设施 114536
真@@ 114534
ot@@ 114513
discrimination 114494
Article 114338
ad 114321
move 114300
18@@ 114264
理论 113981
探讨 113944
花@@ 113871
第一 113846
lack 113838
她们 113814
土著 113737
girl 113637
符合 113622
challenges 113615
mechanisms 113589
makes 113496
th 113433
制订 113412
女性 113389
来@@ 113306
信 113304
r 113299
团 113293
hi@@ 113152
别@@ 113145
methods 113091
practices 113081
现象 113046
太@@ 113034
条款 112991
hold 112857
Mission 112805
安理会 112712
us@@ 112697
尼 112671
rule 112666
行@@ 112561
mandate 112529
half 112525
官员 112497
战争 112469
sorry 112456
哈@@ 112417
provision 112363
更好 112084
plans 112041
流 112037
总 111972
单@@ 111947
contained 111906
联@@ 111877
principle 111876
St@@ 111849
嗯 111823
actions 111719
夫 111716
访问 111548
正@@ 111360
January 111329
合@@ 111297
维@@ 111262
动@@ 111216
April 111149
申请 110858
deal 110808
ist 110803
someone 110719
英国 110710
known 110699
财政 110653
pe@@ 110637
representative 110567
性@@ 110399
0 110385
expected 110280
80 110176
oil 110155
Sh@@ 110149
workers 110019
sub@@ 110017
outside 109959
coordination 109941
central 109911
et 109905
Some 109873
nature 109796
ask 109725
金 109709
医生 109642
先 109586
确认 109555
合同 109469
以@@ 109413
Act 109410
words 109379
While 109325
宣言 109260
fl@@ 109198
话 109190
正式 109160
而@@ 109127
American 109094
US 109055
potential 109037
concerning 109000
头@@ 108939
construction 108782
getting 108782
为@@ 108774
1994 108732
est 108731
组成 108694
审计 108684
No. 108677
马 108615
mechanism 108563
理解 108372
Not 108318
pro@@ 108303
regarding 108254
资产 108244
经费 108242
最终 108056
trying 107917
responsible 107868
involved 107803
Protocol 107796
数量 107735
guy 107591
容易 107524
用户 107520
Rapporteur 107503
比@@ 107502
crime 107473
该国 107438
500 107341
individual 107320
违反 107300
卡 107290
费 107213
term 107210
companies 107176
方@@ 107139
年@@ 107132
Ministry 107094
台 107024
establish 107017
relating 107000
得@@ 106969
明@@ 106935
ds 106880
step 106876
价格 106876
ance 106737
assessment 106736
愿意 106711
art 106641
heard 106608
遵守 106608
风@@ 106594
idea 106522
细胞 106499
employment 106490
ren@@ 106386
米 106251
ity 106242
反对 106208
一部分 106121
turn 105967
功能 105967
forms 105946
ph@@ 105923
满足 105909
白@@ 105856
media 105846
定期 105846
就业 105754
network 105692
危机 105682
布@@ 105632
语 105611
回@@ 105588
laws 105498
lead 105484
买 105473
35 105448
ments 105419
re 105414
嘿 105371
greater 105370
communication 105364
prevent 105287
病 105285
arms 105237
公共 105236
An 105206
met 105162
book 105153
明白 105102
effects 105088
carried 104997
stay 104989
调整 104926
案 104921
计算 104828
其@@ 104805
joint 104760
car@@ 104736
hear 104722
总是 104715
侵犯 104693
才能 104684
精神 104671
关键 104584
exchange 104496
有助于 104481
resolutions 104458
人数 104429
南@@ 104389
格@@ 104343
发达国家 104336
收@@ 104318
victims 104184
明显 104150
领导 104135
全 104020
应对 104018
across 103906
return 103894
ou@@ 103893
重大 103891
如@@ 103833
以上 103747
crisis 103726
wish 103649
official 103546
女人 103519
bi@@ 103503
引起 103492
Affairs 103464
thus 103416
acts 103370
板 103301
似乎 103298
球 103276
总@@ 103254
西 103156
Look 103035
没@@ 103023
协商 102998
世纪 102969
ch 102954
ally 102926
法官 102856
第二 102814
手段 102779
officials 102703
limited 102642
either 102579
rather 102430
公民 102411
active 102410
understanding 102339
各@@ 102208
群体 102175
safety 102134
理由 102104
美 102082
清楚 101994
女孩 101856
qu@@ 101852
生物 101824
month 101784
担心 101775
though 101755
ors 101702
体@@ 101696
relations 101684
模型 101669
检查 101654
困难 101519
父亲 101508
achieve 101474
morning 101410
支付 101363
千年 101315
大多数 101290
缺乏 101263
山 101254
capital 101204
该@@ 101180
一天 101114
普遍 101025
annual 100905
90 100896
随着 100867
哪 100802
出口 100786
旨在 100774
ator 100771
几乎 100699
road 100675
70 100652
指标 100646
regular 100645
45 100588
medical 100532
民主 100526
friends 100517
court 100423
成立 100395
尼@@ 100373
女士 100359
Declaration 100289
反映 100275
以为 100243
to@@ 100209
poor 100142
strengthening 100117
印度 100066
protect 99976
领土 99940
brought 99868
decisions 99855
肯定 99776
首先 99755
chinese 99634
一年 99554
面@@ 99542
almost 99453
语言 99420
入@@ 99388
以后 99311
属于 99300
ne@@ 99274
states 99248
给予 99241
么 99212
administrative 99158
{ 99149
应@@ 99149
除了 99139
电 99126
history 99105
成员国 99011
top 99007
死亡 98984
每@@ 98851
后@@ 98805
萨@@ 98778
income 98766
Can 98723
证据 98488
创造 98419
当时 98408
difficult 98402
ah 98384
加 98371
最@@ 98367
举办 98346
create 98336
员额 98263
构成 98257
culture 98176
放@@ 98146
宣布 98145
reason 98067
宪法 98031
fine 97949
share 97917
伙伴关系 97915
纳 97885
Con@@ 97867
ian 97855
points 97800
气@@ 97797
steps 97701
平@@ 97631
After 97600
Mar@@ 97599
under@@ 97479
飞机 97324
single 97315
今年 97259
降低 97213
language 97189
bl@@ 97172
波@@ 97169
而言 97157
wife 97116
交易 97102
32 97014
农业 96947
低@@ 96945
普@@ 96927
range 96901
purpose 96898
准则 96896
受害者 96877
除 96823
且 96714
prevention 96651
read 96608
author 96551
lost 96523
例 96520
materials 96519
主 96501
工业 96485
声 96383
strategic 96354
宣传 96344
不仅 96278
der 96274
当@@ 96238
um@@ 96218
生命 96206
伙伴 96197
mo@@ 96161
越来越 96058
意思 96035
十分 96028
actually 95997
ative 95987
令 95966
An@@ 95954
提到 95915
Executive 95805
evidence 95788
再次 95735
65 95685
obligations 95583
55 95517
Then 95494
out@@ 95472
commitment 95450
missions 95426
function 95424
friend 95396
工程 95369
这次 95348
East 95337
宗教 95265
业 95215
保留 95094
presented 95076
可是 95039
男人 94958
objective 94939
谢谢 94938
唯一 94915
indigenous 94914
接@@ 94876
rest 94863
addressed 94806
这儿 94779
简单 94768
年度 94764
ded 94763
机@@ 94751
59 94735
通知 94644
网站 94643
contributions 94623
ons 94593
英语 94566
步骤 94508
省 94502
协会 94436
previous 94399
57 94392
reduce 94361
introduced 94285
军 94229
increasing 94143
wrong 94136
尊重 94072
数@@ 94057
mis@@ 94029
复@@ 94027
gr@@ 94010
below 93953
affected 93936
传@@ 93868
错 93774
高兴 93761
落实 93698
统计 93697
载 93695
price 93693
10@@ 93677
billion 93655
Service 93641
relationship 93591
entitled 93485
即使 93471
意 93462
室 93407
反@@ 93342
ang@@ 93328
条例 93323
人士 93313
gu@@ 93299
便 93275
initiatives 93262
起@@ 93261
prepared 93241
Who 93240
sexual 93213
reduction 93157
allow 93110
partners 93030
guys 92975
tive 92969
课程 92952
High 92927
UNDP 92881
良好 92831
adoption 92785
多少 92778
H 92713
品 92709
gave 92664
visit 92651
positive 92638
opportunity 92601
压力 92569
新闻 92564
亿美元 92543
late 92540
调@@ 92525
媒体 92524
bit 92500
南 92473
避免 92454
Are 92412
些 92382
1993 92348
分别 92339
届 92294
supported 92208
Palestinian 92195
dead 92192
By 92005
currently 91953
儿 91931
编写 91922
ten 91912
source 91901
else 91859
evaluation 91850
equality 91846
res 91842
funding 91818
enhance 91815
Israel 91747
成本 91697
ak@@ 91640
itself 91592
traditional 91589
言 91557
副 91536
z 91511
activity 91507
rural 91450
家@@ 91333
yourself 91309
身@@ 91301
ground 91270
进@@ 91266
效果 91218
administration 91200
ty 91165
只要 91110
62 91077
ay@@ 91045
former 90977
lower 90976
学@@ 90947
organized 90918
增强 90830
单位 90815
par@@ 90805
ies 90802
15@@ 90771
精@@ 90715
通信 90710
news 90703
2015 90628
比赛 90628
...... 90555
通@@ 90527
priority 90477
六@@ 90448
部长 90388
是因为 90374
实体 90339
万 90284
t-@@ 90267
艾滋病 90243
圣@@ 90165
questions 90143
Advisory 90062
重 90059
promoting 90052
交流 90038
63 90029
direct 90028
达成 90016
percent 89941
pressure 89879
特殊 89873
黑@@ 89855
点@@ 89744
亚洲 89724
overall 89711
true 89704
倡议 89692
alone 89675
ship 89674
dialogue 89662
documents 89656
党 89609
别人 89568
门@@ 89536
ed@@ 89524
体系 89518
bed 89480
爱@@ 89428
身 89428
保健 89347
指 89329
themselves 89251
补充 89234
58 89193
定义 89165
物质 89115
Please 89074
com@@ 89034
装置 89019
64 89018
notes 88978
深@@ 88972
reference 88942
送 88928
&amp; 88907
benefits 88865
HIV 88842
product 88804
贡献 88803
cl@@ 88792
在@@ 88785
final 88784
ter@@ 88772
class 88745
类似 88718
issued 88690
ready 88687
儿子 88667
本国 88660
边 88644
分配 88627
Arab 88612
形 88601
August 88598
变@@ 88543
网 88534
发表 88481
权力 88436
司 88379
药物 88362
secretariat 88359
格 88351
promotion 88310
transfer 88276
原@@ 88244
提@@ 88228
fire 88215
opportunities 88210
声明 88147
52 88115
functions 88058
事实 88014
hong 87983
standard 87903
双@@ 87899
facilities 87883
English 87857
经过 87847
出去 87785
Ex@@ 87757
收集 87709
essential 87702
元 87697
贩运 87693
核心 87579
ev@@ 87567
similar 87519
观点 87510
drug 87489
Of 87481
strategies 87455
作@@ 87453
bank 87452
刑事 87422
疾病 87406
联盟 87403
恩 87313
cr@@ 87312
includes 87311
trafficking 87307
万美元 87274
Report 87271
份 87266
word 87243
procedure 87214
定@@ 87200
全部 87192
核@@ 87175
法国 87168
数字 87154
kong 87139
火@@ 87134
mon@@ 87078
su@@ 87076
oc@@ 87067
primary 87063
ling 87053
Japan 86991
boy 86989
很大 86984
每年 86979
一致 86971
民间 86948
experts 86926
实行 86892
implemented 86878
remember 86853
approved 86805
红@@ 86778
works 86720
最佳 86682
母亲 86673
climate 86628
te@@ 86627
61 86612
意识 86600
February 86566
血@@ 86550
33 86526
管制 86521
build 86494
parts 86477
伊@@ 86452
位置 86348
discussion 86315
训练 86271
tic 86221
committed 86181
Europe 86161
56 86063
front 85991
ong 85928
independent 85864
合 85854
过来 85790
酸 85789
口 85748
phone 85710
operational 85694
processes 85661
ness 85641
sent 85625
started 85623
trans@@ 85618
matters 85560
下来 85521
recommended 85519
remain 85508
森林 85496
估计 85434
概念 85412
parents 85374
奥@@ 85323
为此 85287
remains 85285
罪 85199
talking 85137
committee 85114
text 85071
Get 85063
共和国 85047
下列 85027
rates 84965
状态 84915
saying 84905
shown 84903
票 84889
提议 84879
公众 84862
地点 84837
factors 84796
53 84790
ary 84778
tri@@ 84771
Asia 84769
境内 84746
制@@ 84743
力量 84738
Iraq 84735
stage 84727
损失 84711
口@@ 84706
man@@ 84642
他@@ 84612
People 84606
热 84602
conducted 84593
测试 84577
short 84573
统一 84525
post 84522
Bank 84515
ang 84513
killed 84496
变得 84492
internal 84484
商业 84477
offices 84473
connection 84442
longer 84351
ical 84349
核 84346
下降 84341
团体 84271
bar@@ 84265
applied 84255
议会 84252
皮@@ 84183
和@@ 84162
blood 84013
str@@ 83975
34 83974
kill 83967
peoples 83963
easy 83925
供 83915
双方 83870
贫穷 83778
路@@ 83763
exercise 83689
工@@ 83638
报道 83615
扩散 83574
抗@@ 83570
名字 83546
Did 83529
mar@@ 83525
V 83507
感 83498
风 83467
gas 83464
结@@ 83458
女 83453
peacekeeping 83444
八@@ 83441
36 83395
Centre 83368
les 83358
界 83357
48 83348
During 83330
letter 83283
IC@@ 83237
self-@@ 83211
亚 83190
方向 83190
车@@ 83141
fight 83134
content 83085
aimed 83075
听到 83073
纽约 83059
不错 83012
比例 82965
comes 82962
invention 82948
有点 82935
implementing 82899
意味着 82896
办 82845
personal 82832
药 82818
ve 82811
呀 82769
happened 82727
空@@ 82719
conference 82708
汽车 82665
equal 82655
明 82581
eyes 82551
authority 82547
迅速 82524
ves 82478
复杂 82468
食物 82465
山@@ 82437
demand 82435
先@@ 82430
requests 82409
化@@ 82403
tu@@ 82401
主义 82358
享有 82337
paid 82314
knew 82278
cut 82244
授权 82144
足够 82114
大约 82079
terrorism 82045
北京 81989
结合 81986
solution 81944
York 81905
likely 81895
shows 81875
毒品 81871
拘留 81851
电子 81834
ati@@ 81774
感谢 81754
safe 81713
金融 81712
未@@ 81711
德国 81708
Since 81677
更@@ 81617
任 81602
在内 81602
supply 81542
manner 81526
破坏 81515
agreements 81512
保@@ 81455
放 81451
president 81393
签署 81379
described 81359
公开 81359
Information 81287
regions 81282
ice 81262
跑 81205
试验 81191
complete 81176
近 81120
communities 81089
达@@ 81048
ci@@ 81012
维护 81003
从事 81001
behind 80982
列入 80968
主任 80945
失@@ 80945
lives 80931
takes 80887
discussed 80886
选 80883
conduct 80867
块 80818
site 80804
父母 80798
elements 80742
for@@ 80723
300 80710
雷@@ 80691
Y 80688
看@@ 80647
ry 80636
律师 80633
编制 80566
医院 80550
freedom 80521
goods 80516
能源 80512
行动计划 80499
thinking 80490
仅 80421
船 80393
类型 80353
－ 80319
goals 80303
disarmament 80231
bu@@ 80214
巨大 80169
happy 80157
door 80136
名@@ 80115
外国 80056
para 80021
包含 80018
移民 80000
game 79999
上帝 79979
De@@ 79952
Central 79933
传播 79834
core 79826
board 79821
要@@ 79811
青年 79806
真是 79745
do@@ 79728
ful 79653
古@@ 79618
东@@ 79598
第一@@ 79591
facilitate 79558
电影 79524
当前 79507
base 79493
清@@ 79413
aspects 79400
预@@ 79369
穿 79345
average 79321
修订 79318
1990 79306
从@@ 79257
今后 79241
added 79237
超@@ 79233
本发明 79232
总部 79214
consultations 79201
minutes 79197
制造 79181
艾滋病毒 79163
37 79161
inside 79140
相 79140
die 79129
农村 79087
防@@ 79087
schools 79078
ie 79063
Good 79004
66 78986
54 78965
designed 78956
沙@@ 78928
directly 78866
treaty 78818
一条 78766
四 78723
永远 78711
violations 78704
少 78686
14@@ 78683
岛 78619
whose 78618
城 78588
采购 78551
老 78529
distribution 78524
13@@ 78505
阿富汗 78485
主题 78419
cover 78411
列 78401
instruments 78396
isn 78390
依据 78376
民族 78358
寻求 78298
17@@ 78280
局势 78240
According 78215
everyone 78209
抱歉 78208
根本 78198
纳@@ 78186
behalf 78170
ra@@ 78152
pen@@ 78135
医疗 78103
支出 78097
接触 78078
油@@ 78077
surface 78056
integrated 78029
benefit 77993
正常 77983
海 77952
all@@ 77946
去年 77930
布 77924
回顾 77882
色 77882
百@@ 77879
部署 77860
高级 77844
ob@@ 77841
ism 77822
北@@ 77814
ps 77804
反 77794
最高 77790
wait 77767
ise 77759
physical 77695
University 77692
文书 77588
哪里 77576
objectives 77568
竞争 77506
annex 77501
表@@ 77499
基金会 77483
theory 77478
individuals 77469
包 77467
.. 77448
sense 77432
stated 77379
views 77355
第一次 77347
carry 77334
看见 77301
装@@ 77284
不到 77275
速度 77241
信号 77223
极@@ 77221
拒绝 77220
专门 77208
运输 77130
怎样 77128
爸爸 77102
价 77042
identified 77038
神 77019
leaders 76998
offer 76992
Representative 76977
一家 76962
特定 76960
although 76938
油 76918
officers 76857
记得 76848
能@@ 76847
posts 76845
来源 76835
米@@ 76760
连@@ 76755
噢 76750
ain 76733
国际法 76709
stability 76705
gi@@ 76658
民@@ 76657
时期 76652
债务 76645
情@@ 76604
实际上 76580
ver@@ 76565
cor@@ 76529
arrangements 76522
卫生 76511
computer 76509
趋势 76502
火 76417
Minister 76397
工人 76372
te 76331
公平 76331
思想 76281
打算 76250
十年 76243
担任 76243
effort 76227
罗 76208
大部分 76199
倒 76162
interests 76136
16@@ 76115
图@@ 76115
sir 76104
ge 76024
发出 76018
处于 76011
不再 76006
财务 75995
sl@@ 75965
职能 75961
看起来 75947
AIDS 75897
informed 75858
sound 75824
重要性 75798
登记 75753
解@@ 75743
ge@@ 75676
身份 75675
biennium 75669
森 75654
若干 75646
families 75581
财产 75555
体制 75487
Mr 75483
po@@ 75406
concerns 75394
运作 75392
强 75364
背景 75355
adequate 75347
难 75343
Th@@ 75335
markets 75245
很@@ 75237
labour 75216
department 75211
性质 75182
ite 75165
预计 75156
quite 75155
力@@ 75068
near 75062
职业 75035
science 75034
resource 75024
od@@ 75017
观察 74962
recently 74960
so@@ 74945
os 74900
啦 74890
微@@ 74890
词 74878
67 74846
studies 74818
proposal 74812
sea 74795
详细 74785
assist 74743
邀请 74705
travel 74600
effectively 74591
improved 74555
特点 74527
efficiency 74502
消息 74406
将会 74356
女@@ 74348
integration 74338
完 74327
核武器 74290
效率 74285
实@@ 74253
up@@ 74239
房 74218
unit 74209
装 74129
Division 74103
proposals 74075
dr@@ 74072
fundamental 74061
39 74048
ensuring 74047
gone 74039
放在 74026
series 74012
调 73970
半@@ 73969
hands 73933
ks 73928
critical 73910
financing 73900
se 73864
预期 73846
ker 73837
achieved 73830
客户 73777
ke 73770
每天 73712
讲 73646
flow 73583
相同 73582
气候变化 73578
awareness 73556
ard 73543
v 73541
throughout 73518
preparation 73474
wasn 73474
残疾人 73459
leading 73446
ish 73393
guidelines 73364
工 73357
神@@ 73351
特征 73345
51 73339
加拿大 73334
谈 73332
debt 73317
fe@@ 73314
au@@ 73278
商 73278
尚未 73265
停止 73254
表达 73219
wh@@ 73181
Hong 73178
compared 73166
教 73162
军@@ 73158
trust 73154
y-@@ 73089
infrastructure 73064
定 73064
me@@ 73047
自然 73038
success 73001
位于 72996
动物 72923
growing 72918
loss 72843
身体 72840
fall 72831
远@@ 72806
W 72772
使得 72761
林 72746
sc@@ 72736
Management 72732
ass 72714
后续 72696
ton 72687
Com@@ 72639
罪行 72626
实验 72561
错误 72557
瓦@@ 72541
IN@@ 72391
鉴于 72373
items 72370
河 72352
white 72348
recognized 72343
管@@ 72323
病@@ 72306
证 72300
associated 72292
alization 72277
mainly 72258
indicated 72087
Q@@ 72082
ants 72078
酷刑 72067
calls 72059
故事 72058
min@@ 72034
Ar@@ 71982
Our 71963
落 71922
适应 71903
caused 71898
1.@@ 71880
Global 71822
标@@ 71786
事@@ 71771
balance 71760
contribute 71732
具 71728
contract 71723
子@@ 71719
III 71689
变 71683
la@@ 71649
articles 71645
statements 71636
记者 71627
不可 71621
improving 71615
千@@ 71613
42 71610
press 71597
moment 71576
理@@ 71542
probably 71500
X 71466
Russian 71462
患者 71441
baby 71439
鱼 71427
wide 71426
created 71394
下午 71340
1,@@ 71258
pol@@ 71249
Go 71225
院 71222
Millennium 71202
communications 71185
investigation 71185
From 71111
prices 71106
beautiful 71101
平衡 71093
target 71091
迪@@ 71076
ten@@ 71023
质 71016
ent@@ 71008
negotiations 70965
华@@ 70959
信@@ 70936
领导人 70915
regulations 70863
贝@@ 70853
酒 70825
姆 70774
变成 70754
单 70742
events 70710
好像 70703
王@@ 70609
nice 70599
story 70597
分子 70584
活@@ 70575
wants 70556
立即 70487
只能 70462
38 70461
ol 70416
死@@ 70414
size 70385
报 70353
no@@ 70319
相对 70318
等等 70313
dated 70297
Co@@ 70292
stand 70277
ties 70268
ones 70248
myself 70242
UN@@ 70233
Other 70197
答复 70190
require 70186
town 70155
视 70100
K 70064
令人 70055
基础设施 70049
本身 70034
Kong 70028
1992 70007
ying 69997
连 69993
专@@ 69964
报@@ 69949
transport 69940
召开 69936
0.@@ 69908
正确 69908
加以 69887
经@@ 69860
行业 69833
一系列 69826
patients 69815
eat 69792
phase 69789
承担 69787
怎么样 69756
enterprises 69711
向@@ 69711
枪 69694
障碍 69691
各方 69674
recommendation 69644
aid 69643
重视 69614
non-governmental 69607
gl@@ 69570
successful 69568
士 69550
曾经 69540
buy 69505
station 69474
began 69469
取 69467
如下 69463
Plan 69461
68 69453
scientific 69440
44 69429
或许 69425
himself 69360
呃 69343
往 69332
uses 69331
crimes 69201
增@@ 69152
ze 69143
follow 69142
艾@@ 69125
housing 69088
最新 69083
res@@ 69082
maybe 69053
拟议 69033
and@@ 69031
攻击 69018
带@@ 68951
claims 68947
整@@ 68938
创新 68929
教@@ 68929
居民 68883
多年 68878
伤 68864
联邦 68772
seems 68771
Ms. 68767
描述 68767
apply 68755
再@@ 68647
ked 68645
是不是 68574
assets 68533
职位 68527
event 68431
scale 68391
Panel 68354
enforcement 68351
ma 68316
往往 68311
hit 68303
usually 68302
战 68276
anyone 68271
uh 68202
指控 68199
fund 68188
learn 68174
sex 68174
cur@@ 68138
投@@ 68120
modern 68071
开放 68058
确实 68046
指定 68035
难@@ 68033
说@@ 68020
goal 67982
拟订 67981
股 67969
undertaken 67967
contact 67942
net 67939
黄@@ 67887
失去 67876
林@@ 67860
applications 67854
此类 67854
在于 67827
urban 67826
养 67803
units 67801
ators 67800
yes 67780
七@@ 67748
sources 67713
contribution 67700
早 67669
mine 67659
round 67608
坚持 67595
一级 67586
表面 67581
苏丹 67578
47 67536
reached 67517
ins 67497
practical 67476
监狱 67455
20@@ 67323
系 67226
性能 67196
46 67173
五 67097
想@@ 67087
reach 67076
credit 67074
Commissioner 66963
simple 66928
经历 66909
走@@ 66901
安 66884
预测 66872
tor 66841
推@@ 66827
task 66825
ber@@ 66784
源 66764
试@@ 66704
IS@@ 66678
ven@@ 66662
享受 66590
明天 66577
常@@ 66520
fourth 66499
波 66485
晚上 66457
hot 66427
India 66395
修改 66362
professional 66359
连接 66343
ality 66326
vi@@ 66289
Tribunal 66273
妈 66271
receive 66260
id 66236
遭受 66236
Director 66181
强@@ 66153
serve 66143
房间 66130
直@@ 66130
贷款 66110
First 66091
wouldn 66074
41 66063
code 66055
试图 66049
weeks 65995
77 65981
首脑会议 65956
il 65940
满 65935
平均 65931
the@@ 65924
al-@@ 65870
事实上 65829
房子 65783
销售 65783
华 65782
俄罗斯 65775
tax 65752
temperature 65740
av@@ 65735
通 65735
check 65723
我能 65676
referred 65672
运行 65654
Democratic 65643
North 65638
ay 65617
中央 65615
操作 65595
塔@@ 65583
delivery 65568
pretty 65564
looks 65498
检测 65473
end@@ 65461
beyond 65429
移徙 65401
yeah 65394
U 65389
赔偿 65377
beginning 65371
sw@@ 65357
相当 65295
兰 65248
石@@ 65237
Covenant 65211
reasons 65180
之外 65178
program 65161
待 65157
免费 65125
说话 65125
Beijing 65124
sion 65122
额 65118
Here 65116
aw@@ 65105
二十@@ 65097
processing 65090
looked 65084
关@@ 65078
决策 65067
00@@ 65051
Le@@ 65034
附近 65018
claim 64970
judicial 64966
合理 64962
多边 64960
改@@ 64960
Treaty 64948
ized 64933
须 64920
粮食 64918
avoid 64885
gen@@ 64879
br@@ 64855
ut@@ 64841
den@@ 64838
ud@@ 64828
欧洲联盟 64788
酒店 64752
提案 64750
星 64732
有时 64677
became 64663
circumstances 64663
予以 64629
兰@@ 64602
不管 64587
learning 64573
types 64566
木@@ 64566
del@@ 64541
海洋 64540
资助 64526
ats 64504
切@@ 64503
地球 64502
而是 64476
entire 64469
分钟 64429
章 64423
题为 64419
犯 64403
enable 64387
举措 64342
敦促 64285
territory 64282
signed 64280
若 64229
deep 64170
Car@@ 64157
tomorrow 64141
thank 64140
expert 64131
年龄 64131
回到 64064
ai 64028
rich 64000
vote 63986
游戏 63978
cell 63971
有限 63947
自愿 63890
密@@ 63869
此@@ 63848
w 63799
机关 63794
塔 63791
裁军 63791
远 63790
软件 63782
75 63769
charge 63751
Support 63720
首@@ 63651
Code 63648
组合 63639
Se@@ 63636
飞@@ 63631
建筑 63624
felt 63621
maintain 63607
Trade 63593
座 63577
回家 63542
商定 63492
go@@ 63487
commercial 63462
顿 63456
sometimes 63444
running 63437
相互 63407
衣服 63393
female 63385
玩 63376
tried 63368
showed 63353
written 63352
technologies 63342
ages 63328
governance 63317
scope 63313
disease 63301
吉@@ 63262
巴 63262
Chairman 63204
条@@ 63204
record 63144
Health 63137
有权 63114
莱@@ 63110
上升 63032
素 62996
century 62995
combat 62924
co 62898
属 62887
第二@@ 62863
角 62814
ses 62812
weight 62808
goes 62797
fucking 62790
解 62790
取@@ 62767
纲领 62765
guidance 62760
救 62736
ill@@ 62726
干@@ 62726
战@@ 62725
brother 62703
减@@ 62691
purposes 62688
inter 62684
effectiveness 62676
raised 62643
里面 62639
欧盟 62638
ery 62629
不足 62603
适合 62599
complex 62572
can@@ 62523
亦 62519
seven 62513
不得 62485
fi@@ 62471
ving 62469
及时 62449
,@@ 62411
mental 62405
43 62397
speak 62383
worked 62352
张@@ 62348
清单 62343
entities 62328
completed 62299
1991 62266
rise 62222
很快 62220
black 62217
commitments 62200
流离失所 62170
Criminal 62154
立@@ 62136
物@@ 62127
participate 62115
既 62112
relation 62092
chance 62082
诺@@ 62073
maintenance 62058
意@@ 62040
设 62031
贫困 62014
差 62004
49 61979
快@@ 61924
condition 61913
平民 61905
情 61900
influence 61886
妻子 61845
狗 61826
损害 61811
institutional 61790
Secretary 61776
sectors 61762
读 61761
industrial 61752
hour 61743
participants 61733
多个 61732
电视 61713
还要 61713
ru@@ 61692
不用 61686
转 61669
启动 61624
获 61615
Israeli 61599
generally 61565
un 61558
架 61555
clearly 61533
trial 61532
道@@ 61528
期@@ 61512
莫@@ 61508
creation 61502
其实 61496
快速 61464
advice 61451
料 61448
estimated 61447
identify 61441
emergency 61434
400 61400
covered 61399
OK 61397
lines 61386
声音 61379
顾问 61376
Justice 61364
曼 61338
Right 61306
movement 61244
男子 61164
时代 61141
damage 61139
outcome 61139
伤害 61116
compliance 61111
Such 61078
submit 61071
洛@@ 61064
sessions 61025
回答 61021
places 61008
直到 61007
迪 60996
prior 60973
黎巴嫩 60968
concept 60955
skills 60923
Korea 60922
continues 60920
对象 60886
ep@@ 60874
用来 60852
operating 60836
求 60777
ure 60765
态度 60764
今晚 60761
博@@ 60756
Although 60755
break 60752
characteristics 60744
主管 60741
军队 60718
En@@ 60692
competition 60690
ak 60686
女儿 60653
ics 60642
留@@ 60638
detention 60636
cold 60632
direction 60569
塞@@ 60525
taiwan 60513
就@@ 60513
任命 60512
Gu@@ 60505
Forum 60500
image 60496
税 60494
recommends 60476
died 60461
库 60451
software 60433
「 60367
核准 60348
refugees 60272
az@@ 60259
集中 60259
recovery 60256
归@@ 60241
福@@ 60239
du@@ 60216
商品 60214
anti@@ 60208
住房 60190
现代 60169
ongoing 60138
Objective 60121
Institute 60098
端 60097
聚@@ 60088
citizens 60081
ow@@ 60079
血 60056
树 60020
音乐 60018
身上 60009
随后 60004
照片 60003
insurance 59993
Internet 59986
external 59974
见@@ 59973
challenge 59960
chemical 59943
Review 59925
离 59894
couldn 59859
ically 59853
少数 59852
英@@ 59834
ung 59815
轮 59799
排@@ 59783
allowed 59782
device 59773
奇 59770
war@@ 59750
出席 59699
legislative 59685
giving 59670
ste@@ 59653
Unit 59647
figure 59641
一旦 59631
致力于 59623
che@@ 59618
李@@ 59612
笑 59609
视为 59606
一场 59605
ari@@ 59602
显然 59602
共@@ 59600
positions 59574
紧急 59563
threat 59560
毛@@ 59518
born 59511
29@@ 59509
mass 59493
信任 59489
台湾 59418
col@@ 59401
弄 59394
伯@@ 59374
husband 59368
religious 59359
港 59338
公正 59329
delegations 59312
观察员 59309
ve@@ 59288
situations 59201
opening 59199
代@@ 59131
非正式 59121
West 59118
膜 59115
formed 59056
ters 59046
离@@ 59046
tor@@ 59026
特性 59018
私人 59002
fast 58990
勒 58984
wanna 58970
食品 58962
initiative 58916
centres 58881
measure 58834
没事 58795
立场 58762
移动 58754
Take 58722
useful 58707
Pro@@ 58696
answer 58681
multilateral 58680
起诉 58678
道路 58676
」 58666
normal 58624
opinion 58621
第五 58616
轻@@ 58602
寻找 58592
28@@ 58564
评论 58563
脱@@ 58555
宪章 58547
initial 58546
election 58526
rec@@ 58511
music 58446
supporting 58438
字 58432
转移 58402
wall 58397
earlier 58377
strength 58367
met@@ 58363
discussions 58358
requires 58357
Geneva 58311
面对 58269
著 58265
两性 58262
30@@ 58255
艺术 58232
send 58221
九@@ 58216
高级专员 58201
dollars 58125
日期 58072
film 58063
leadership 58054
数据库 58024
警@@ 58015
Meeting 57997
banks 57924
Ab@@ 57920
年轻 57898
sign 57879
Public 57861
seek 57858
画 57855
ao 57810
welcome 57795
floor 57757
依照 57715
伊 57697
盘 57691
peaceful 57665
铁@@ 57664
托@@ 57654
审判 57652
hell 57649
UNICEF 57626
Permanent 57585
island 57559
extent 57556
求@@ 57553
encourage 57522
帕@@ 57516
determined 57488
drive 57478
途径 57470
cells 57467
状 57465
we@@ 57447
pursuant 57446
Like 57415
produce 57400
游@@ 57370
welcomed 57363
后来 57343
els 57330
更新 57272
之中 57256
tools 57240
第三 57226
不了 57194
disabilities 57183
名单 57175
ble 57158
修@@ 57157
一只 57140
raise 57135
差异 57134
truth 57132
speed 57130
阿拉伯 57120
Even 57118
袭击 57113
威@@ 57072
ce@@ 57053
negative 57050
冷@@ 57044
国际@@ 57035
ina 56988
teaching 56977
澳大利亚 56969
aim 56962
ell@@ 56939
马上 56930
Maybe 56914
Dis@@ 56897
电脑 56858
第一个 56858
ma@@ 56857
理 56824
皮 56813
built 56783
turned 56781
watch 56764
导@@ 56740
gh@@ 56722
遇到 56702
下去 56686
学院 56673
大规模 56667
听@@ 56629
sing 56626
abuse 56605
followed 56604
attack 56600
ring 56595
instead 56585
命令 56564
Sudan 56522
以外 56519
shot 56482
transition 56469
石 56468
落@@ 56456
购买 56429
比如 56400
供应 56396
spirit 56392
亲@@ 56390
choice 56389
周@@ 56375
越@@ 56358
difference 56353
埃@@ 56344
on-@@ 56340
mentioned 56338
ches 56330
ore 56329
gets 56326
算 56319
样 56311
见到 56302
alia 56288
编@@ 56278
牌 56261
street 56251
efficient 56247
machine 56203
-based 56201
产 56185
ill 56181
一件 56171
finally 56128
床 56121
Party 56111
green 56063
iz@@ 56063
症 56062
tonight 56047
环@@ 56043
占领 56029
walk 55991
Or 55980
第十@@ 55969
users 55949
冲@@ 55949
公布 55919
fields 55913
到底 55905
changed 55887
亿 55878
reduced 55875
压@@ 55871
兄弟 55870
苏@@ 55845
user 55836
Di@@ 55833
pos@@ 55821
Services 55819
anti-@@ 55798
re-@@ 55794
presence 55773
stakeholders 55769
技能 55757
所有人 55750
Federation 55738
偏@@ 55735
component 55726
Two 55705
放弃 55683
improvement 55682
civilian 55680
win 55665
cash 55622
各个 55615
现实 55610
依然 55606
共 55599
majority 55590
immediately 55522
规范 55520
想法 55510
辩论 55496
相比 55495
师 55492
相应 55471
Agency 55469
ering 55467
host 55456
药@@ 55452
electronic 55412
要是 55378
Constitution 55377
Cooperation 55369
eight 55325
旅行 55321
Ad@@ 55316
Charter 55305
universal 55302
ley 55301
collaboration 55298
follow-up 55276
对此 55271
丈夫 55260
发布 55226
statistics 55225
官方 55218
ization 55208
sk@@ 55193
生效 55185
索赔 55171
message 55165
接 55160
你好 55118
梅@@ 55091
采取行动 55062
Bo@@ 55060
sleep 55047
seem 55039
bilateral 55038
教授 55026
duty 55007
数目 54986
plant 54982
defined 54972
illegal 54950
至关重要 54948
values 54947
店 54938
# 54932
economies 54915
nation 54912
磋商 54907
讲习班 54883
Agreement 54876
Canada 54870
ho@@ 54849
600 54843
discuss 54837
holding 54829
Protection 54827
权@@ 54820
ale 54799
Regional 54791
youth 54771
集@@ 54760
senior 54747
men@@ 54722
vulnerable 54710
happen 54703
developments 54670
indicators 54618
enjoy 54611
日内瓦 54589
ence 54582
der@@ 54579
Many 54578
贸发 54577
无论 54575
喝 54560
kids 54530
produced 54511
d-@@ 54501
united 54488
Kingdom 54469
non 54468
获取 54462
Ac@@ 54430
expression 54422
Also 54411
revised 54397
眼睛 54385
高度 54383
截至 54364
suggested 54358
French 54346
focused 54326
字@@ 54321
论 54319
压 54300
sides 54235
正如 54179
He@@ 54152
货物 54141
引@@ 54139
fish 54119
专题 54119
眼 54117
实践 54115
izing 54100
视@@ 54099
资本 54075
bur@@ 54033
waste 54023
流动 54008
elections 54001
clean 53987
middle 53978
员工 53916
educational 53913
knows 53894
伙计 53885
sur@@ 53867
substantive 53866
+ 53844
委会 53838
脑@@ 53834
ahead 53821
退@@ 53796
面前 53764
writing 53763
THE 53761
丝 53756
各自 53752
hospital 53727
投入 53720
靠 53719
agricultural 53717
意大利 53694
楼 53681
ely 53678
signal 53678
展开 53669
Thank 53667
制作 53649
remained 53640
击 53630
fair 53625
基地 53621
感染 53621
achieving 53619
星期 53603
Li@@ 53583
行使 53568
遭到 53559
古巴 53547
上诉 53546
年代 53542
文章 53512
设置 53483
治理 53479
科技 53477
Su@@ 53467
液 53458
comments 53449
export 53441
石油 53419
playing 53418
家伙 53379
gotta 53376
Implementation 53371
Summit 53359
paragraphs 53330
dy 53310
detailed 53303
UNEP 53301
凯@@ 53297
AT@@ 53296
糖 53285
心理 53279
informal 53272
经营 53272
traffic 53264
priorities 53246
ology 53245
ade 53228
结婚 53226
高级别 53220
UNCTAD 53211
查@@ 53211
坏 53208
然 53192
establishing 53155
乱 53140
agency 53138
finance 53111
compensation 53110
yl@@ 53095
忙 53089
learned 53058
determine 53053
element 53053
responsibilities 53049
affairs 53032
后果 53031
tic@@ 53029
studied 53020
与会者 53015
50@@ 52997
独@@ 52994
根 52979
开发署 52978
所作 52971
_ 52969
search 52962
ders 52958
highly 52956
捐款 52938
degree 52934
并@@ 52923
enterprise 52911
placed 52911
etc 52908
植物 52873
晚 52863
上面 52861
invited 52853
aged 52830
partnership 52822
研讨会 52809
象 52806
私营部门 52805
sharing 52800
couple 52798
marriage 52780
亲爱 52775
cu@@ 52758
acting 52673
实质性 52673
causes 52668
日益 52662
conclusion 52660
See 52626
第六 52608
actors 52599
ion 52575
daughter 52509
教师 52498
房@@ 52489
命 52485
border 52483
published 52479
张 52474
listen 52463
permanent 52462
卫星 52454
看法 52444
o-@@ 52442
查 52433
资格 52412
actual 52411
刚 52397
CO@@ 52393
components 52392
麦@@ 52379
zone 52372
12@@ 52362
worth 52358
到@@ 52357
班 52350
married 52343
continuing 52338
角度 52334
河@@ 52326
兵 52320
政@@ 52310
安装 52303
甲@@ 52259
write 52240
对不起 52211
adopt 52195
terrorist 52172
ong@@ 52146
guess 52137
希@@ 52109
建@@ 52108
earth 52094
file 52082
sufficient 52074
quickly 52040
sed 52031
ok@@ 52012
resulting 52005
污染 52005
ach@@ 52003
或是 51995
ig@@ 51986
.1 51982
规模 51982
moving 51979
平台 51974
proceedings 51972
打电话 51947
Be@@ 51941
温@@ 51934
Goals 51928
payment 51919
long-term 51916
这位 51873
金属 51849
第三@@ 51848
Uh 51845
closely 51841
目 51840
located 51810
底 51789
A. 51784
书@@ 51768
despite 51751
运@@ 51745
病人 51719
sen@@ 51709
uc@@ 51698
setting 51696
分享 51667
survey 51657
武装 51644
concrete 51639
那种 51608
距离 51605
坐 51591
collection 51572
选@@ 51572
工艺 51554
显著 51549
手术 51545
failure 51532
Furthermore 51530
弗@@ 51529
save 51526
addressing 51525
冰@@ 51507
因@@ 51462
ines 51459
货 51459
专家组 51455
ethnic 51440
launched 51431
ological 51414
初步 51393
ms 51383
chief 51381
研究所 51375
测量 51374
现@@ 51341
个@@ 51280
自动 51279
pu@@ 51276
box 51250
cities 51250
换@@ 51248
atic 51246
ize 51235
France 51199
capacity-building 51199
赛@@ 51186
card 51161
几年 51142
异@@ 51141
independence 51111
版 51111
值得 51109
世 51108
dad 51083
features 51060
节@@ 51059
debate 51054
随@@ 51051
leaving 51000
Pacific 50987
des 50949
shit 50933
早@@ 50933
acid 50905
prison 50902
产@@ 50885
Education 50881
东 50877
monitor 50866
entry 50861
近@@ 50858
generation 50854
sales 50827
脚 50822
drink 50788
被@@ 50763
外部 50762
Force 50755
巴西 50746
空 50743
cre@@ 50741
延长 50728
disaster 50725
杰@@ 50724
返回 50711
worry 50704
torture 50688
混合 50649
套 50641
AN@@ 50622
ess 50619
关 50616
played 50603
John 50597
藏 50568
诺 50561
追@@ 50535
食@@ 50514
常驻 50512
Section 50505
突然 50488
嗨 50478
细@@ 50478
encouraged 50477
back@@ 50459
两种 50456
墨西哥 50443
consultation 50419
Afghanistan 50403
Children 50373
40@@ 50357
列@@ 50354
就要 50346
重建 50330
ities 50327
2.@@ 50283
已@@ 50244
待遇 50244
har@@ 50219
诉讼 50204
绝@@ 50189
original 50183
等@@ 50163
销 50158
stock 50157
集 50156
center 50146
ash 50141
nor 50127
那儿 50127
temporary 50104
hair 50099
Bar@@ 50089
boys 50075
forest 50049
农@@ 50029
领@@ 50000
layer 49988
吸引 49965
multi@@ 49941
centre 49935
全世界 49929
活 49917
阻止 49912
planned 49878
赞赏 49873
Foreign 49871
睡 49871
箱 49858
Those 49856
drugs 49856
尽 49852
feeling 49838
巴基斯坦 49817
kept 49806
代 49798
外地 49772
IV 49766
互@@ 49766
副@@ 49748
指@@ 49747
agree 49743
制裁 49737
欧@@ 49695
location 49682
击@@ 49677
respectively 49672
运用 49654
waiting 49648
职责 49633
国际公约 49631
simply 49630
bro@@ 49617
release 49602
ke@@ 49601
警方 49594
Mon@@ 49593
四个 49589
常 49586
minute 49568
营 49568
埃及 49543
ash@@ 49534
books 49515
Great 49511
用途 49484
普通 49473
分布 49448
私@@ 49430
社会@@ 49412
army 49399
赛 49394
胡@@ 49391
co-@@ 49388
多样性 49357
有所 49354
平 49353
轮@@ 49346
ass@@ 49339
蒙@@ 49321
lie 49320
术 49309
q@@ 49290
侵害 49276
额外 49258
2,@@ 49255
温度 49252
online 49237
捐助 49213
机场 49209
各级 49200
过渡 49191
托 49183
fr@@ 49182
白 49176
ast@@ 49159
a-@@ 49156
ler 49153
south 49152
mr 49151
Under 49150
只@@ 49126
结 49116
群 49116
绝对 49112
regime 49109
可能性 49094
Crime 49065
standing 49050
largest 49048
dec@@ 49039
娜 49037
初@@ 49024
voice 49018
piece 49017
病毒 49016
stuff 49008
麻烦 48981
停@@ 48973
索马里 48972
s-@@ 48969
follows 48935
倒@@ 48922
fin@@ 48918
更为 48900
ational 48899
考@@ 48898
鲁@@ 48898
即将 48889
族 48888
style 48886
aircraft 48885
approval 48854
创建 48834
TV 48819
自身 48819
factor 48807
ents 48776
网@@ 48773
配@@ 48768
食 48760
取消 48743
obtained 48725
forced 48710
ns 48710
请@@ 48703
富@@ 48690
看来 48688
职 48669
称为 48644
假 48643
university 48599
fuel 48596
numbers 48580
specialized 48575
3.@@ 48574
heavy 48569
男性 48565
ai@@ 48534
keeping 48527
费@@ 48526
库@@ 48522
有着 48504
萨 48482
照顾 48474
mom 48457
释放 48455
lose 48430
af@@ 48412
痛苦 48363
探@@ 48357
air@@ 48353
账户 48352
索 48326
指示 48324
OF 48310
并非 48307
民 48296
Germany 48293
closed 48280
ture 48268
讲@@ 48268
角色 48256
车辆 48236
speaking 48228
structures 48214
劳动 48214
respective 48181
consensus 48170
haven 48164
interested 48153
关心 48143
hand@@ 48129
Have 48081
太平洋 48060
ip@@ 48050
intended 48048
短@@ 48031
驻 48014
selected 48010
青@@ 48010
separate 48004
环 47999
保险 47994
dem@@ 47992
wi@@ 47976
executive 47972
肉 47965
poly@@ 47957
进步 47955
家人 47925
sts 47922
ER@@ 47919
包@@ 47883
何@@ 47880
参@@ 47873
risks 47870
正是 47863
ular 47862
除非 47856
厂 47828
dog 47817
reflected 47813
从来 47806
daily 47796
速 47796
nearly 47795
ver 47795
怀疑 47792
背@@ 47790
tw@@ 47787
旅游 47781
仅仅 47779
fac@@ 47777
单独 47766
句 47766
UNHCR 47763
福利 47756
doctor 47749
管理@@ 47734
intergovernmental 47694
上午 47677
筹备 47667
Civil 47649
courts 47648
perfect 47647
advanced 47635
afraid 47617
人权委员会 47600
哪儿 47596
老师 47590
prepare 47565
minimum 47556
voluntary 47546
democratic 47541
快乐 47530
stressed 47474
事业 47468
色@@ 47463
工作队 47451
tool 47449
pri@@ 47446
脸 47433
gives 47421
ta 47415
助理 47406
劳@@ 47405
士@@ 47391
consistent 47373
迷@@ 47362
王 47338
exactly 47328
数额 47323
便利 47320
concluded 47312
喷@@ 47309
pass 47299
ably 47287
卖 47277
满@@ 47273
eg@@ 47272
作品 47235
heat 47231
highest 47224
洗@@ 47213
商@@ 47184
国民 47182
此种 47180
pr@@ 47154
ned 47149
7.@@ 47146
世@@ 47138
800 47135
ir 47122
via 47122
ial 47107
回去 47095
塞 47087
jobs 47086
香@@ 47077
伤@@ 47067
伊朗 47065
campaign 47036
算法 47028
参数 47021
程 47021
数据@@ 47019
applicable 47015
AR@@ 47001
体现 46996
刚刚 46996
advance 46980
参考 46973
证实 46966
ot 46964
优势 46963
passed 46954
possibility 46952
计 46951
attacks 46925
教学 46925
筹资 46925
Iran 46918
俩 46900
firm 46888
increasingly 46872
completely 46870
汉@@ 46797
ya 46774
别的 46770
美国@@ 46766
货币 46763
consumption 46747
involving 46732
El@@ 46714
化合物 46713
夫人 46705
货@@ 46695
组@@ 46675
reducing 46662
gold 46613
details 46609
立 46595
地雷 46590
ping 46581
一张 46574
半 46545
RE@@ 46530
攸关 46528
紧张 46526
destruction 46518
总理 46506
pointed 46505
乐@@ 46503
打开 46501
,000 46500
emb@@ 46492
整体 46456
sit 46455
任择 46435
mer@@ 46434
下面 46391
失败 46390
造@@ 46377
够 46364
自我 46362
成就 46352
achievement 46304
hotel 46299
伦 46294
步 46283
nations 46282
例子 46277
spent 46275
策略 46275
picture 46274
未能 46272
进口 46262
救@@ 46254
着@@ 46254
交 46236
养@@ 46231
计算机 46229
干事 46226
线@@ 46223
video 46175
departments 46168
ret@@ 46157
班@@ 46145
Political 46131
accept 46131
fell 46128
修正 46119
version 46114
race 46108
形@@ 46108
快点 46102
north 46099
Moreover 46088
train 46078
有没有 46071
ana 46064
atory 46062
指数 46043
broad 46036
contains 46027
character 46012
appreciation 45983
settlement 45983
opened 45975
Un@@ 45967
看着 45955
ick 45953
mobile 45952
演@@ 45934
instrument 45929
科索沃 45912
governments 45905
memory 45905
伦敦 45897
道德 45860
containing 45848
燃料 45831
System 45802
哪些 45784
violation 45782
望 45778
投票 45774
em 45760
感@@ 45750
留下 45739
eye 45729
formal 45713
27@@ 45704
破@@ 45691
fun 45675
super@@ 45672
孔 45660
清 45649
否则 45632
ideas 45629
ue 45629
有限公司 45618
EC@@ 45611
Ma@@ 45597
95 45575
object 45554
课 45554
总体 45541
记@@ 45532
Man@@ 45518
alized 45510
obligation 45504
极 45504
shared 45502
page 45500
灯 45489
mutual 45442
skin 45423
提及 45419
CA@@ 45365
criteria 45362
联合王国 45353
reflect 45328
bs 45313
致@@ 45302
常常 45300
changing 45278
球@@ 45273
hurt 45259
阐述 45254
chapter 45246
土@@ 45221
雅@@ 45202
潜在 45200
消费 45187
alternative 45185
指南 45175
69 45174
fear 45140
IT@@ 45135
appeal 45134
手机 45124
骨 45093
ming 45080
ny 45069
衣 45053
南部 45041
声@@ 45037
ile 45031
供@@ 45024
approaches 45015
雷 45001
支@@ 44987
ball 44982
交通 44980
多数 44980
solutions 44974
recognition 44950
advantage 44949
join 44946
reading 44934
supposed 44906
眼@@ 44889
培养 44883
master 44877
做到 44867
actively 44852
ment@@ 44850
来到 44824
奖 44821
non@@ 44811
Environment 44810
cross 44806
stress 44783
边@@ 44775
trouble 44764
judges 44763
急@@ 44707
sions 44698
yl 44678
月份 44659
ni@@ 44655
其他人 44655
por@@ 44650
AS@@ 44638
断@@ 44616
hu@@ 44609
味 44601
periodic 44592
大型 44592
经济@@ 44566
往@@ 44564
Pl@@ 44559
popular 44552
台@@ 44548
begin 44530
Har@@ 44526
于@@ 44524
employees 44514
jurisdiction 44510
十 44506
high-@@ 44501
Mo@@ 44499
creating 44477
气候 44470
页 44470
丰富 44469
强烈 44469
建 44468
救济 44455
逮捕 44452
affect 44449
Most 44436
外交 44416
cycle 44403
西班牙 44395
add 44383
Lord 44382
widely 44382
有利于 44377
检察官 44377
分类 44341
这件 44339
法案 44337
坐在 44310
consequences 44299
蒂 44290
开发计划署 44276
plane 44271
--@@ 44269
像是 44264
投资者 44261
difficulties 44246
周 44232
空气 44219
严格 44210
bus 44206
索@@ 44190
土耳其 44185
ended 44182
听说 44180
cy@@ 44171
double 44168
一般性 44150
武装冲突 44117
夜 44112
诸如 44105
音 44104
kid 44103
options 44101
starting 44087
Her 44086
民众 44070
self 44067
72 44065
降@@ 44049
基因 44047
Australia 44036
expenditure 44030
4.@@ 43997
pre-@@ 43991
瑞@@ 43973
displaced 43969
某 43963
问@@ 43953
teachers 43910
之下 43892
9.@@ 43861
Joint 43846
ots 43827
accounts 43817
送@@ 43816
accountability 43803
tics 43799
奇@@ 43794
Child 43791
层面 43781
势 43764
毒@@ 43761
extended 43759
Police 43753
劳工 43752
commission 43742
六 43703
增进 43696
offered 43692
bar 43662
消费者 43653
records 43636
speech 43635
搞 43629
ann@@ 43626
现场 43619
所涉 43614
矿@@ 43594
announced 43578
st 43576
产业 43573
investigate 43566
of@@ 43562
候选人 43545
沉@@ 43533
link 43531
ens 43510
database 43509
节目 43507
Add.1 43491
信托 43478
ky 43467
交换 43460
More 43453
85 43438
Per@@ 43438
tors 43411
da 43404
质@@ 43400
工资 43396
agent 43391
Second 43390
博士 43380
output 43378
足@@ 43378
雇员 43370
Im@@ 43368
最低 43366
Inter@@ 43335
判决 43335
wind 43330
失踪 43324
mor@@ 43323
deployment 43312
owing 43294
不得不 43272
法治 43265
ched 43263
failed 43255
存@@ 43250
Caribbean 43245
嘛 43241
母@@ 43237
进来 43235
enter 43229
观 43204
minister 43203
任@@ 43195
满意 43187
发言人 43182
confidence 43181
专员 43173
Western 43164
birth 43161
aware 43141
engaged 43141
组成部分 43139
习惯 43134
服务@@ 43134
边界 43122
significantly 43105
ii 43100
争取 43100
你@@ 43099
8.@@ 43094
ner 43062
unique 43056
致 43049
sell 43035
guarantee 43032
Administration 43029
dinner 43013
不够 43010
definition 43008
choose 43007
举@@ 43006
C. 43000
所谓 42995
exist 42990
sites 42976
提 42949
ow 42939
whatever 42934
huge 42926
relief 42924
不利 42920
Headquarters 42901
合法 42901
害怕 42884
居住 42879
summer 42871
represented 42868
兴趣 42864
干预 42861
in-@@ 42860
旧 42860
teacher 42858
Latin 42848
easily 42835
做@@ 42827
北 42824
转让 42809
aff@@ 42800
website 42788
lin@@ 42766
ant@@ 42765
可靠 42760
exp@@ 42747
miss 42744
知 42742
networks 42725
注 42723
化学 42719
现金 42717
mat@@ 42715
男孩 42715
星@@ 42706
简@@ 42694
接近 42693
enhanced 42674
小姐 42673
家里 42667
procurement 42665
认真 42657
suitable 42654
气体 42640
监管 42640
存 42637
广告 42622
port 42610
泰@@ 42585
安保 42561
sti@@ 42552
Islamic 42538
任何人 42533
相反 42518
零@@ 42515
协作 42514
express 42512
multiple 42512
Mexico 42492
懂 42492
treaties 42481
越 42439
Congo 42417
Peace 42408
兹 42406
ane 42401
gun 42389
照 42382
latest 42374
Res@@ 42372
except 42368
上海 42366
mark 42364
于是 42358
土 42355
虐待 42350
恩@@ 42345
方便 42333
吃@@ 42313
联 42311
ou 42298
移@@ 42295
accepted 42279
brain 42278
perspective 42244
forget 42242
酒@@ 42231
B. 42224
取代 42193
wear 42186
委 42177
Middle 42169
sun 42163
推进 42161
ire 42155
三年 42148
dealing 42143
南非 42138
假@@ 42135
tically 42124
registration 42116
买@@ 42099
骨@@ 42089
叶 42076
紧@@ 42075
western 42064
unless 42029
ide 42021
drop 42018
科学家 41995
或@@ 41966
Federal 41962
For@@ 41960
sister 41953
主流 41940
我来 41933
carrying 41926
instance 41917
漂亮 41903
partner 41895
sal@@ 41882
射@@ 41879
残疾 41876
trend 41859
fer@@ 41852
timely 41845
射 41838
reviewed 41820
干什么 41814
Chief 41797
霍@@ 41778
helped 41771
color 41758
college 41753
store 41746
ching 41735
fu@@ 41731
yesterday 41719
图像 41709
elected 41707
micro@@ 41699
itation 41682
whom 41675
Asian 41674
供资 41670
secondary 41664
因而 41647
残@@ 41644
一半 41642
thanks 41631
事故 41623
安全@@ 41622
om 41611
sm@@ 41610
approximately 41579
99 41564
partnerships 41562
通报 41556
议员 41555
stable 41538
conflicts 41535
pain 41535
democracy 41522
青少年 41510
Tell 41487
婚姻 41477
强迫 41471
觉 41460
urgent 41449
邮@@ 41448
如今 41441
翻@@ 41441
推广 41411
进去 41411
moved 41410
her@@ 41409
immediate 41407
好好 41396
respond 41394
照@@ 41368
diseases 41354
滑@@ 41346
700 41344
audit 41344
guide 41342
river 41339
西方 41327
腿 41319
targets 41300
突出 41297
remaining 41296
不行 41290
查明 41282
卢旺达 41263
尝试 41255
负 41228
灾害 41211
ys 41201
借@@ 41182
tree 41180
ali@@ 41177
val@@ 41161
来看 41156
testing 41147
City 41140
广@@ 41135
secure 41121
radio 41115
痛 41108
优选 41097
乔@@ 41091
客 41081
dream 41078
不好 41066
kinds 41058
多种 41056
含量 41048
得以 41047
• 41046
ish@@ 41039
vehicles 41037
feet 41031
双边 41026
戴@@ 41026
PR@@ 41014
perhaps 40998
一套 40998
子女 40995
首次 40995
er-@@ 40986
heads 40980
enhancing 40975
草 40964
dly 40961
sky 40957
单元 40957
叙利亚 40948
总额 40933
volume 40924
呆 40917
carbon 40916
ack 40914
ase 40914
种族 40904
杯 40873
Association 40870
突@@ 40850
rapid 40847
结果表明 40846
差距 40827
准确 40822
fighting 40816
73 40798
treated 40793
gre@@ 40774
施@@ 40765
Par@@ 40752
很少 40751
合并 40750
proper 40733
ously 40728
主权 40717
corruption 40704
spread 40700
住@@ 40686
ised 40675
emerging 40674
岸 40664
ars 40661
EN@@ 40655
appear 40643
ose 40631
Syrian 40619
起草 40618
realize 40608
集体 40608
sanctions 40603
克斯 40589
脚@@ 40585
facing 40579
加工 40559
约翰 40549
stone 40544
替代 40542
Technology 40533
combined 40527
dark 40525
菜 40522
tasks 40509
观@@ 40506
loc@@ 40501
电子@@ 40494
成绩 40469
充满 40457
合适 40434
补@@ 40401
draw 40390
ships 40377
ok 40371
absence 40368
sort 40364
早期 40350
全球化 40346
阿 40326
requirement 40315
IP@@ 40313
执法 40297
今日 40295
首 40291
虫 40288
换 40286
listed 40279
British 40273
写@@ 40272
tional 40269
implications 40243
troops 40243
observed 40237
released 40237
scheme 40234
exploitation 40231
Qu@@ 40228
含有 40228
expect 40224
诊断 40208
cancer 40206
音@@ 40194
Sustainable 40175
marine 40171
龙 40159
ff@@ 40155
sol@@ 40151
杂@@ 40147
spend 40140
decide 40118
干嘛 40112
limit 40091
科威特 40081
Administrative 40074
连续 40073
ey 40070
150 40061
学家 40046
维也纳 40044
恶@@ 40038
抽@@ 40027
还@@ 40027
莉 40022
固定 40014
装备 39985
难以 39977
暴@@ 39968
ging 39956
透@@ 39941
公园 39940
逐步 39935
团结 39933
散@@ 39930
ain@@ 39921
终@@ 39911
faced 39906
gar@@ 39885
断 39884
有趣 39845
现行 39837
刚才 39827
explain 39826
grounds 39826
好处 39820
Persons 39813
ell 39808
fifth 39799
决心 39793
properties 39781
path 39780
寄@@ 39778
ished 39775
leader 39773
track 39763
hydro@@ 39760
付 39750
互联网 39747
submission 39746
toward 39734
television 39728
agriculture 39702
e.g. 39699
期限 39699
加勒比 39698
期待 39693
digital 39680
乌@@ 39678
社 39678
五年 39676
申诉 39675
周围 39668
密切 39663
俄罗斯联邦 39659
第二十@@ 39649
transparency 39645
village 39634
馆 39631
理想 39630
Its 39618
US@@ 39604
护@@ 39600
pan@@ 39582
98 39577
奥巴马 39569
减轻 39559
Bureau 39545
Ro@@ 39540
lu@@ 39538
取决于 39538
sets 39530
examination 39529
dangerous 39526
conferences 39517
pi@@ 39510
展示 39509
determination 39505
friendly 39504
朝 39504
relatively 39497
黑 39497
grow 39494
entered 39481
印@@ 39477
linked 39476
男女 39473
透明 39473
capacities 39447
Wait 39446
输入 39442
urged 39440
玛@@ 39435
Optional 39430
惩罚 39429
人力资源 39426
玩@@ 39426
期望 39425
爆炸 39423
尽可能 39413
lies 39412
talks 39412
出版 39410
vehicle 39396
英里 39396
去@@ 39390
reasonable 39388
息 39387
场所 39383
imp@@ 39377
酶 39376
粘@@ 39368
que 39367
杜@@ 39360
director 39355
ra 39350
服@@ 39336
eng@@ 39321
Hu@@ 39312
work@@ 39303
街 39297
配置 39287
共识 39283
calling 39269
nine 39269
names 39267
斗争 39259
毛 39256
spoke 39251
older 39248
乙@@ 39247
coffee 39246
sale 39236
建造 39230
开支 39229
即@@ 39226
Disarmament 39202
alism 39202
的确 39183
伟大 39175
顺@@ 39164
Pakistan 39161
Research 39153
recognize 39136
crucial 39126
逐渐 39126
倍 39125
ub@@ 39107
healthy 39103
后面 39095
Discrimination 39086
fuck 39082
huh 39081
佩@@ 39075
differences 39070
variety 39051
助@@ 39043
believed 39041
毁 39021
ther@@ 38996
UNFPA 38993
origin 38974
协调员 38973
长官 38970
秘密 38963
Annex 38957
官 38955
隐@@ 38940
district 38937
fo@@ 38935
background 38908
临床 38902
Chair 38897
des@@ 38893
multi-@@ 38888
所示 38888
卢@@ 38881
5.@@ 38876
到达 38874
回应 38861
accounting 38857
主持 38853
种族歧视 38849
plenary 38836
帮@@ 38828
student 38814
ly@@ 38789
出生 38783
74 38778
ear@@ 38767
圈 38761
由@@ 38759
existence 38738
深 38737
languages 38731
window 38712
服 38707
左@@ 38688
原 38681
electric 38673
没错 38672
hom@@ 38664
U.S. 38658
早上 38651
升 38642
少@@ 38635
composition 38627
west 38623
陈@@ 38615
纸 38609
留 38605
pick 38594
findings 38593
telling 38578
tur@@ 38575
团队 38565
Listen 38557
reaction 38554
计@@ 38552
跳@@ 38547
完善 38546
council 38526
regulation 38521
吸@@ 38505
雪@@ 38505
飞行 38490
famous 38487
各位 38487
更大 38485
migration 38474
victim 38472
野@@ 38457
Therefore 38447
掌握 38443
aren 38430
ox@@ 38427
Cuba 38426
拉丁美洲 38426
Sub@@ 38423
obtain 38420
bound 38413
provisional 38397
链 38391
judge 38378
otherwise 38375
动力 38371
pattern 38360
前往 38360
Another 38335
steel 38324
量@@ 38323
experiences 38302
Prevention 38291
重复 38289
star@@ 38279
civilians 38278
meaning 38267
ster 38253
较@@ 38242
ID@@ 38233
松@@ 38218
牛 38210
courses 38179
提醒 38175
久 38170
态 38167
= 38145
becoming 38145
烧@@ 38136
vision 38128
' 38123
indicate 38121
specifically 38113
备@@ 38110
seeking 38109
测@@ 38106
务@@ 38105
尽快 38093
现 38093
registered 38091
crazy 38086
ind@@ 38081
钢@@ 38062
Countries 38061
龙@@ 38044
赫@@ 38035
fying 38034
赋予 38032
ium 38030
小心 38030
our@@ 38028
24@@ 38023
语@@ 38016
维和 38012
CH@@ 37989
发射 37984
cer@@ 37983
受伤 37980
烟@@ 37974
排放 37969
深入 37924
中东 37920
est@@ 37919
willing 37917
ca@@ 37909
j 37901
soil 37898
瑞士 37890
ES@@ 37884
are@@ 37883
阻碍 37882
依赖 37830
枪@@ 37825
士兵 37822
storage 37817
采取措施 37814
观念 37812
法规 37810
east 37796
愿 37785
剥夺 37781
rel@@ 37776
公共@@ 37775
PO@@ 37766
居 37760
involvement 37754
终于 37742
笔 37728
stri@@ 37725
Min@@ 37723
等待 37719
草@@ 37713
中期 37697
伦@@ 37693
cul@@ 37688
防治 37681
他妈的 37673
form@@ 37656
bill 37651
120 37650
达尔富尔 37641
inv@@ 37627
日子 37621
expertise 37608
前景 37602
metal 37600
NGOs 37599
含 37586
部@@ 37564
web 37558
同一 37547
样子 37530
engineering 37522
每次 37516
donors 37514
Agenda 37513
headquarters 37503
quarter 37491
ty@@ 37491
模@@ 37491
提请 37484
maximum 37482
returned 37476
wood 37475
第二次 37475
Vienna 37466
enti@@ 37457
teams 37454
ists 37450
illicit 37449
异 37447
rain 37443
声称 37426
乳@@ 37424
怀@@ 37422
reforms 37412
牛@@ 37401
普 37397
Brazil 37387
touch 37375
selection 37371
必@@ 37371
spring 37365
效力 37362
全体会议 37360
没什么 37332
Based 37330
裁决 37330
recorded 37328
hy@@ 37325
提升 37322
gs 37319
199@@ 37295
controlled 37280
咖啡 37275
中有 37272
证人 37260
Ser@@ 37258
分发 37252
忘 37251
区@@ 37250
foundation 37242
Give 37227
Japanese 37214
Only 37204
约@@ 37204
Am@@ 37202
missing 37177
完整 37166
investors 37164
代理 37138
Tr@@ 37123
ends 37104
鸟 37094
reality 37093
UN 37091
警告 37089
seeing 37088
使@@ 37086
温 37082
frequency 37079
observations 37079
representation 37076
废物 37050
asking 37044
讲话 37037
cap@@ 37030
法令 37016
工发 37009
cont@@ 37007
ast 37003
刚果民主共和国 36992
confirmed 36986
刀 36982
为何 36977
令人@@ 36977
刺激 36973
折@@ 36973
担保 36972
害 36971
ths 36966
Labour 36961
瓦 36956
outstanding 36955
而已 36949
hate 36938
tim@@ 36934
拍 36933
workshops 36929
dance 36924
mode 36924
物品 36913
处@@ 36880
红 36880
关闭 36855
真实 36849
两次 36846
千 36843
block 36841
周期 36837
Me@@ 36835
6.@@ 36831
有个 36822
工厂 36818
输@@ 36817
哪@@ 36815
年轻人 36809
昨天 36806
species 36804
完@@ 36803
强大 36801
效应 36796
powerful 36795
blue 36785
assess 36783
bridge 36735
想象 36734
occupied 36727
付款 36725
运 36725
侧 36723
业@@ 36712
耐@@ 36712
strengthened 36707
thousands 36665
腐败 36665
summary 36663
extremely 36659
resulted 36659
加快 36658
最初 36656
96 36651
bri@@ 36638
国家一级 36635
ning 36633
步@@ 36628
自由@@ 36621
membership 36617
差@@ 36613
zed 36588
gain 36585
源@@ 36581
访 36571
raising 36544
defence 36543
explore 36543
ites 36537
片@@ 36534
弹 36529
emphasized 36525
了@@ 36514
Authority 36509
one-@@ 36502
appointed 36484
政治@@ 36477
200@@ 36470
3,@@ 36470
jiang 36436
tly 36430
glass 36428
certainly 36427
officer 36411
map 36409
connected 36406
det@@ 36401
Which 36386
forum 36382
patient 36376
透明度 36371
decision-making 36363
models 36359
遗@@ 36348
核查 36344
美丽 36340
season 36328
蛋白 36317
tered 36313
公务员 36303
ement 36302
bear 36296
mu@@ 36265
trading 36257
fit 36240
Further 36235
workshop 36228
易@@ 36223
appears 36215
Q 36210
独特 36207
mouth 36194
estimates 36192
notice 36171
颁布 36155
seemed 36153
百分之@@ 36152
technique 36142
male 36141
第四 36136
expansion 36122
分离 36113
低于 36111
finding 36110
容忍 36093
清洁 36088
60@@ 36079
allows 36076
Their 36073
给出 36071
罗马 36071
衣@@ 36068
1-@@ 36066
ped 36062
合作伙伴 36060
soldiers 36059
女童 36056
contain 36048
ur 36045
义 36042
ess@@ 36040
customers 36036
formation 36029
对待 35996
来文 35996
储存 35987
contracts 35983
危害 35982
Stop 35980
identification 35979
炎 35978
言@@ 35969
Officer 35961
London 35945
cal@@ 35945
融资 35945
career 35943
topic 35931
76 35915
是从 35903
handle 35884
82 35875
recruitment 35872
循环 35871
Lu@@ 35865
短 35856
农民 35854
以期 35840
integrity 35830
跟踪 35829
翻译 35827
becomes 35823
load 35823
Will 35810
除@@ 35807
TA@@ 35801
identity 35785
secret 35785
Coordination 35782
frame 35773
sive 35770
seriously 35767
年底 35761
技术@@ 35756
78 35755
lock 35743
vis@@ 35738
跳 35736
难民署 35727
应用程序 35725
Pre@@ 35706
某个 35705
ber 35697
forth 35694
宝贝 35691
国家@@ 35669
extend 35666
剥削 35660
能量 35656
bringing 35636
及@@ 35636
devices 35617
幅 35608
有用 35600
解决办法 35600
subregional 35580
RA@@ 35577
按@@ 35575
作者 35571
尽@@ 35567
evening 35560
便@@ 35559
AC@@ 35542
巴黎 35537
月@@ 35537
封@@ 35529
地震 35520
performed 35517
J 35511
grade 35508
stations 35501
relative 35498
激@@ 35496
Thus 35477
老板 35469
71 35461
阴@@ 35454
techniques 35453
具备 35451
considering 35448
offers 35426
暴力行为 35425
delay 35423
Finally 35402
driving 35396
接收 35396
participated 35375
analyzed 35364
彻底 35363
抓 35349
SO@@ 35337
以往 35337
aging 35321
业绩 35321
信心 35312
促使 35311
corporate 35306
注册 35301
ka 35286
bas@@ 35276
情报 35274
ff 35266
rehabilitation 35266
后勤 35266
input 35255
11@@ 35254
ick@@ 35251
禁@@ 35246
tests 35237
organs 35230
他人 35229
cos@@ 35213
gn@@ 35211
cas@@ 35208
墙 35203
previously 35201
engage 35193
length 35189
面积 35188
UNIDO 35180
correct 35175
index 35173
朝鲜 35170
审 35169
86 35167
动态 35167
bul@@ 35165
represents 35165
化学品 35159
cool 35158
种族主义 35157
fresh 35154
everybody 35152
solid 35149
SA@@ 35134
engagement 35134
修 35115
TH@@ 35109
namely 35108
外面 35106
association 35102
Lebanon 35100
star 35093
assessments 35082
speci@@ 35082
载有 35064
县 35051
thy 35050
3-@@ 35048
conclusions 35046
ours 35041
实 35031
默@@ 35023
sil@@ 35017
原来 35014
park 35012
candidates 35007
ency 35007
切实 35006
dynamic 35003
fixed 35003
plants 34997
structural 34991
地址 34989
人物 34985
表决 34984
category 34975
slow 34974
manage 34970
乐 34957
木 34951
my@@ 34950
替 34950
helping 34947
arm 34945
ran 34934
省@@ 34930
转变 34929
市@@ 34923
figures 34911
时刻 34911
biggest 34910
occupation 34907
升@@ 34898
代码 34892
果@@ 34892
sick 34878
lessons 34865
pat@@ 34864
Policy 34855
ger 34846
combination 34838
赢得 34830
Operations 34828
认可 34828
学会 34805
97 34798
emphasis 34784
思@@ 34776
att@@ 34755
ition 34754
coordinated 34752
Somalia 34750
鬼 34748
认@@ 34747
historical 34742
奇怪 34730
加上 34726
争议 34717
偷@@ 34716
中间 34705
weather 34699
消失 34699
defense 34688
赞扬 34681
movie 34680
introduction 34679
indeed 34676
portion 34674
iting 34672
ancient 34661
meant 34659
酌情 34659
备 34646
Hello 34639
Financial 34637
undertake 34625
acy 34617
somebody 34601
海地 34589
collective 34582
附属 34580
作业 34564
eliminate 34561
shape 34560
绿色 34560
Legal 34558
copy 34555
alive 34554
试 34544
increases 34532
大陆 34531
弄@@ 34531
threats 34516
消@@ 34512
clothes 34511
群岛 34507
Community 34498
funded 34491
sn@@ 34487
医@@ 34487
welcomes 34486
imposed 34474
ME@@ 34472
decrease 34471
资@@ 34460
负担 34454
Cor@@ 34447
clinical 34447
赢 34438
哈 34437
Figure 34433
spending 34433
88 34429
武@@ 34408
ine@@ 34401
charges 34374
世界银行 34373
ink 34371
Any 34366
喂 34364
津贴 34364
特设 34352
Strategy 34350
larger 34308
治@@ 34306
miles 34298
def@@ 34291
他会 34271
perform 34265
percentage 34263
innovation 34253
幸福 34251
down@@ 34242
ious 34235
表演 34224
类@@ 34220
希腊 34209
居@@ 34207
orders 34205
记 34180
人力 34179
拜托 34173
flight 34171
卷 34171
导 34167
杂志 34164
承@@ 34159
效益 34154
cooperate 34147
完美 34146
扩展 34141
将来 34130
Mc@@ 34124
制止 34123
au 34118
92 34117
碳 34117
medicine 34106
channel 34092
match 34092
ye@@ 34091
足 34089
类别 34081
Egypt 34053
cen@@ 34053
生存 34050
donor 34048
校@@ 34042
事务部 34039
圆@@ 34028
Draft 34026
根@@ 34011
abroad 34010
appointment 34010
友好 33998
arrested 33993
敏感 33991
technological 33984
religion 33979
ING 33976
distance 33969
康@@ 33969
微 33949
订正 33948
ishing 33937
83 33923
弹药 33923
棒 33917
anymore 33915
manager 33913
promise 33909
摘要 33904
Day 33895
挺 33887
wing 33879
aries 33870
ratio 33857
模拟 33851
述 33851
boss 33846
mandates 33846
婴儿 33846
语文 33842
顶@@ 33842
这场 33841
supports 33838
任期 33838
subsequent 33832
trends 33830
登@@ 33824
读@@ 33818
拟定 33812
theme 33810
ple 33808
北部 33808
believes 33799
row 33797
exports 33781
medium 33779
alize 33778
EU 33771
tru@@ 33764
画@@ 33760
straight 33758
咱们 33753
occurred 33749
考试 33745
87 33736
punishment 33736
command 33729
开心 33728
秘书 33724
Ap@@ 33721
颜色 33697
ail@@ 33690
receiving 33680
contributed 33677
ST@@ 33675
accident 33673
diplomatic 33672
当中 33672
corresponding 33663
造 33663
出售 33662
productive 33643
Cl@@ 33642
左右 33641
市民 33622
务 33620
amounts 33618
specified 33617
top@@ 33615
ban@@ 33585
animals 33583
rooms 33573
visits 33566
显@@ 33564
标 33562
校 33557
订@@ 33548
配合 33542
探索 33536
losses 33535
catch 33531
ser@@ 33531
丁@@ 33525
Dr. 33520
platform 33519
想到 33518
唱 33517
新型 33516
Ne@@ 33513
option 33513
勒@@ 33513
某种 33512
bal@@ 33511
Today 33509
head@@ 33509
jo@@ 33509
unable 33497
ap 33490
lived 33486
容 33481
执行局 33481
再见 33477
hum@@ 33475
examples 33470
谴责 33466
Sha@@ 33461
一道 33456
Te@@ 33451
ions 33446
vital 33440
hor@@ 33439
onic 33437
糟糕 33435
MO@@ 33433
ved 33433
识别 33430
有利 33426
粉 33398
maintained 33391
收 33383
思 33375
算@@ 33372
inclusion 33370
混@@ 33362
大使 33359
优化 33354
曲@@ 33351
sensitive 33350
completion 33349
持 33343
人生 33338
served 33337
招@@ 33335
元素 33332
delivered 33328
law@@ 33325
happens 33318
引发 33317
摇@@ 33317
Sorry 33305
bottom 33305
刚@@ 33305
arrest 33290
供应商 33285
利比里亚 33282
tea 33277
牙@@ 33272
荷兰 33265
named 33263
resistance 33263
secretary 33252
政 33249
statistical 33248
ji@@ 33245
high-level 33236
保存 33228
粗@@ 33226
支 33225
税@@ 33220
chain 33210
solve 33207
推出 33207
史@@ 33205
麻@@ 33197
vo@@ 33196
trip 33195
attempt 33188
收益 33184
绿@@ 33184
sought 33179
Thanks 33178
原理 33176
sel@@ 33162
enemy 33150
DNA 33148
这份 33148
hundred 33147
sign@@ 33147
province 33139
Hi 33127
底@@ 33123
900 33122
证书 33121
蓝@@ 33115
Table 33109
怪 33106
村 33096
prove 33091
agents 33086
拿@@ 33086
确@@ 33084
谈谈 33076
至@@ 33074
常设 33070
categories 33068
Russia 33060
mal@@ 33045
afternoon 33041
gap 33041
感兴趣 33039
responses 33035
护理 33022
盖 33022
斯特 33020
逃@@ 33003
坐@@ 32998
官@@ 32994
dry 32982
mer 32970
看上去 32963
大楼 32954
Dec@@ 32948
韩国 32946
attached 32938
怎么办 32935
找@@ 32933
ric@@ 32916
2-@@ 32915
ica 32908
主动 32901
非洲联盟 32892
雨 32888
No@@ 32881
休@@ 32877
守@@ 32872
char@@ 32867
strongly 32860
太太 32854
抓住 32850
capable 32849
dev@@ 32838
investigations 32838
flows 32837
doubt 32829
Space 32817
总结 32777
not@@ 32776
征@@ 32765
Shanghai 32753
田 32737
AP@@ 32735
li 32727
fly 32713
ha 32713
achievements 32703
一步 32700
sentence 32698
ls 32693
offences 32691
露@@ 32691
顶 32681
honour 32674
派遣 32667
蛋 32662
效 32651
易 32650
yuan 32617
sixth 32616
introduce 32614
represent 32610
不久 32597
树@@ 32597
81 32592
曼@@ 32590
participating 32579
聪明 32575
议题 32574
screen 32557
transmission 32551
桥 32551
inform 32545
导弹 32545
substantial 32534
conventions 32515
launch 32510
意外 32505
已有 32495
材 32495
潜力 32470
embodiment 32464
granted 32462
square 32455
sports 32447
酸@@ 32446
功@@ 32441
右@@ 32427
扎@@ 32413
沃@@ 32408
雇主 32408
CC@@ 32406
反恐 32405
磁@@ 32405
赞同 32402
融入 32398
racial 32386
era 32381
云@@ 32380
managed 32374
围@@ 32356
Control 32354
owned 32354
94 32353
测定 32352
法律@@ 32347
Technical 32338
联络 32337
治 32333
onto 32329
ening 32324
Elimination 32313
facts 32298
菌 32289
preventing 32285
ending 32280
补救 32276
severe 32271
Mi@@ 32269
丽@@ 32268
次@@ 32263
broken 32262
政党 32245
补偿 32240
Every 32235
ing-@@ 32235
declaration 32226
emissions 32219
发起 32215
scene 32213
ES 32198
Sea 32193
至于 32193
首席 32193
实验室 32192
IT 32183
克服 32182
处罚 32182
秩序 32181
八 32172
ce 32171
乱@@ 32167
rock 32165
uring 32156
原子能 32152
通讯 32152
ath@@ 32151
VI 32147
tical 32143
工程处 32141
dic@@ 32140
availability 32139
buildings 32134
CR@@ 32133
脆弱 32130
Field 32128
refugee 32117
镜 32113
client 32112
那时 32112
fied 32101
behavior 32094
切 32089
奥 32086
weak 32080
怕 32069
binding 32068
bearing 32053
工作@@ 32043
inc@@ 32033
fil@@ 32032
海关 32029
劳动力 32025
注重 32005
ently 32003
闪@@ 32001
93 31999
trac@@ 31998
史 31998
思考 31997
links 31996
上文 31996
attended 31991
涵盖 31987
ges 31985
飞 31978
ER 31977
gross 31969
生长 31955
thereby 31952
ID 31951
ju@@ 31948
84 31940
Would 31940
友 31935
protected 31930
形势 31918
cars 31911
med 31904
手册 31901
91 31895
detail 31890
Italy 31881
跨国 31877
欧元 31876
本来 31871
highlighted 31867
fication 31864
outer 31864
调动 31861
层@@ 31856
Earth 31851
很难 31849
documentation 31840
争端 31839
留在 31839
软@@ 31838
IS 31829
餐 31828
Three 31823
Jesus 31818
plate 31817
与其 31815
governmental 31810
银@@ 31807
currency 31802
展@@ 31800
妇女地位 31799
余@@ 31793
games 31783
恶化 31778
视频 31773
combating 31771
dri@@ 31768
图书馆 31759
忘记 31759
powers 31758
Training 31752
ll 31750
阻@@ 31750
coll@@ 31749
neither 31715
coverage 31695
巩固 31693
Rules 31689
采@@ 31685
家庭暴力 31681
outcomes 31680
排 31664
animal 31650
限 31649
杆 31642
tures 31640
宝@@ 31601
foot 31596
卖@@ 31580
答案 31567
出于 31565
控 31561
标志 31560
pilot 31559
ne 31556
恐怖 31556
假设 31537
盖@@ 31529
beat 31526
环境署 31521
机器 31516
那边 31515
arm@@ 31514
aims 31512
excellent 31506
post-@@ 31491
醒 31490
constitute 31489
休息 31489
信贷 31480
弹@@ 31476
服务器 31472
做好 31470
抓@@ 31469
protecting 31465
太阳 31459
体育 31456
interpretation 31452
Mrs. 31450
缺陷 31450
佛@@ 31447
manufacturing 31442
sold 31440
礼物 31435
Web 31425
maintaining 31421
触@@ 31417
规@@ 31404
explained 31401
satellite 31393
湾 31387
hi 31386
Each 31379
preferably 31362
含@@ 31359
worldwide 31350
五个 31350
意愿 31348
ination 31343
Fe@@ 31339
display 31337
numerous 31335
remote 31330
惊@@ 31324
七 31322
tourism 31321
Kosovo 31318
确立 31317
bag 31315
Congress 31312
Lo@@ 31306
GDP 31300
ey@@ 31299
conventional 31293
expand 31282
衡量 31268
哥 31255
元@@ 31250
妨碍 31250
情绪 31246
液@@ 31245
inspection 31243
complaints 31241
主张 31241
纸@@ 31231
oral 31225
男@@ 31225
著名 31206
大小 31205
谢@@ 31205
lady 31201
刑法 31200
controls 31198
登 31191
并未 31189
中国@@ 31188
ication 31185
arrived 31184
公路 31177
现状 31171
仪 31163
preparing 31162
la 31146
甘@@ 31146
supplies 31140
得出 31140
Paris 31123
worse 31122
internationally 31120
同事 31118
船@@ 31117
耶和华 31112
从未 31109
弱 31109
Sir 31094
Gender 31081
regulatory 31081
静@@ 31076
Br@@ 31074
mm 31070
俱乐部 31062
要素 31059
与此同时 31053
终止 31052
institution 31050
encourages 31049
削减 31048
authorized 31042
制备 31041
79 31040
经理 31028
蒂@@ 31027
OHCHR 31024
Assistance 31019
sul@@ 31019
死刑 31017
梦 31010
caught 30997
头发 30994
Or@@ 30993
戴 30975
彼此 30969
Bi@@ 30944
始终 30943
泰国 30942
新闻@@ 30941
pres@@ 30936
停 30917
不少 30913
finished 30903
阅读 30899
kers 30895
加速 30885
随时 30876
论文 30862
oriented 30861
本地 30859
oring 30855
wine 30855
250 30852
受害人 30844
payments 30843
gate 30841
位@@ 30839
穿@@ 30837
lab@@ 30836
boat 30830
系列 30829
典型 30826
委员 30815
监@@ 30813
Year 30811
industries 30808
公里 30806
greatest 30798
角@@ 30798
functional 30796
丝@@ 30796
CD 30787
办@@ 30782
管理局 30773
Framework 30771
百 30770
AND 30750
概述 30749
Members 30742
ory 30732
文明 30730
夜@@ 30716
ums 30704
song 30702
joined 30700
wrote 30700
organizational 30693
organic 30692
land@@ 30689
federal 30686
southern 30684
江@@ 30681
任意 30680
presentation 30667
ownership 30661
interesting 30659
drawing 30657
滚@@ 30651
利比亚 30638
suffering 30633
行政@@ 30633
hole 30631
灵@@ 30628
宗 30626
讨厌 30613
transportation 30603
叶@@ 30602
mi@@ 30600
covering 30594
continuous 30593
suggest 30564
employed 30563
境 30550
信仰 30544
全体 30533
国籍 30533
warm 30524
EC 30518
considerable 30516
仲裁 30512
rising 30511
国会 30510
国王 30509
示范 30505
Recalling 30496
drawn 30491
冷 30486
航空 30484
S. 30475
ame 30471
洋@@ 30469
善@@ 30468
询问 30467
灵 30466
季 30462
录@@ 30462
Food 30461
significance 30453
rest@@ 30440
pul@@ 30439
pollution 30434
案例 30433
sovereignty 30432
添加 30419
穆@@ 30416
stopped 30414
off@@ 30402
批评 30400
mos@@ 30397
闭@@ 30391
朱@@ 30390
纤维 30390
letters 30379
ony 30379
预防犯罪 30368
排除 30364
华盛顿 30358
COP 30354
algorithm 30353
dollar 30350
硬@@ 30345
证@@ 30336
pa@@ 30333
bought 30332
Before 30315
充@@ 30312
fur@@ 30309
小孩 30303
loved 30299
亮 30296
设法 30295
feature 30291
西部 30290
高专 30289
贵 30286
胜@@ 30278
advisory 30272
DC 30271
Trust 30271
美利坚合众国 30266
井 30254
lying 30252
As@@ 30244
持久 30243
摩@@ 30237
剧 30231
挪威 30231
Kuwait 30229
有机 30229
藏@@ 30227
panel 30215
名称 30202
parameters 30197
D. 30190
experienced 30190
成分 30190
Requests 30182
thousand 30181
人民@@ 30177
customs 30176
乌克兰 30175
知@@ 30175
婚 30170
greatly 30155
所载 30151
管辖 30144
don@@ 30142
liquid 30140
世界@@ 30140
本人 30138
faith 30128
接着 30121
alleged 30115
镇 30111
自从 30100
几天 30093
演 30080
码 30076
传 30072
ingly 30070
示 30063
Experts 30059
皮肤 30053
hearing 30048
iti@@ 30024
免@@ 30023
列出 30022
桑@@ 30020
spokesman 30018
胶@@ 30013
89 30008
investments 30008
targeted 30008
Cultural 29989
商业@@ 29981
高于 29975
营养 29973
可行 29962
leaves 29959
latter 29958
putting 29955
严@@ 29947
西亚 29945
killing 29941
AL@@ 29940
感受 29938
许可 29937
国外 29936
维 29935
principal 29929
度@@ 29926
fill 29923
territories 29923
强度 29918
sitting 29910
wa@@ 29902
resolve 29900
输出 29887
姆@@ 29882
lay 29877
hoped 29874
evaluate 29865
庆祝 29863
交给 29858
优@@ 29857
flu@@ 29853
cop@@ 29849
unemployment 29847
细节 29846
加沙 29836
洞 29835
说法 29835
1989 29831
serving 29826
户 29826
革命 29818
Despite 29805
none 29802
trees 29799
尸体 29799
铁 29798
网上 29796
搞@@ 29791
package 29787
accused 29782
valuable 29776
丁 29776
吨 29771
ited 29764
曲 29751
茶 29748
sec@@ 29741
ah@@ 29737
福 29731
虚@@ 29727
compound 29721
形象 29717
low@@ 29714
presents 29714
死亡率 29714
Over 29695
warning 29694
获@@ 29689
union 29681
ax@@ 29680
busy 29675
sun@@ 29659
多么 29639
出版物 29632
academic 29625
阿根廷 29621
一体化 29612
lit@@ 29609
会议室 29604
辛@@ 29603
fault 29599
ordinary 29599
一块 29591
吸收 29589
5,@@ 29586
satisfaction 29575
储@@ 29571
run@@ 29566
先进 29561
yours 29560
案文 29559
inal 29556
创@@ 29554
帮忙 29535
人群 29533
ily 29531
咨 29531
该项 29528
影 29525
沙 29524
shop 29523
决@@ 29522
migrants 29521
decades 29504
squ@@ 29502
东帝汶 29499
minority 29494
战斗 29477
多次 29474
云 29472
ains 29471
ole 29469
天气 29463
融合 29452
房屋 29449
rose 29447
populations 29442
impossible 29439
David 29433
设想 29433
pur@@ 29430
案@@ 29429
filled 29428
流程 29413
ED 29403
客人 29400
sweet 29390
有时候 29388
proved 29387
mainland 29379
Third 29377
版本 29368
bon@@ 29367
inf@@ 29356
生殖 29352
quick 29351
convention 29346
散 29345
incident 29338
Once 29336
不必 29335
情形 29331
金融@@ 29331
managers 29329
murder 29329
灰@@ 29322
合成 29319
生成 29318
uni@@ 29311
watching 29301
可爱 29299
嘴 29294
formulation 29291
penalty 29289
齐@@ 29289
elling 29288
人道主义法 29288
demands 29286
alk@@ 29285
财富 29275
区别 29272
seat 29268
primarily 29264
tes 29258
浮@@ 29254
海外 29248
objects 29245
监禁 29242
湖 29225
researchers 29224
菲律宾 29218
实例 29217
怪@@ 29211
・ 29209
出发 29204
格式 29203
restrictions 29202
拖@@ 29197
danger 29189
但@@ 29187
low-@@ 29185
Bu@@ 29169
Britain 29166
告知 29164
Be 29155
competent 29155
印度尼西亚 29153
programs 29123
Nor@@ 29112
PA 29107
fat 29106
前面 29104
喝@@ 29098
ft 29093
appeared 29086
spot 29080
understood 29076
4,@@ 29070
ect 29067
han@@ 29059
inclusive 29046
教育@@ 29045
tion@@ 29034
应付 29033
举 29028
consent 29024
pending 29022
sustained 29022
SP@@ 29019
瑞典 29014
会计 29011
trained 28999
母 28993
客@@ 28974
two-@@ 28970
被告 28965
联合会 28957
i.e. 28951
successfully 28949
any@@ 28947
stat@@ 28945
报纸 28944
苦@@ 28940
四年 28939
陆@@ 28929
Weapons 28915
hal@@ 28914
Indonesia 28910
PC 28909
zing 28905
伊斯兰 28896
club 28883
职务 28881
审理 28875
constitutional 28868
firms 28861
~ 28851
Prime 28845
大概 28834
癌 28829
ghts 28796
na 28793
新西兰 28788
aking 28786
tan@@ 28783
主席团 28780
Turkey 28773
盛@@ 28770
与@@ 28760
置 28759
追求 28728
小型 28726
梦想 28725
师@@ 28718
猫 28710
鸡 28710
bre@@ 28709
所说 28708
beijing 28680
eng 28677
主意 28677
迹 28677
scientists 28674
assembly 28662
Both 28657
German 28654
降 28647
extensive 28642
customer 28640
allegations 28615
realization 28596
资 28596
成长 28590
mortality 28587
缺@@ 28585
deliver 28580
饼 28575
Peacekeeping 28566
rent 28566
书面 28565
extension 28561
活性 28560
considers 28557
5-@@ 28554
可怕 28551
品牌 28541
流行 28539
examine 28535
检@@ 28534
duties 28533
ces 28530
响 28526
准@@ 28522
comp@@ 28519
什 28517
准 28517
品@@ 28516
菲@@ 28515
失业 28512
Palestine 28505
歌@@ 28503
We@@ 28502
信息@@ 28502
osis 28467
关联 28460
Gaza 28458
会见 28458
wave 28455
Gr@@ 28454
stupid 28442
Friday 28439
norms 28438
横@@ 28426
吁请 28423
Several 28420
globalization 28413
freedoms 28410
diversity 28402
FI@@ 28394
待@@ 28390
treat 28388
pool 28386
适@@ 28381
EL@@ 28369
Spain 28361
ple@@ 28347
果 28345
intelligence 28341
记忆 28327
Rwanda 28323
倾向 28322
洛 28320
proportion 28309
鞋 28305
议事规则 28300
reproductive 28299
Parliament 28279
卫生@@ 28278
ba 28277
minorities 28275
biological 28274
共享 28273
pursue 28272
款项 28271
rob@@ 28270
Mor@@ 28265
怀孕 28265
operate 28262
互动 28262
制品 28261
未经 28250
updated 28249
园 28246
鱼@@ 28245
houses 28239
experiment 28224
hey 28222
自然资源 28216
CD@@ 28214
moral 28213
C.3 28211
难道 28210
Ge@@ 28209
间@@ 28207
soft 28202
cat@@ 28200
PL@@ 28196
顺利 28189
推行 28184
人才 28178
响应 28171
businesses 28168
count 28166
紧 28163
broke 28157
chairman 28155
engine 28155
汇@@ 28154
suit 28153
哥伦比亚 28152
所在 28151
mid@@ 28150
realized 28149
负责人 28145
电路 28141
functioning 28140
ist@@ 28138
徒 28133
showing 28132
世界各地 28130
遗憾 28129
largely 28126
Monday 28119
歌 28118
papers 28115
破 28113
保险@@ 28111
angle 28106
urges 28089
laid 28082
尚 28079
一段 28072
stream 28071
transparent 28063
厚 28063
该死 28059
expenses 28054
真相 28053
军事@@ 28047
对方 28045
界定 28044
contributing 28039
九 28037
properly 28036
seventh 28034
extra 28030
聚 28016
共同体 28010
ately 28006
永@@ 28006
Territory 28003
次级 27999
评@@ 27998
akes 27994
昨晚 27994
indicates 27993
双 27989
武装部队 27987
decline 27986
offence 27985
Mer@@ 27983
ier 27983
课@@ 27983
careful 27964
第二个 27961
宽 27959
ids 27957
stood 27953
澄清 27937
缺少 27937
consumer 27934
近年来 27931
就此 27923
神经 27916
依靠 27908
密 27906
强化 27906
Mu@@ 27903
zhou 27898
能否 27898
Ca@@ 27880
坚@@ 27875
接下来 27874
path@@ 27872
proof 27870
remove 27867
板@@ 27862
tom@@ 27855
耶@@ 27855
另一方面 27853
ratification 27851
两名 27846
在线 27846
Red 27843
印 27841
declared 27828
小说 27828
fruit 27825
批 27824
harm 27821
Em@@ 27805
ham 27804
wishes 27804
族裔 27793
搜索 27788
electoral 27781
extreme 27779
PC@@ 27777
ride 27777
selling 27776
失 27773
pull 27770
念 27763
工会 27762
重返 27762
observers 27755
职@@ 27749
distributed 27735
TS 27728
entity 27725
风格 27718
suffered 27708
reliable 27697
purchase 27695
print 27693
p.m. 27692
residents 27692
charged 27686
patterns 27686
凝@@ 27675
共有 27674
smaller 27668
^ 27661
退休 27661
regularly 27653
身边 27652
Project 27645
fishing 27645
和解 27644
文本 27639
短期 27634
律 27629
姑娘 27626
公共部门 27620
实在 27614
信息技术 27603
洗 27599
抗 27596
团@@ 27586
thematic 27582
夫@@ 27581
敌人 27579
intention 27577
drinking 27575
暂时 27566
decade 27562
暗@@ 27559
scheduled 27554
拟 27554
保 27553
正义 27551
固@@ 27545
finish 27544
bing 27539
阁下 27539
谈@@ 27526
积@@ 27524
产出 27517
象@@ 27512
territorial 27503
以此 27493
判断 27492
荒漠化 27489
mostly 27488
Room 27478
profit 27477
股@@ 27475
1988 27474
老年人 27473
种@@ 27460
welfare 27459
岩 27453
许@@ 27448
ets 27445
shift 27445
矿 27440
会谈 27436
producing 27432
推迟 27425
fiscal 27421
ices 27418
thesis 27414
House 27411
路上 27409
动作 27404
纪念 27404
机械 27401
encouraging 27400
competitive 27392
red@@ 27392
本书 27381
ek 27379
iron 27370
验证 27368
不幸 27367
领袖 27365
Islands 27356
Ste@@ 27352
root 27349
庇护 27349
一边 27348
closer 27338
governing 27334
可用 27323
ays 27322
Col@@ 27307
小岛屿 27307
Do@@ 27289
过度 27289
捐助者 27279
import 27275
Al 27264
eating 27262
Pos@@ 27248
众多 27243
Sp@@ 27235
本次 27235
函数 27233
阳@@ 27231
利率 27227
依@@ 27221
claimed 27219
精神@@ 27219
解决方案 27212
generated 27208
ov@@ 27201
为期 27188
twice 27185
亲 27185
attend 27177
opposition 27170
现代化 27169
Note 27168
Ministers 27167
designated 27164
allocation 27161
展 27161
proliferation 27156
burden 27148
enabling 27138
减 27134
英文 27133
mountain 27132
齐 27131
innovative 27126
-related 27123
systematic 27122
C.5 27108
存储 27102
3cH202020 27101
猜 27101
估计数 27085
aspect 27083
cho@@ 27078
hel@@ 27077
medi@@ 27076
nationality 27064
发放 27063
目@@ 27052
雨@@ 27049
驱动 27040
till 27039
丽 27037
覆盖 27031
粉@@ 27025
Deputy 27024
放松 27021
tation 27019
advantages 27018
尤@@ 27012
Through 27010
rapidly 27008
钱@@ 27008
Mal@@ 27007
应急 27007
哭 27004
约会 27004
Jo@@ 27000
湖@@ 26998
ys@@ 26995
inner 26987
胜利 26987
homes 26984
续 26983
耳@@ 26974
废@@ 26967
prof@@ 26966
committees 26965
的@@ 26956
initiated 26951
refer 26939
舞 26939
shut 26933
毒 26911
经济体 26893
Her@@ 26887
comply 26882
受益 26881
110 26879
地面 26879
随 26874
circuit 26862
amendments 26859
adjustment 26841
用品 26837
巨@@ 26836
稀@@ 26820
俄@@ 26817
AM@@ 26813
injury 26811
促请 26806
名义 26802
生态 26802
gener@@ 26800
reaching 26800
烟 26800
shoot 26797
MS 26786
programming 26785
影@@ 26784
anyway 26782
行预 26779
利润 26770
梦@@ 26768
motion 26764
修正案 26764
袋 26760
mail 26759
沟通 26757
allowing 26752
Following 26750
空缺 26749
害@@ 26747
堂 26743
legitimate 26741
ace 26735
例@@ 26732
另@@ 26723
rice 26721
comment 26715
well-@@ 26713
才@@ 26707
扫@@ 26706
游 26704
环境@@ 26697
schedule 26689
戈@@ 26689
telephone 26688
fy 26687
不论 26681
funny 26679
补贴 26673
alizing 26662
sounds 26661
deeply 26660
啥 26660
浓度 26656
患 26653
刻 26651
实地 26650
stick 26646
朝@@ 26643
插@@ 26642
肉@@ 26642
韦@@ 26636
asset 26633
提名 26626
tis 26624
方针 26622
江 26619
Obama 26613
频率 26613
coal 26607
MI@@ 26600
舞@@ 26596
塞拉利昂 26595
田@@ 26584
pose 26581
sha@@ 26581
持@@ 26579
Population 26577
jointly 26573
ga@@ 26571
Pr@@ 26566
locations 26566
driven 26555
preliminary 26553
拿到 26553
Nothing 26550
拨款 26546
轴 26536
锁 26534
So@@ 26525
sample 26525
生物@@ 26517
add@@ 26515
红色 26515
Ber@@ 26514
farmers 26514
悬@@ 26513
控@@ 26508
论述 26507
赞成 26506
capabilities 26504
繁荣 26504
增 26495
检验 26491
Sam@@ 26488
flowers 26486
奖@@ 26485
IC 26482
chemicals 26482
控制@@ 26482
transactions 26474
ners 26471
obvious 26471
需@@ 26471
胆@@ 26459
Part 26454
grave 26448
盐 26448
香 26446
War 26444
际 26441
谨 26432
band 26431
assessed 26430
disasters 26429
迟@@ 26427
过境 26426
bone 26423
代价 26417
feed 26412
dress 26409
expenditures 26407
mining 26405
belief 26402
酯 26401
唐@@ 26396
edge 26395
航@@ 26392
针 26391
tro@@ 26390
ink@@ 26386
顾客 26386
Ireland 26379
屋 26378
罪@@ 26374
驱逐 26373
sor@@ 26364
季度 26364
论@@ 26360
成熟 26354
gy 26348
秒 26347
read@@ 26343
rely 26343
Darfur 26338
moon 26338
缩@@ 26335
Jack 26325
equity 26322
mines 26322
队伍 26309
accurate 26286
elimination 26286
totally 26286
极大 26281
PA@@ 26280
Nuclear 26278
expanded 26268
fre@@ 26256
prosecution 26256
人人 26248
lawyer 26241
杰克 26240
城@@ 26236
支援 26235
杀@@ 26229
Zealand 26225
virus 26221
编 26218
Sierra 26212
ris@@ 26212
后者 26212
server 26207
临@@ 26204
吉 26204
publication 26202
之内 26193
宗旨 26192
tives 26187
update 26187
endorsed 26180
carefully 26173
第四@@ 26170
plays 26152
coordinate 26151
relationships 26151
shouldn 26148
ef@@ 26143
dispute 26141
记住 26140
告@@ 26138
纯@@ 26138
Rec@@ 26134
airport 26128
ric 26128
Yet 26123
腔 26121
礼 26120
扬 26116
附@@ 26112
Mat@@ 26105
凡 26102
examined 26097
mel@@ 26093
转换 26092
files 26089
labor 26085
埃塞俄比亚 26080
affecting 26077
婚@@ 26074
对付 26073
da@@ 26072
preferred 26068
遵循 26067
push 26065
小学 26064
cha@@ 26062
混蛋 26061
炉 26060
Switzerland 26056
occur 26056
各地 26056
睡觉 26054
零 26054
美好 26053
phot@@ 26052
sy 26042
ws 26041
directed 26039
northern 26038
地带 26035
Washington 26028
sle@@ 26027
守 26027
开发@@ 26025
overcome 26022
visited 26020
constant 26015
股票 26005
ered 26004
tin 26004
ab 25993
signs 25992
园@@ 25988
判@@ 25986
恨 25980
ams 25976
noise 25971
ep 25960
ros@@ 25960
savings 25960
批@@ 25960
谱 25958
Last 25947
辐射 25942
Bur@@ 25936
抑制 25935
伯 25929
单一 25929
protein 25928
标记 25928
爆发 25921
glad 25915
ace@@ 25912
division 25908
factory 25906
ran@@ 25901
thinks 25901
upper 25895
社@@ 25894
载@@ 25892
wearing 25890
dependent 25881
汉 25876
通道 25875
sections 25871
wid@@ 25871
刻@@ 25870
派@@ 25869
持有 25858
millions 25855
大脑 25850
社会主义 25847
ach 25846
mag@@ 25846
Michael 25843
reviews 25840
ged 25834
politics 25832
helps 25830
tested 25825
gradually 25816
6,@@ 25815
第三次 25813
Hol@@ 25808
ack@@ 25799
Supreme 25798
ie@@ 25789
wealth 25789
构建 25784
discovered 25782
To@@ 25778
internally 25778
wonder 25774
IM@@ 25772
pace 25772
loans 25770
贸易@@ 25765
incidents 25762
supervision 25761
marked 25760
appreciate 25755
儿@@ 25751
硫@@ 25749
至今 25749
ourselves 25744
arrangement 25742
许可证 25742
财@@ 25741
25@@ 25738
Sch@@ 25737
error 25735
财政@@ 25731
removed 25728
throw 25727
lasting 25720
limits 25714
ous@@ 25712
fa@@ 25708
images 25705
hang 25704
roles 25702
SP 25701
摩洛哥 25699
oversight 25696
Sal@@ 25691
必 25689
reintegration 25687
suddenly 25686
莉@@ 25685
formula 25680
wards 25679
囚犯 25673
arising 25669
发展@@ 25662
divided 25660
winter 25652
post@@ 25651
Family 25650
各类 25646
辆 25645
marketing 25641
thin 25635
尼日利亚 25632
查询 25631
常见 25628
Does 25619
amp@@ 25614
fore@@ 25614
sub-@@ 25613
beauty 25612
electro@@ 25608
impacts 25594
工作者 25594
onal 25592
sa@@ 25591
japan 25583
Mom 25582
失望 25575
款@@ 25572
轨道 25570
ances 25565
transmitted 25561
挂 25561
deployed 25553
丹@@ 25551
hopes 25550
demonstrated 25542
ei@@ 25541
reconciliation 25538
Internal 25536
improvements 25536
领 25534
每月 25532
plastic 25529
端@@ 25524
疯 25516
lan@@ 25514
恐惧 25509
truly 25499
渠道 25491
cutting 25489
dear 25486
筹@@ 25483
soul 25479
群@@ 25466
错@@ 25463
roll 25453
frameworks 25450
删除 25446
当选 25446
desire 25441
免疫 25435
prisoners 25434
UNODC 25433
总数 25433
急 25430
brand 25428
lunch 25426
offering 25413
easier 25412
IAEA 25407
Ah 25405
定位 25404
空中 25403
外国人 25401
相似 25388
struggle 25386
dissemination 25382
nan@@ 25381
豁免 25377
wedding 25376
prime 25375
称@@ 25375
investigated 25374
reconstruction 25374
带有 25373
管辖权 25371
Use 25368
amendment 25368
mad 25368
听取 25365
引入 25359
paying 25355
呼吸 25354
eventually 25351
players 25338
多久 25334
disability 25325
yn@@ 25324
Staff 25322
tired 25321
穿着 25320
企图 25319
刺@@ 25317
milk 25316
党@@ 25316
题 25310
义@@ 25300
事先 25299
迷 25298
01 25291
金融机构 25284
ulation 25283
夏@@ 25279
Li 25277
灾 25272
driver 25270
发送 25270
05 25266
1980 25260
烧 25253
上次 25244
签@@ 25241
碳@@ 25240
尚@@ 25237
phenomenon 25222
缅甸 25221
裁@@ 25212
regi@@ 25211
上涨 25207
evil 25206
authors 25198
About 25194
相互@@ 25190
pot@@ 25181
detection 25171
程@@ 25169
Liberia 25166
weapon 25165
ino 25164
引渡 25162
基本上 25155
素@@ 25154
既然 25151
favour 25150
walking 25148
康复 25144
一座 25141
School 25138
争@@ 25124
-up 25118
系@@ 25115
加剧 25111
assigned 25107
征聘 25105
ninth 25104
欢@@ 25093
sum@@ 25088
振@@ 25088
辅助 25086
qualified 25082
不仅仅 25070
interface 25067
玻璃 25067
identifying 25066
容@@ 25065
医学 25063
title 25061
battle 25051
逻辑 25051
an-@@ 25050
concentration 25046
interview 25043
if@@ 25042
pleased 25038
expensive 25035
rou@@ 25034
comprising 25026
stories 25022
表格 25022
arts 25000
idi@@ 24999
丰@@ 24998
地图 24998
潜@@ 24995
.2 24990
活着 24990
anniversary 24987
reg@@ 24984
atmosphere 24980
灵活 24975
尊严 24974
诉 24966
若@@ 24965
疯狂 24958
伸@@ 24953
忽视 24952
foot@@ 24943
有力 24931
eastern 24916
tons 24915
Add.@@ 24911
lucky 24906
you@@ 24905
改造 24905
坚定 24902
戏 24897
较大 24892
上去 24890
广播 24886
ards 24885
Resources 24883
灾难 24883
generate 24880
transferred 24875
grant 24868
越南 24867
前提 24866
oned 24865
蒙 24863
cards 24856
哪个 24847
档案 24847
oss 24841
教堂 24831
暂停 24821
quiet 24815
SC 24798
卷@@ 24796
camp 24789
℃ 24789
为止 24787
obstacles 24784
利亚 24781
一部 24775
covers 24772
违@@ 24766
constitu@@ 24757
headed 24745
bil@@ 24744
ese 24739
亿@@ 24736
sight 24734
handling 24733
mistake 24726
08 24724
那天 24722
cope 24720
falling 24716
King 24714
acted 24714
apart 24708
分摊 24708
anybody 24707
赶@@ 24707
fol@@ 24705
汇率 24703
限度 24701
谅解 24693
flexible 24689
periods 24688
equivalent 24686
09 24671
elled 24671
附加 24670
泡 24669
amended 24668
贵@@ 24668
朗 24659
常规 24657
自治 24655
ate@@ 24653
liability 24647
newly 24643
部长级 24639
scre@@ 24638
qui@@ 24633
ban 24632
政治权利 24624
矛盾 24623
household 24620
充足 24619
波斯尼亚 24619
lands 24611
猪 24609
古 24607
交通@@ 24602
mit@@ 24600
投诉 24599
罪犯 24598
美洲 24590
安置 24589
reflects 24586
雪 24583
stocks 24579
ising 24575
晚@@ 24575
生态系统 24573
彩@@ 24561
球队 24557
bor@@ 24556
radi@@ 24552
苦 24550
局长 24545
aining 24544
pair 24542
inflation 24539
balanced 24537
恤金 24533
ta@@ 24525
Wal@@ 24518
敏@@ 24518
worst 24515
tension 24512
倾@@ 24508
ward 24503
荷@@ 24501
monthly 24500
予 24499
measured 24496
tie 24494
od 24488
equitable 24486
东部 24486
还好 24478
编辑 24463
贴 24462
极端 24460
志@@ 24455
爱情 24455
disputes 24454
人格 24452
cher 24450
填@@ 24450
简直 24446
mention 24442
一周 24442
overseas 24434
喜@@ 24428
Ter@@ 24426
亡 24425
ratified 24423
网络@@ 24420
不该 24419
陷入 24418
幸运 24417
stronger 24416
警 24413
ron@@ 24411
sli@@ 24406
松 24405
餐厅 24401
变革 24400
definitely 24398
仅@@ 24393
演员 24389
吹@@ 24388
lim@@ 24387
初级 24386
promised 24384
mil@@ 24381
隔@@ 24375
fulfil 24373
facility 24371
发行 24367
比率 24367
氯@@ 24365
chair 24363
nobody 24362
smart 24350
开车 24348
Monitoring 24344
drew 24343
滥用 24339
bright 24338
oning 24338
transit 24337
篇 24335
Network 24332
focusing 24326
会上 24326
净 24325
商店 24324
Rev@@ 24323
着手 24315
纹 24315
replace 24307
verification 24305
WHO 24300
护 24296
配 24295
升级 24294
外勤 24293
UR@@ 24285
measurement 24285
Science 24280
冲 24268
forever 24266
protocol 24262
马来西亚 24262
ama 24257
感情 24256
电池 24256
U. 24254
ich 24252
高效 24249
damn 24247
域 24238
adding 24236
Indigenous 24234
什@@ 24234
睡@@ 24230
I. 24223
喔 24222
dent 24218
interaction 24215
worried 24212
adaptation 24210
07 24209
tle 24209
丹 24202
序列 24201
速@@ 24201
involve 24200
简要 24198
horse 24193
人居 24193
抱 24193
IP 24192
commissions 24189
XX@@ 24183
meat 24181
ye 24179
dropped 24171
sustainability 24163
愿望 24163
Energy 24162
肿瘤 24161
Miss 24158
suggests 24156
player 24155
外层空间 24147
herself 24146
搬@@ 24144
由此 24143
先前 24141
新加坡 24141
hur@@ 24139
Leone 24138
坦@@ 24137
边缘 24134
宁 24127
减贫 24123
销毁 24111
二零零@@ 24109
ICT 24108
ound 24107
destroyed 24098
调节 24098
cast 24096
CE@@ 24089
luck 24076
reservations 24076
肯尼亚 24076
ov 24072
geographical 24064
距 24064
sem@@ 24063
library 24052
有害 24045
arity 24044
frequently 24035
竞争力 24014
负@@ 24013
permit 24011
EM@@ 24010
ich@@ 24008
allocated 24002
grown 24001
utilization 23998
Put 23997
counter 23994
骗 23994
mod@@ 23992
Netherlands 23991
River 23989
垃圾 23985
humanity 23984
eli@@ 23983
Could 23977
ands 23977
attitude 23974
教科文组织 23973
玛 23966
° 23962
revenue 23961
牵@@ 23961
级别 23956
ordered 23953
简化 23953
feelings 23952
租@@ 23952
intellectual 23950
套@@ 23950
阿尔@@ 23948
税收 23943
乌干达 23939
tory 23938
substances 23935
熟悉 23935
大幅 23934
饭 23933
灵魂 23931
Status 23926
备忘录 23922
format 23919
魔@@ 23914
质疑 23908
南方 23906
一支 23905
一生 23904
mainstreaming 23897
breakfast 23891
branch 23884
je@@ 23882
reply 23882
ette 23879
electricity 23876
empowerment 23875
Was 23874
缓解 23874
facilitating 23866
Humanitarian 23856
1.5 23853
Initiative 23853
tend 23843
诗 23838
土壤 23832
益 23824
George 23813
pieces 23812
C.1 23811
reservation 23807
被迫 23806
斗 23803
产量 23801
谈到 23798
estate 23791
Northern 23789
shares 23788
文学 23788
appearance 23782
zz@@ 23782
mixed 23777
划@@ 23767
给@@ 23765
03 23762
radiation 23760
仪式 23755
acquisition 23752
dy@@ 23745
生气 23744
sym@@ 23743
薪金 23743
第六@@ 23735
毕业 23730
subsidiary 23727
雅 23726
AC 23722
water@@ 23716
C.2 23713
equ@@ 23712
南斯拉夫 23710
frag@@ 23708
超 23707
flat 23704
saving 23700
磨@@ 23697
良@@ 23697
攻@@ 23695
Center 23692
Fifth 23686
CN.4 23670
释 23670
eighth 23669
but@@ 23668
规划署 23666
02 23661
ened 23660
ocean 23657
审@@ 23656
剪@@ 23655
enjoyment 23654
swe@@ 23654
尼亚 23653
La@@ 23652
reiterated 23652
活力 23651
new@@ 23646
gro@@ 23638
subprogramme 23637
某@@ 23636
邦 23624
Indian 23621
dedicated 23621
Man 23615
AB@@ 23614
一句 23614
ani 23610
WTO 23608
pregnant 23608
drafting 23603
talked 23600
坚决 23598
Conclusion 23597
球员 23595
clients 23587
经委会 23587
苹果 23587
observe 23585
作家 23585
浆 23585
破产 23583
wonderful 23579
铁路 23576
累 23574
fired 23573
accessible 23568
一辆 23564
contents 23562
董事会 23559
营@@ 23556
长时间 23553
constraints 23548
惯例 23541
comparison 23540
Lebanese 23533
salary 23531
recommend 23525
Pol@@ 23524
vast 23522
depends 23515
publications 23513
Norway 23508
cri@@ 23507
Det@@ 23506
Christmas 23505
collected 23505
til@@ 23504
witness 23503
imagine 23502
格鲁吉亚 23489
夺@@ 23488
模块 23487
wor@@ 23485
成效 23470
ket 23462
年前 23459
用作 23454
脱 23451
derived 23448
infection 23447
专门机构 23441
第三十@@ 23438
受理 23437
finds 23434
基准 23431
ILO 23429
剧@@ 23428
到处 23426
执@@ 23426
鲁 23421
兼 23412
付@@ 23403
Rev.1 23402
另一@@ 23402
物理 23402
tual 23401
thereof 23396
一片 23394
鸡@@ 23390
分为 23388
布隆迪 23386
ation@@ 23385
cour@@ 23384
focal 23382
有益 23371
forming 23365
摆脱 23365
边境 23363
止@@ 23361
Eastern 23356
谈话 23356
apped 23353
对外 23353
ign@@ 23349
刘@@ 23347
周末 23347
劳 23346
建设性 23330
Bel@@ 23326
然@@ 23323
晶@@ 23315
Assistant 23314
reserve 23306
Spanish 23305
vice 23298
rac@@ 23297
Can@@ 23288
清理 23283
guard 23268
旁 23268
bit@@ 23263
06 23252
血管 23252
听见 23249
Pe@@ 23247
Sure 23241
认定 23238
Argentina 23235
NO@@ 23235
讨论会 23230
堡 23227
杀死 23226
最为 23224
therapy 23221
soci@@ 23219
gh 23214
chi@@ 23207
传输 23203
promoted 23199
recalled 23197
american 23192
Tuesday 23191
耶稣 23190
间接 23189
欧 23188
dies 23187
找出 23186
pers 23184
Americans 23180
渔业 23178
AD@@ 23177
Jerusalem 23166
组件 23166
架@@ 23159
瓶 23158
topics 23157
with@@ 23157
lists 23150
paras 23149
channels 23148
提供援助 23146
这家 23146
SR.@@ 23145
干扰 23139
命运 23138
Principles 23128
Letter 23127
LO@@ 23126
杀害 23123
conducting 23118
摆@@ 23112
金额 23108
separation 23101
少数民族 23101
百万 23099
核裁军 23095
潮 23095
classes 23086
gift 23083
somewhere 23080
capability 23072
she@@ 23069
dignity 23041
teach 23040
substance 23037
alities 23027
happiness 23027
applying 23020
一方面 23015
intervention 23014
characteristic 23005
不安 23004
ails 22997
慢 22996
church 22994
SC@@ 22992
TO 22992
130 22989
Given 22978
cra@@ 22975
技巧 22974
productivity 22966
氧 22961
Fourth 22960
ham@@ 22955
男 22955
Kar@@ 22950
istic 22945
刚果 22942
Power 22941
refers 22939
explanation 22933
延@@ 22928
动机 22926
愉快 22922
柱 22917
ath 22913
肥@@ 22913
hundreds 22908
Pri@@ 22905
Haiti 22904
define 22904
痛@@ 22896
钻@@ 22896
消耗 22893
planet 22885
camera 22884
误@@ 22880
ease 22874
规约 22872
关键@@ 22865
首都 22865
profile 22860
周年 22859
stages 22853
想想 22851
优秀 22850
场@@ 22849
consumers 22848
studying 22845
螺@@ 22840
筹措 22835
posed 22834
faster 22833
ail 22828
ko 22828
holds 22827
早餐 22825
递@@ 22824
设定 22821
Yugoslavia 22819
6-@@ 22817
协同 22812
部件 22812
答 22807
и 22803
闻 22801
Prosecutor 22800
年度报告 22799
Dad 22794
mentation 22794
turning 22794
维修 22793
ster@@ 22791
束 22787
泥@@ 22787
对抗 22785
口头 22783
胺 22778
Ukraine 22777
optical 22776
炸弹 22775
UNESCO 22774
丙@@ 22768
RO@@ 22767
proud 22767
anti 22766
SS 22765
ater 22765
密切合作 22765
众@@ 22758
雇用 22755
uck 22752
债券 22752
移 22750
项@@ 22749
雄@@ 22739
revealed 22729
ney 22728
瑞 22727
Val@@ 22719
西非 22719
app@@ 22718
烂 22715
选民 22715
耶 22713
禁 22711
积极@@ 22709
alist 22707
FAO 22704
词@@ 22702
Tom 22697
compl@@ 22688
药品 22688
入侵 22684
心里 22684
构@@ 22683
translation 22679
gri@@ 22671
hon@@ 22665
Chamber 22663
execution 22655
eradication 22651
冲击 22650
sis 22640
Excuse 22638
ome 22636
contrary 22634
丧失 22631
concluding 22626
DP 22618
物体 22618
inter-@@ 22616
strange 22612
literature 22609
废除 22608
parallel 22607
scared 22607
fees 22600
不可@@ 22597
内地 22592
交付 22585
前进 22584
极为 22584
学者 22583
Mis@@ 22581
amed 22581
浪 22580
exists 22579
Du@@ 22576
假如 22575
一百@@ 22574
CO 22572
broader 22569
makers 22561
坡 22556
faces 22555
波兰 22551
Shi@@ 22550
CON@@ 22549
其余 22545
卫@@ 22545
布什 22545
VII 22540
suffer 22537
莱 22534
抢@@ 22533
10.@@ 22530
Sa@@ 22528
Cyprus 22525
guarantees 22519
Business 22514
脸@@ 22510
型@@ 22508
绑架 22506
tering 22504
穷人 22504
胸@@ 22504
Peter 22503
拍@@ 22503
置@@ 22503
盟 22502
arch@@ 22501
obviously 22498
作物 22496
餐@@ 22495
森@@ 22492
banking 22485
shoes 22483
taste 22472
实质 22467
薪 22460
谋杀 22460
抗议 22458
tolerance 22455
04 22454
op 22452
损伤 22450
psychological 22449
兴@@ 22443
invitation 22442
孔@@ 22439
细则 22423
镇@@ 22421
路线 22414
lad@@ 22412
subjects 22411
设在 22410
司机 22404
最高法院 22403
suggestions 22399
wake 22399
Gen@@ 22389
Str@@ 22387
Bri@@ 22385
茨 22385
description 22384
pil@@ 22384
案子 22381
直 22376
messages 22373
衰@@ 22372
2.5 22363
醇 22363
惠@@ 22360
加大 22358
Thailand 22355
包装 22354
生意 22352
s.@@ 22349
下次 22345
显得 22344
strike 22342
异常 22338
Z 22335
ailed 22335
restaurant 22333
清除 22332
migrant 22329
ford 22325
生产@@ 22321
非常@@ 22319
Jud@@ 22311
陈述 22307
rad@@ 22306
示@@ 22306
怎么回事 22304
representing 22303
种类 22300
将军 22297
diagnosis 22292
Methods 22290
有罪 22289
campaigns 22287
Thursday 22281
修复 22281
命@@ 22280
Um 22277
提取 22274
甲 22269
事物 22264
下跌 22263
父 22262
无核武器 22258
公 22252
non-proliferation 22250
只会 22248
Iraqi 22247
肠 22247
io 22245
阿尔及利亚 22241
旋@@ 22240
百分比 22240
widespread 22225
中学 22224
presidential 22223
当事人 22223
糟 22223
incorporated 22211
Dar@@ 22210
尽量 22210
博 22208
层次 22201
规律 22201
婚礼 22197
症状 22197
tough 22190
密度 22189
violent 22185
subsequently 22177
interim 22175
Sup@@ 22174
卖淫 22173
采访 22169
耗@@ 22167
礼@@ 22166
ind 22165
port@@ 22164
net@@ 22162
灌@@ 22159
外交部 22156
酒吧 22155
rence 22152
移交 22152
constructive 22150
ills 22149
仔细 22149
大大 22149
possibly 22148
internet 22139
剩下 22136
申诉人 22134
budgetary 22133
mol@@ 22131
brings 22123
ography 22118
系统@@ 22118
conservation 22117
ption 22115
Governing 22110
electrical 22109
q 22109
开枪 22101
leads 22095
处境 22094
witnesses 22093
透过 22093
围绕 22091
三十@@ 22089
政权 22087
ml 22085
录 22084
一段时间 22083
坏@@ 22071
flying 22070
gene 22061
狂@@ 22061
一会儿 22059
迹象 22058
印象 22057
bigger 22056
答应 22054
一方 22053
疫苗 22052
太好了 22050
imprisonment 22048
裂@@ 22046
尾@@ 22044
强奸 22039
begun 22037
to-@@ 22037
Ri@@ 22036
exchanges 22035
sanitation 22030
god 22027
pleasure 22027
个人@@ 22023
撞 22022
methodology 22021
birthday 22020
离婚 22020
从没 22017
鲜@@ 22015
Bosnia 22014
lin 22013
市场@@ 22011
compounds 22009
han 22007
lam@@ 22006
plus 22006
vin@@ 22002
aqu@@ 21998
备选 21997
noting 21996
pictures 21996
vers 21989
Street 21986
火车 21970
transformation 21969
acceptable 21962
managing 21960
Everything 21959
typical 21959
wild 21958
impl@@ 21955
ata 21953
缘 21949
互相 21946
野 21943
智@@ 21942
Southern 21941
富有 21940
器@@ 21935
introduces 21934
bitch 21931
pro 21929
继承 21929
私营 21927
corner 21918
Make 21913
略@@ 21913
不如 21905
初 21899
fashion 21893
可怜 21890
个别 21888
回收 21886
奥地利 21886
relates 21885
一个@@ 21884
编码 21884
locked 21882
厄立特里亚 21877
迈@@ 21877
末 21875
甜@@ 21864
羊@@ 21863
海上 21853
sible 21852
familiar 21846
bet@@ 21841
基本@@ 21839
CT 21837
开玩笑 21837
novel 21836
品质 21836
牙 21836
智利 21825
观众 21825
深刻 21821
驱@@ 21818
Water 21814
cou@@ 21814
识 21814
ada 21812
deaths 21808
dro@@ 21808
补 21806
Company 21804
preventive 21804
typically 21804
地理 21802
composed 21801
笔@@ 21792
complicated 21789
falls 21786
rare 21786
mate 21785
犯罪@@ 21772
Sur@@ 21771
grew 21763
bird 21754
获悉 21742
东道国 21740
Is@@ 21739
xi@@ 21732
春@@ 21730
洁 21724
IN 21721
Nigeria 21718
regards 21716
逐@@ 21716
主办 21711
旧@@ 21704
Financing 21700
xi 21700
bel@@ 21696
bid 21693
黑暗 21687
twenty-@@ 21686
穆斯林 21684
PS 21679
灯@@ 21679
contrast 21675
测 21672
每周 21669
acceptance 21666
premises 21666
Paul 21658
还会 21656
封 21654
icate 21652
自杀 21652
什么样 21649
racism 21644
心脏 21644
壁 21640
博物馆 21636
历@@ 21636
范@@ 21633
否认 21630
brief 21627
Mil@@ 21624
邮件 21624
The@@ 21623
cross-@@ 21621
psych@@ 21619
Ver@@ 21616
[ 21612
损 21611
ounded 21610
resolved 21607
hol@@ 21606
送到 21605
乎 21604
kets 21603
OR@@ 21602
spe@@ 21601
injured 21599
saved 21598
associations 21595
cluster 21594
gaps 21594
效@@ 21591
direc@@ 21589
ems 21588
1000 21580
种植 21580
绝 21578
乔治 21577
呈 21573
Accordingly 21572
英 21572
conformity 21571
丹麦 21568
率@@ 21568
lots 21567
赫 21566
妮 21563
本届 21558
Regulations 21557
ut 21553
iness 21550
lat@@ 21545
截@@ 21545
convened 21543
Drugs 21541
港口 21537
转型 21537
第四十@@ 21536
晚餐 21535
燃@@ 21535
syn@@ 21528
统治 21520
苯@@ 21515
兵@@ 21510
污@@ 21509
此次 21502
escape 21500
lets 21497
幕 21497
Small 21492
发言者 21489
价@@ 21488
iii 21480
smoke 21480
无论是 21479
胶 21478
regarded 21477
honey 21471
sequence 21469
architecture 21467
preparatory 21466
Ben@@ 21463
立刻 21463
kin 21461
sho@@ 21461
advocacy 21457
aling 21454
尖@@ 21454
va 21451
疑@@ 21450
causing 21447
宾@@ 21447
foster 21442
盘@@ 21436
对策 21432
23@@ 21431
追踪 21426
桶 21425
浪费 21425
fire@@ 21421
Developing 21420
acti@@ 21411
ears 21409
样@@ 21409
Sometimes 21408
对比 21407
tal@@ 21406
Burundi 21405
ide@@ 21404
不应 21401
desk 21399
predic@@ 21399
stars 21398
summit 21395
撒@@ 21394
losing 21393
chosen 21392
贴@@ 21391
Road 21382
白色 21374
帐户 21366
渔@@ 21366
ki 21364
ray 21364
呼@@ 21358
Chapter 21351
slightly 21351
栏 21350
simulation 21344
公寓 21344
指挥 21343
汇报 21341
陪 21339
gains 21336
溶液 21324
Decade 21323
ive 21315
wil@@ 21307
名额 21306
bol@@ 21304
公民权利 21304
massive 21301
Go@@ 21300
穿过 21297
Ambassador 21292
Island 21286
itary 21285
闲@@ 21284
共同@@ 21281
爱尔兰 21278
resident 21270
tivity 21268
ae 21266
签订 21266
salt 21261
clu@@ 21258
证券 21258
pal@@ 21255
calm 21252
exposure 21252
characters 21248
bet 21247
Je@@ 21243
硬 21243
医 21241
angry 21240
duc@@ 21240
empty 21239
Province 21238
hun@@ 21237
余 21236
violated 21235
祝贺 21231
7,@@ 21230
网页 21229
ures 21218
要么 21218
estimate 21214
strict 21214
sin@@ 21208
考察 21208
创作 21206
约束 21202
武力 21200
宽@@ 21197
沿 21196
例外 21195
fail 21191
容器 21189
Task 21184
collect 21184
Ethiopia 21182
surprise 21181
turns 21171
尺寸 21170
iled 21169
thoughts 21166
夹@@ 21165
离子 21161
OIOS 21156
驻@@ 21156
邻国 21152
og@@ 21139
景 21137
转化 21136
裁军谈判 21135
传递 21134
湿@@ 21128
稳定性 21125
避@@ 21124
bian 21120
wider 21118
segment 21117
integrate 21116
财务报表 21114
具体@@ 21112
Scientific 21110
阿塞拜疆 21105
demonstrate 21104
幼@@ 21102
泽@@ 21102
壳 21100
cat 21099
waters 21098
garden 21096
乡@@ 21096
fan 21095
organize 21094
comprises 21092
沿@@ 21091
激励 21087
award 21085
Rome 21084
Forms 21079
experimental 21073
universities 21072
见面 21066
movements 21064
loan 21063
峰 21058
judiciary 21056
pension 21056
yield 21056
simpl@@ 21054
ceremony 21039
拜 21039
跑@@ 21037
足以 21036
bits 21033
eu@@ 21033
到来 21032
Colombia 21030
Safety 21026
花费 21026
法定 21024
consists 21023
pp@@ 21022
normally 21020
let@@ 21015
刀@@ 21012
Bill 21010
accompanied 21009
modified 21009
再说 21004
cel@@ 21002
sat 21001
weren 20999
1967 20998
州@@ 20998
cli@@ 20993
CN@@ 20992
expanding 20988
ideal 20985
体育@@ 20985
新闻部 20982
closing 20981
Territories 20978
理念 20971
何种 20968
feels 20966
教训 20963
mile 20958
氏 20956
sum 20944
自然@@ 20944
文字 20941
埃 20939
Indeed 20938
Keep 20938
认证 20937
区分 20936
牧@@ 20934
家族 20930
湿 20928
再也 20925
差不多 20925
拉斯 20925
元件 20924
doctors 20920
承受 20912
薄@@ 20911
退 20911
NPT 20910
rit@@ 20910
sy@@ 20908
assume 20903
健@@ 20902
dealt 20901
ads 20899
宫 20899
相当于 20898
管理人员 20898
如同 20886
扎 20886
San 20884
ound@@ 20884
定于 20884
-to-@@ 20881
遭 20881
猛@@ 20880
谈论 20875
blow 20872
instructions 20872
竞选 20872
ush@@ 20871
时间表 20871
英雄 20869
学科 20860
England 20857
协@@ 20848
exception 20846
tre@@ 20846
Bas@@ 20845
League 20845
walked 20844
原料 20843
Pen@@ 20842
楼@@ 20842
属性 20840
van@@ 20833
motor 20832
signals 20831
Sim@@ 20830
smile 20830
operative 20828
ake 20827
speakers 20822
Georgia 20821
碎 20821
拍摄 20820
复苏 20819
ac 20818
friendship 20814
ltd 20814
群众 20814
Very 20807
afford 20805
courage 20803
&lt; 20802
outlined 20798
entirely 20793
DO@@ 20785
ori@@ 20785
丢@@ 20785
din@@ 20783
告 20783
其次 20776
DA 20775
likes 20774
吃饭 20774
Tur@@ 20773
国务院 20773
anywhere 20770
quar@@ 20770
刑@@ 20770
近期 20768
可持续性 20767
equally 20766
exposed 20765
counter@@ 20758
terrible 20757
分散 20750
监控 20749
奥运会 20748
丢 20741
teen 20738
收费 20736
roads 20732
fix 20726
化学@@ 20725
mixture 20720
Partnership 20719
professionals 20718
Chairperson 20715
拜@@ 20715
借 20714
slowly 20711
着重 20709
汞 20707
Strategic 20706
引导 20704
marry 20701
ty-@@ 20696
Fu@@ 20695
conf@@ 20692
decreased 20691
IL@@ 20689
育 20688
归 20683
rer 20680
gan@@ 20677
missile 20673
Pat@@ 20672
sad 20671
吓 20668
分开 20663
replaced 20657
subjected 20655
据称 20653
槽 20642
Sweden 20641
hen@@ 20640
Kenya 20637
honor 20632
commerce 20628
ene 20625
residence 20625
seconds 20623
ading 20620
tun@@ 20620
Fig 20618
] 20618
Herzegovina 20608
anger 20607
Al-@@ 20604
Morocco 20604
CEDAW 20603
拯救 20597
removal 20593
差别 20592
raw 20590
Cal@@ 20589
隔离 20585
ows 20582
粮农组织 20582
盐@@ 20580
i-@@ 20574
Society 20571
happening 20570
ences 20569
投 20566
地上 20565
摄@@ 20564
apartment 20563
作战 20563
早就 20563
stan@@ 20551
genetic 20550
退化 20543
佛 20536
fun@@ 20533
工业@@ 20530
防 20524
rape 20519
barriers 20518
赖@@ 20517
寿命 20515
票@@ 20514
一群 20511
特色 20507
慢慢 20503
ust 20496
spac@@ 20493
wan@@ 20493
perpetrators 20491
介@@ 20488
日常 20485
星期五 20482
behaviour 20476
runs 20476
Movement 20475
Number 20470
SA 20466
Among 20463
叫@@ 20463
残忍 20463
Statistics 20462
honest 20462
Ru@@ 20459
逆@@ 20458
悲@@ 20454
Myanmar 20449
胜 20448
走向 20447
machinery 20436
merely 20432
voltage 20430
hard@@ 20429
smooth 20428
mut@@ 20425
legally 20422
床@@ 20422
pic@@ 20420
zero 20420
运动员 20419
Planning 20417
刑 20417
平均@@ 20414
Work 20412
状@@ 20409
flexibility 20406
广大 20399
ith 20398
哥哥 20397
absolutely 20394
Foundation 20393
false 20392
sing@@ 20384
参照 20381
oun@@ 20374
披露 20373
即便 20371
塞浦路斯 20369
转向 20369
订 20362
大卫 20360
describe 20356
fies 20356
驻地 20355
detained 20352
sup@@ 20350
Cre@@ 20349
径 20342
积极参与 20340
尿@@ 20336
Wang 20335
Wh@@ 20330
Rel@@ 20329
Trans@@ 20329
Model 20322
newspaper 20322
演讲 20321
主人 20319
hyper@@ 20317
quantity 20317
必需 20315
高速 20308
stands 20305
十二@@ 20298
约束力 20298
躺 20297
慢@@ 20295
处置 20293
LE@@ 20292
行事 20290
ro 20289
家长 20283
荒@@ 20283
出色 20280
反腐败 20279
lawyers 20277
必要性 20276
调解 20269
图片 20268
参观 20266
羊 20265
fate 20260
Tri@@ 20257
局@@ 20253
blo@@ 20248
体验 20247
菲 20247
这类 20245
safeguards 20242
伊朗伊斯兰共和国 20242
式@@ 20241
adult 20238
保安 20238
k-@@ 20231
observation 20231
改为 20229
households 20227
ports 20225
熟@@ 20224
COM@@ 20222
102 20220
吻 20217
愈@@ 20215
Char@@ 20211
Non-@@ 20210
refused 20207
意图 20201
值@@ 20199
警官 20197
commit 20195
preparations 20195
eth@@ 20194
seminars 20194
靠近 20193
练习 20192
分歧 20187
determining 20186
leg 20186
depth 20183
consultative 20182
涂@@ 20181
旁边 20178
旋转 20175
eless 20174
分裂 20174
Jordan 20173
号@@ 20173
纪@@ 20173
surgery 20172
冷静 20167
跨@@ 20167
owners 20163
档 20163
Coun@@ 20158
Sunday 20157
毁灭性 20153
智慧 20145
会计准则 20144
海岸 20144
过于 20140
hood 20129
remedies 20125
裁定 20119
eness 20113
visual 20113
Co 20112
重新@@ 20108
District 20107
纪念@@ 20107
wise 20105
entering 20104
劲 20104
disposal 20102
热情 20100
繁@@ 20096
Change 20093
conc@@ 20093
sheet 20091
Rob@@ 20089
偷 20084
bun@@ 20077
dom@@ 20070
缺 20066
favorite 20063
幸@@ 20063
bio@@ 20062
发誓 20062
yang 20059
局面 20056
mechanical 20052
carrier 20049
把@@ 20048
扩@@ 20045
El 20040
渴望 20040
人会 20035
Korean 20034
上空 20031
币 20029
Philippines 20026
签名 20026
ock 20025
Professional 20018
拖延 20015
练 20015
CT@@ 20008
arbitrary 20008
degradation 20006
pun@@ 20004
Euro@@ 20001
disabled 19999
everywhere 19998
staffing 19995
professor 19991
invite 19989
settlements 19988
付出 19988
switch 19983
钥匙 19980
8,@@ 19978
Dr@@ 19973
ner@@ 19973
---- 19972
acks 19965
观测 19963
pon@@ 19960
依 19959
宇宙 19957
Saudi 19956
传感器 19949
究竟 19948
tube 19947
约旦 19947
退出 19947
Expert 19943
轻松 19943
电力 19939
㈠ 19936
4-@@ 19931
Taking 19931
inventory 19930
妹妹 19930
希 19930
事态 19928
跟@@ 19928
march 19923
complaint 19922
assi@@ 19918
oul@@ 19918
aching 19916
曾@@ 19915
hide 19914
老人 19914
heading 19913
始@@ 19910
有效性 19909
county 19908
oma 19901
形状 19901
宝贵 19897
sting 19895
港@@ 19895
近东 19895
派对 19886
震@@ 19885
pages 19879
cup 19876
configuration 19875
fluid 19875
新兴 19875
协商一致 19874
societies 19872
transaction 19872
loves 19867
owner 19862
deb@@ 19861
施工 19861
2nd 19859
产物 19857
rid 19856
肺@@ 19853
adopting 19851
煤@@ 19850
Che@@ 19849
Subcommittee 19848
insufficient 19842
depend 19840
yellow 19840
知识产权 19838
itor 19837
种种 19837
众 19834
明年 19830
客观 19828
话@@ 19824
weekend 19817
automatic 19814
mandated 19810
assisting 19808
day@@ 19803
hoc 19798
癌症 19795
永久 19794
comfortable 19791
ancy 19790
缓慢 19790
arian 19789
识@@ 19788
amp 19783
nec@@ 19782
earthquake 19781
route 19781
占@@ 19779
打破 19779
-I 19776
少年 19775
monetary 19772
原谅 19770
wage 19765
aps 19763
coordinating 19761
住宅 19761
内陆 19759
冰 19759
sof@@ 19754
老婆 19751
Vi@@ 19750
重量 19748
forty-@@ 19744
冠军 19743
钢 19742
sectoral 19738
㈡ 19736
acknowledged 19734
observer 19734
两位 19734
breaking 19732
vocational 19732
aches 19730
White 19722
gained 19722
Des@@ 19721
翼 19721
Olympic 19718
26@@ 19716
景@@ 19716
asia 19711
hall 19711
据@@ 19708
兴奋 19706
阿拉伯叙利亚共和国 19705
植@@ 19704
HRC 19703
国际法庭 19700
ective 19699
对手 19695
跟着 19692
巴勒斯坦人 19691
rejected 19689
wished 19683
法语 19682
柬埔寨 19681
owed 19676
就算 19674
物种 19674
凭 19673
birds 19670
occasion 19670
desired 19662
圆 19661
zones 19660
注射 19654
buying 19650
哇 19648
Building 19646
aring 19646
ght@@ 19645
lights 19645
血液 19643
contr@@ 19642
im 19637
necessarily 19636
诱@@ 19636
guilty 19632
seminar 19630
自然灾害 19628
samples 19625
involves 19623
黑塞哥维那 19620
vulnerability 19618
内罗毕 19617
register 19615
painting 19614
拆@@ 19610
环保 19610
贾@@ 19610
汤@@ 19609
继@@ 19608
cooperative 19607
将@@ 19605
asser@@ 19601
concepts 19601
貌 19600
止 19592
不知 19591
Wor@@ 19587
ger@@ 19586
安静 19586
ton@@ 19584
被捕 19584
schemes 19583
职等 19583
面向 19583
IA@@ 19582
coastal 19578
优点 19571
camps 19569
不愿 19566
Bro@@ 19565
adverse 19560
convinced 19560
bling 19556
启@@ 19555
commodity 19554
游客 19551
资讯 19550
Forces 19543
户@@ 19543
脑 19543
超出 19540
contacts 19539
瘤 19539
起到 19532
Team 19528
志愿人员 19526
保护@@ 19521
静 19521
Ba@@ 19519
usual 19519
机器人 19519
电台 19514
资源管理 19511
担忧 19508
汇编 19502
berg 19484
prohibited 19482
grants 19478
性暴力 19477
频 19474
重组 19473
mobilization 19471
nor@@ 19471
ades 19468
Si@@ 19466
integral 19466
贝 19465
Uganda 19464
拨 19462
鼓@@ 19459
Azerbaijan 19458
Mechanism 19458
混乱 19457
recognizes 19453
Sil@@ 19452
Questions 19451
液体 19450
系数 19439
司@@ 19438
欠 19437
288 19436
守则 19435
学术 19433
lah 19432
保罗 19432
教会 19431
ministry 19428
对应 19427
欲 19425
sixty-@@ 19423
电压 19422
茶@@ 19416
difficulty 19413
eter 19413
鼠 19413
谷 19397
汤姆 19393
偿还 19392
MA 19390
ians 19389
budgets 19386
星期一 19384
Independent 19383
标题 19379
FOR 19376
repair 19375
典 19372
诚@@ 19369
140 19363
问责制 19363
Pal@@ 19361
devoted 19360
拨@@ 19354
通用 19348
尾 19345
ron 19341
指令 19341
1,000 19339
eds 19338
长度 19336
missed 19334
余额 19333
ti 19331
crimin@@ 19330
provincial 19327
一人 19322
和谐 19319
wal@@ 19318
脱离 19318
restricted 19315
金融危机 19315
旅馆 19314
taught 19313
Results 19308
med@@ 19303
a.m. 19301
forests 19301
份额 19301
太多 19301
纲要 19299
第@@ 19296
腹@@ 19294
迫@@ 19288
译 19285
listening 19284
IO@@ 19283
钻石 19281
storm 19278
功率 19274
stand@@ 19269
unto 19258
analyses 19257
walls 19254
使用@@ 19245
dreams 19242
interference 19242
叛@@ 19241
atively 19239
amazing 19237
orientation 19237
乘@@ 19236
van 19233
relevance 19229
窗@@ 19229
sees 19228
Mag@@ 19226
标签 19225
Decides 19220
1986 19219
Local 19212
复员 19211
liver 19209
精确 19209
珍@@ 19203
疲@@ 19202
0-@@ 19201
competence 19201
oured 19199
入境 19195
micros@@ 19192
略 19192
calculated 19189
干净 19189
Never 19185
football 19184
研@@ 19183
Comprehensive 19180
舒适 19173
谋 19173
den 19171
passing 19167
阳光 19165
LDCs 19163
picked 19162
机遇 19162
看过 19159
select 19158
9,@@ 19157
却是 19156
grateful 19152
degrees 19151
观察团 19151
发明 19150
变动 19149
180 19148
恐怖分子 19146
监察 19146
想起 19144
激烈 19140
icity 19134
phones 19134
设有 19134
Park 19126
Ji@@ 19125
prostitution 19125
提起 19125
一把 19124
attempts 19123
尔斯 19123
proceed 19122
IV@@ 19119
整合 19117
透露 19110
photo 19106
substantially 19106
新华社 19106
Po@@ 19099
发动 19098
肠@@ 19095
duration 19094
创 19091
每日 19089
缔结 19089
代替 19087
据说 19087
犯下 19085
温室 19082
发达 19081
writer 19077
芬兰 19074
海军 19068
软 19066
denied 19059
reaffirmed 19058
唱@@ 19057
顾@@ 19056
斯特@@ 19055
会晤 19052
女子 19048
measuring 19044
小子 19042
所得 19041
fiber 19040
module 19038
站@@ 19037
说道 19033
maternal 19031
Really 19029
封锁 19029
ew 19028
Me 19022
巡@@ 19021
解除 19017
signing 19015
透 19013
烷 19012
farm 19011
guaranteed 19008
屋@@ 19007
第四次 19000
Fin@@ 18999
candidate 18995
教练 18995
预定 18992
Coordinator 18991
cry 18991
特遣队 18991
舒服 18990
教学@@ 18989
PE@@ 18986
术语 18983
构造 18978
监视 18976
streets 18972
建筑物 18972
ection 18969
物资 18965
argument 18964
更改 18963
tradition 18962
neck 18961
同学 18960
borders 18957
故@@ 18954
灭 18948
瑟 18947
lip@@ 18942
不让 18942
此项 18942
guests 18940
一个月 18937
Climate 18934
impunity 18934
提前 18931
ba@@ 18927
干旱 18926
suspected 18924
excuse 18920
库存 18920
阐明 18920
reserves 18918
主体 18918
国际贸易 18915
比利时 18915
bush 18912
custody 18910
纪律 18908
column 18901
盒 18901
施加 18886
tables 18884
conver@@ 18882
夏天 18874
神经@@ 18871
稿 18871
肯@@ 18867
She@@ 18864
Should 18863
nit@@ 18858
扔 18858
检 18857
pet@@ 18855
ils 18854
three-@@ 18854
liberty 18849
regardless 18848
Gi@@ 18847
敬@@ 18847
snow 18845
computers 18842
售 18841
oph@@ 18839
sending 18838
&gt; 18837
骑@@ 18837
制约 18836
吓@@ 18834
毫无 18832
数学 18831
单方面 18830
根源 18830
urge 18827
AS 18825
Violence 18824
aded 18814
饥饿 18813
puts 18812
crises 18810
smell 18810
洗钱 18809
coherence 18806
一代 18806
负债 18804
ulate 18803
只不过 18802
改 18801
XML 18800
Malaysia 18799
道歉 18795
饮@@ 18793
抵达 18787
CS@@ 18785
专门知识 18778
级@@ 18777
译@@ 18773
播@@ 18768
弟弟 18767
solidarity 18766
推荐 18765
NA@@ 18764
处决 18764
elderly 18760
地域 18759
2020 18755
合格 18754
牺牲 18753
Corr.1 18750
氧化@@ 18750
dogs 18742
prefer 18740
opposite 18739
audience 18737
rs 18734
圣 18734
哥@@ 18733
献@@ 18732
classification 18731
猎@@ 18729
innocent 18725
returns 18722
不见 18721
大众 18721
遇@@ 18718
Singapore 18716
Refugees 18712
二〇〇@@ 18710
immigration 18707
sugar 18706
匹配 18706
混合物 18706
Au@@ 18703
险 18702
频@@ 18700
interventions 18699
一国 18696
强制 18696
储备 18694
employers 18690
Met@@ 18688
acute 18685
roots 18683
埋@@ 18680
Mary 18677
用以 18675
taxes 18668
Ham@@ 18665
爸 18665
收购 18659
ual 18657
plan@@ 18656
愤怒 18655
极其 18655
nationals 18653
immun@@ 18651
rescue 18648
两项 18647
抵@@ 18647
抱怨 18646
地说 18643
keys 18640
calculation 18638
Army 18633
白俄罗斯 18628
定罪 18622
beach 18609
destroy 18598
Universal 18596
ight 18596
pure 18595
South-South 18592
艰难 18582
无疑 18581
两天 18580
佳 18575
Wednesday 18574
觉@@ 18574
马里 18574
discharge 18573
之类 18572
E. 18569
胃@@ 18569
应有 18567
敲@@ 18566
债 18563
de-@@ 18559
目录 18555
cing 18554
shopping 18554
fee 18549
visitors 18549
PRO@@ 18546
诊 18543
truck 18540
favor 18537
任职 18535
dimensional 18532
损@@ 18531
displacement 18528
气氛 18528
hasn 18527
杰 18521
这边 18521
tal 18518
Something 18517
稳@@ 18517
味道 18516
assisted 18509
blind 18509
tight 18509
座@@ 18509
竞@@ 18509
Finance 18508
prospects 18507
Got 18505
影响力 18505
下载 18504
hardly 18501
不好意思 18495
closure 18486
evolution 18485
英尺 18483
科学@@ 18477
摸 18475
根本@@ 18473
dge 18472
mus@@ 18471
negotiation 18468
1st 18467
刺 18467
形态 18467
adults 18466
iling 18466
160 18459
describes 18457
岛屿 18457
宫@@ 18455
账 18454
gg@@ 18452
survival 18447
叫做 18445
超级 18441
solar 18440
上来 18436
creative 18434
谨慎 18433
贫@@ 18431
CL@@ 18429
紫@@ 18429
expectations 18428
pping 18426
建筑@@ 18424
James 18417
曲线 18411
Nairobi 18410
uniform 18399
纪录 18393
远远 18390
故障 18379
formulated 18378
宁@@ 18378
上学 18368
ali 18366
敢 18364
bo 18363
Cle@@ 18362
wire 18357
核定 18356
colleagues 18352
狗@@ 18352
莎 18352
alcohol 18349
农场 18347
吹 18346
Google 18341
刊 18340
限于 18334
久@@ 18333
腐@@ 18330
pe 18329
starts 18329
mothers 18324
SE@@ 18323
iced 18323
Time 18322
author@@ 18321
碰@@ 18320
Hold 18317
青 18317
Sar@@ 18316
柜 18315
首长 18311
啤酒 18310
肝@@ 18309
聚合物 18308
Tu@@ 18307
柔@@ 18307
没收 18307
浓@@ 18306
Equality 18302
将要 18301
故意 18301
seats 18299
sted 18299
家庭@@ 18299
ank 18297
satisfied 18295
价值观 18294
杀人 18294
tin@@ 18291
101 18290
氢@@ 18289
演出 18289
孟加拉国 18284
首要 18280
valid 18279
酷 18278
是@@ 18275
迄今 18275
社会保障 18272
bly 18269
lor@@ 18263
undertaking 18260
绩效 18260
1987 18259
certificate 18253
不然 18252
tran@@ 18251
恐怕 18250
beings 18248
情感 18248
pressing 18246
客房 18246
漫@@ 18244
桌 18242
较为 18241
ce-@@ 18240
pop@@ 18239
此事 18239
思维 18235
municipal 18233
vol@@ 18232
驾驶 18229
辩@@ 18228
民主@@ 18227
Ad 18224
real@@ 18224
gran@@ 18221
104 18219
订立 18218
露 18216
六个 18214
cro@@ 18213
疗效 18209
Xi@@ 18203
指责 18203
commun@@ 18201
ministerial 18201
mic@@ 18199
沿着 18198
dimension 18197
exploration 18197
摧毁 18195
burn 18192
conversation 18192
sharp 18192
ared 18190
尼泊尔 18188
和平@@ 18181
tra@@ 18176
浪@@ 18176
生活@@ 18174
Bre@@ 18168
Chile 18167
ables 18167
grand@@ 18166
lift 18166
disciplinary 18164
Del@@ 18163
年初 18162
手中 18161
理性 18161
liked 18158
ester 18152
威 18152
人体 18145
C.@@ 18144
withdrawal 18144
摊款 18141
因特网 18138
Turkish 18132
一所 18131
遭遇 18131
modalities 18126
舰 18119
discipline 18118
纠正 18118
accuracy 18116
IR@@ 18113
逊 18107
言论 18104
density 18102
sou@@ 18102
迫使 18100
magnetic 18099
水果 18097
布莱@@ 18095
鬼@@ 18094
荡 18092
困境 18091
employee 18087
Without 18086
complainant 18086
humans 18084
minor 18082
超越 18082
constitutes 18080
Air 18079
ax 18077
journalists 18075
py@@ 18071
deals 18070
domain 18068
键 18067
weigh@@ 18066
戒@@ 18059
统计数据 18059
105 18049
末@@ 18049
www 18047
几 18047
Statute 18045
就业机会 18044
很棒 18042
干涉 18040
败@@ 18039
所属 18038
本质 18035
宝 18034
Data 18033
Military 18031
ala 18030
促成 18027
lows 18025
弃 18022
hospitals 18021
违背 18019
1985 18012
之上 18011
细 18011
属@@ 18010
两人 18008
requiring 18007
电子邮件 18003
都@@ 18003
AP 18001
厨房 18000
cru@@ 17998
meal 17995
船舶 17991
肾@@ 17990
人民币 17989
resumed 17988
大韩民国 17988
信息系统 17983
suc@@ 17981
ank@@ 17980
几次 17979
构 17976
秘鲁 17976
surveillance 17975
ols 17974
Having 17973
Integrated 17972
息@@ 17972
架构 17972
ben@@ 17966
均衡 17962
Professor 17959
平面 17956
1.2 17953
tissue 17953
CF@@ 17951
inadequate 17946
研制 17939
抛@@ 17938
depending 17936
bureau 17935
Mic@@ 17930
powder 17929
诸@@ 17929
颗粒 17927
manufacture 17926
必然 17914
transmit 17907
历史@@ 17906
bra@@ 17905
separ@@ 17901
teeth 17898
terminal 17896
谢 17893
legs 17892
不妨 17887
vic@@ 17879
黑色 17879
boundary 17877
nose 17877
立法会 17875
kitchen 17872
ries 17872
conclude 17868
Platform 17866
unity 17866
ug@@ 17864
Por@@ 17862
跨 17859
nie 17858
HC@@ 17857
为主 17855
sion@@ 17854
捕@@ 17854
数值 17851
AL 17850
历 17850
接到 17850
Fo@@ 17847
壮@@ 17847
ate-@@ 17844
set@@ 17844
堆 17843
划分 17834
沿海 17833
wo@@ 17829
规 17829
controlling 17827
电流 17826
长大 17824
燃烧 17822
继 17819
tionally 17817
恰@@ 17817
Christ 17814
犯@@ 17814
概算 17810
Total 17808
一大@@ 17806
CN.@@ 17804
地下 17804
没关系 17804
延迟 17803
filed 17802
fle@@ 17800
printing 17800
silver 17800
分析@@ 17800
provinces 17797
船只 17794
za 17792
管道 17791
聚会 17790
一组 17787
额@@ 17787
ced 17786
制造商 17782
行政当局 17780
founded 17778
opinions 17778
spl@@ 17778
所列 17778
thirty-@@ 17777
进度 17777
专利 17776
井@@ 17776
ticket 17772
排雷 17770
accordingly 17766
ena 17765
keeps 17765
天然 17765
熔@@ 17763
Afghan 17762
chem@@ 17762
ost 17759
ases 17756
rap@@ 17754
prop@@ 17748
似@@ 17742
appeals 17741
shi@@ 17740
holders 17736
Nice 17729
干部 17729
计算机@@ 17729
某人 17726
上班 17725
针@@ 17725
上周 17723
Sec@@ 17721
贩卖 17721
赤@@ 17717
Increased 17716
oh 17716
Fi@@ 17712
两者 17712
碰 17712
tour 17703
泵 17700
附 17699
Wil@@ 17695
跳舞 17695
handed 17694
forums 17690
rev@@ 17690
当作 17688
恰当 17685
visiting 17684
枚 17683
deliberations 17681
bond 17680
富 17677
工程师 17676
硅@@ 17676
ref@@ 17674
闹 17673
lun@@ 17672
照料 17672
profits 17671
laser 17668
theoretical 17664
seeks 17663
constantly 17662
S-@@ 17661
1982 17655
诉@@ 17655
Preparatory 17653
absolute 17653
突尼斯 17649
旗@@ 17648
ever@@ 17644
泽 17644
读者 17641
搭@@ 17639
不人道 17636
filter 17633
侵略 17633
当代 17632
细菌 17631
ides 17629
卢 17629
NGO 17627
avi@@ 17622
applies 17620
买卖 17608
多样化 17607
A.@@ 17600
clock 17597
莫 17595
营地 17595
rows 17594
deputy 17591
whenever 17591
unilateral 17589
一贯 17589
优惠 17589
ja 17581
arranged 17577
worker 17573
sake 17572
Taiwan 17569
san@@ 17568
eted 17566
号码 17561
清晰 17561
坐下 17560
revolution 17559
中国政府 17558
戏@@ 17553
直至 17551
民事 17550
优质 17547
许 17542
大人 17541
Promotion 17535
薪酬 17534
Life 17533
CP.@@ 17532
visible 17519
fications 17514
亮@@ 17514
尽力 17512
池 17511
话题 17511
coast 17510
国防 17509
参与者 17508
饮食 17507
holiday 17506
阀 17505
一架 17502
体内 17502
样品 17502
善 17499
tracking 17497
CA 17496
亚太 17496
acquired 17494
粒 17492
泉 17487
prosperity 17486
管理系统 17486
At@@ 17484
节点 17482
advancement 17481
等于 17481
俗 17478
点儿 17477
紧密 17475
pulled 17474
房地产 17474
筒 17471
eries 17470
steady 17468
sovereign 17466
列为 17464
dam@@ 17462
mess@@ 17459
tech 17459
仿真 17459
america 17458
国际法院 17458
leg@@ 17457
天空 17457
ord@@ 17454
pregnancy 17454
jump 17452
talent 17448
Direc@@ 17447
spare 17446
弗 17442
Op@@ 17440
giant 17440
Additional 17438
considerations 17436
regul@@ 17436
直升机 17434
季@@ 17433
Perhaps 17432
vers@@ 17429
京都 17428
回报 17426
doors 17424
sand 17422
接口 17416
Ph@@ 17413
协调一致 17413
撒 17412
明星 17412
波动 17412
counsel 17410
操@@ 17410
tells 17409
中部 17409
凶手 17409
sin 17407
thermal 17407
流量 17407
纵@@ 17405
asylum 17404
彩 17394
chlor@@ 17390
May@@ 17387
股份 17385
ministers 17380
带到 17378
紧急情况 17378
配备 17368
imports 17365
Algeria 17359
Frank 17358
欠@@ 17357
deposit 17355
dust 17351
flower 17344
印刷 17344
消灭 17343
dimensions 17342
marks 17342
选出 17341
暴 17339
模糊 17338
Ni@@ 17336
rain@@ 17335
自主 17335
cer 17334
淡@@ 17333
组织@@ 17331
著@@ 17330
蓝色 17330
察@@ 17328
舍 17328
gging 17327
今@@ 17327
surprised 17323
南南合作 17323
swear 17321
mid-@@ 17314
dig@@ 17313
Bal@@ 17308
印发 17306
DA@@ 17305
girlfriend 17305
无关 17303
victory 17301
向前 17301
UNOPS 17299
blame 17299
孤@@ 17299
十一届 17294
琳 17293
背后 17289
支撑 17286
保持@@ 17284
削弱 17284
回归 17284
斯里兰卡 17284
ined 17283
weird 17282
vessels 17278
克罗地亚 17275
ther 17274
领取 17274
Torture 17271
dates 17270
meters 17266
graduate 17264
延伸 17262
缓@@ 17262
种子 17261
aggression 17260
envisaged 17260
料@@ 17254
同性恋 17252
鲍@@ 17251
轻武器 17249
mal 17245
high@@ 17244
授予 17242
天然气 17237
动员 17236
原始 17236
一本 17235
spec@@ 17230
服装 17230
gged 17229
问责 17228
品种 17225
隆@@ 17225
保密 17223
infl@@ 17219
轨 17219
socio-economic 17216
score 17211
输 17209
fix@@ 17207
projected 17207
Greek 17204
dying 17202
这座 17202
reportedly 17201
ave 17200
mg 17200
younger 17195
performing 17194
parent 17193
委@@ 17192
com 17191
炮 17186
滚 17184
黑人 17184
aside 17182
cable 17182
排斥 17182
顿@@ 17182
dre@@ 17181
招募 17181
cus@@ 17180
UNRWA 17179
窗 17178
迄今为止 17175
遣返 17175
工程@@ 17172
分庭 17171
蛋白质 17171
ailing 17169
crew 17169
广 17168
因子 17167
Ob@@ 17162
sons 17162
一致性 17162
所有权 17160
lev@@ 17146
ram@@ 17144
城镇 17143
甲基 17137
锁@@ 17134
hab@@ 17133
harmful 17130
cleaning 17126
pped 17125
Austria 17124
bi 17120
强有力 17120
艇 17120
庆@@ 17119
糖@@ 17119
薄 17119
反馈 17115
hardware 17111
在家 17111
excessive 17110
ker@@ 17103
smoking 17103
Bangladesh 17102
黄金 17102
伙 17101
self-determination 17095
一遍 17093
岩@@ 17083
underlying 17078
ST 17077
strictly 17067
争论 17066
strain 17062
kes 17058
shaped 17057
kin@@ 17054
noticed 17054
高中 17053
japanese 17052
capit@@ 17051
航 17045
TR@@ 17043
votes 17040
s. 17039
炸@@ 17031
separated 17028
nutrition 17027
airspace 17022
allowance 17020
注意力 17019
氧化 17012
王国 17012
患@@ 17010
艺 17010
ze@@ 17008
愚蠢 17008
增长率 17007
Greece 17001
belonging 16993
anc@@ 16990
背 16987
experiments 16982
划 16980
熊 16980
suspect 16978
院@@ 16977
不住 16973
Process 16971
挑@@ 16971
decent 16970
threatened 16970
习俗 16970
Guinea 16969
共计 16969
adequately 16964
得不到 16962
kiss 16961
菌@@ 16958
meth@@ 16956
扮演 16956
聚集 16956
signature 16955
Meanwhile 16952
guest 16950
欧洲@@ 16950
atives 16949
娱乐 16944
comm@@ 16939
High-level 16936
受欢迎 16936
journey 16935
relate 16934
replacement 16934
冒险 16934
责@@ 16933
terrorists 16928
出口@@ 16926
CRC 16924
分列 16924
Open 16923
应力 16921
乘 16919
喀@@ 16913
动脉 16907
玛丽 16907
乘客 16902
太空 16901
乔 16900
催化剂 16897
所用 16895
展览 16888
挥@@ 16888
moves 16886
dor@@ 16885
― 16883
FIG 16882
村庄 16882
钟 16881
Measures 16880
revision 16879
文化@@ 16877
suppose 16876
stuck 16875
sole 16874
惊讶 16873
活跃 16872
Fre@@ 16868
定为 16866
TO@@ 16865
sch@@ 16865
代表性 16865
phosph@@ 16860
塞尔维亚 16860
cuts 16858
fellow 16855
缩小 16854
bomb 16853
brothers 16852
卡车 16850
购@@ 16850
Ra@@ 16849
focuses 16848
encies 16846
裤 16844
hunger 16843
Don@@ 16842
propose 16842
乐观 16839
席 16836
insul@@ 16834
Belarus 16829
na@@ 16829
坎@@ 16829
所知 16829
briefing 16828
bonds 16827
ministries 16827
运营 16827
罩 16826
apping 16822
tank 16822
lake 16815
人家 16812
撤销 16810
框 16809
皇@@ 16809
疟疾 16806
explosive 16802
inst@@ 16801
sleeping 16800
peak 16798
grand 16797
视察 16797
106 16794
操 16794
海洋法 16791
conjunction 16790
grain 16790
skilled 16785
家属 16782
nation@@ 16780
wat@@ 16779
guided 16778
世贸组织 16777
unt 16775
艺术家 16773
剩余 16771
automatically 16770
IG@@ 16765
Ministerial 16765
葡萄牙 16765
logistics 16763
chamber 16761
Rem@@ 16759
舒@@ 16759
log@@ 16758
申请人 16758
像@@ 16757
倡导 16756
涉@@ 16756
生产力 16749
repeated 16743
脂 16738
Noting 16737
ren 16736
plas@@ 16734
embargo 16733
historic 16732
辩护 16732
部落 16730
captain 16729
ens@@ 16728
引用 16727
广场 16725
Someone 16723
欣赏 16723
Sam 16722
黄 16720
Cambodia 16719
continent 16719
码@@ 16716
阳 16710
Bush 16709
影片 16709
characterized 16708
IX 16706
poses 16695
explo@@ 16693
introducing 16689
○ 16689
vely 16685
fraud 16683
新鲜 16682
Hy@@ 16681
人为 16680
钟@@ 16679
TION 16678
同步 16678
氟 16672
skill 16670
ature 16669
办理 16666
reviewing 16665
expresses 16664
隆 16664
密码 16663
桌子 16662
那位 16662
sport 16660
Hon@@ 16659
bin@@ 16659
12.@@ 16658
之处 16658
Agriculture 16657
Activities 16656
analytical 16652
DE@@ 16648
contemporary 16648
pressed 16646
ore@@ 16645
Everyone 16644
裂 16644
HR@@ 16643
spr@@ 16642
灾@@ 16642
ity-@@ 16638
citizen 16637
文献 16637
atten@@ 16635
安全部队 16635
这会 16633
彼得 16631
万人 16629
induced 16625
decides 16624
organ 16623
滋@@ 16623
sters 16617
aven@@ 16614
outreach 16614
Still 16613
oid 16611
dar@@ 16610
linear 16606
Palestinians 16603
贸易法 16601
providers 16600
long@@ 16599
念@@ 16597
姐姐 16595
权益 16592
Nevertheless 16590
bot@@ 16588
面包 16585
Four 16583
选定 16583
会员 16581
粮食安全 16581
饮料 16580
该法 16578
迎@@ 16577
看出 16575
马克 16574
apple 16573
放下 16569
Cam@@ 16568
surveys 16568
outputs 16566
fallen 16565
现已 16561
泛@@ 16560
指挥官 16559
cultures 16557
invasion 16557
同志 16557
winning 16555
Ma 16553
一对 16552
ought 16550
genuine 16546
探 16546
dol@@ 16543
国际标准 16541
援助团 16541
轴@@ 16541
height 16536
Na@@ 16530
似的 16530
水资源 16528
stu@@ 16527
transnational 16526
争 16526
委内瑞拉 16526
责 16526
assumed 16525
convenient 16524
不停 16522
surrounding 16519
serves 16518
携带 16518
tail 16512
ski 16508
吞@@ 16508
一类 16506
ful@@ 16502
instances 16502
生日 16502
发育 16501
dering 16500
高等教育 16499
declined 16495
样本 16494
nt 16493
val 16492
ained 16491
responded 16489
支柱 16489
plenty 16488
最小 16488
置于 16488
维尔 16486
势力 16485
sit@@ 16484
Treatment 16482
乡村 16481
villages 16480
uan 16478
仇外 16474
事宜 16473
securities 16472
布鲁@@ 16470
便宜 16466
经验教训 16465
毫无@@ 16461
Sol@@ 16458
blocks 16457
fed 16454
ecological 16451
bottle 16450
mes 16450
公认 16447
雾 16447
从不 16446
技@@ 16446
th-@@ 16445
inch 16443
machines 16443
净@@ 16441
EM 16440
mercury 16439
条文 16435
烈 16432
aked 16431
otic 16431
裔 16431
子弹 16430
wan 16429
国政府 16427
equipped 16425
力度 16422
酮 16422
安哥拉 16420
石头 16419
chicken 16409
克里@@ 16409
足球 16407
剂量 16404
生产总值 16404
增多 16397
Youth 16395
smo@@ 16394
卡尔 16393
5,000 16392
Ros@@ 16391
clo@@ 16387
valve 16386
拼@@ 16384
CN.9 16382
Instead 16377
并不@@ 16376
随便 16374
firmly 16371
强调指出 16369
职权范围 16369
幻@@ 16367
financed 16364
Italian 16362
年间 16360
屈@@ 16358
嘉@@ 16357
necessity 16355
诗@@ 16352
Ti@@ 16351
金钱 16351
transfers 16348
ation-@@ 16346
enormous 16346
微笑 16346
illa 16345
Next 16344
戈 16343
依法 16341
Whatever 16340
病例 16340
beer 16338
之际 16337
Ed@@ 16336
grass 16336
lar@@ 16335
fewer 16333
intensive 16331
文档 16329
般 16329
珠@@ 16327
器官 16324
模 16322
advances 16316
generations 16316
stored 16314
拔 16314
奖励 16313
discriminatory 16312
Wi@@ 16307
帐 16307
so-called 16306
次数 16302
振 16298
sex@@ 16295
elsewhere 16294
eggs 16292
卫 16290
之所以 16288
tou@@ 16286
侧@@ 16286
术@@ 16285
签证 16283
敌 16282
监察员 16281
extr@@ 16278
speaker 16278
境@@ 16274
accession 16273
destination 16273
包容性 16270
失业率 16270
organizing 16268
忍@@ 16267
Er@@ 16263
Ke@@ 16263
shooting 16261
aming 16260
ble@@ 16259
墨@@ 16258
这部 16258
book@@ 16251
beam 16249
Mad@@ 16243
Representatives 16243
担@@ 16241
phen@@ 16238
惠 16235
掌@@ 16235
星期三 16235
Kyoto 16234
oth 16233
责任@@ 16232
研发 16231
扫描 16229
Gar@@ 16228
司法@@ 16228
enjoyed 16225
决 16224
远离 16224
苏 16222
heaven 16221
奶@@ 16220
person@@ 16217
ee 16215
滑 16213
tiny 16210
扣@@ 16209
rep@@ 16204
pipe 16199
killer 16196
recognizing 16196
logic 16192
sa 16192
Peoples 16191
赞@@ 16189
转递 16189
ulated 16188
呈现 16188
汁 16187
heritage 16186
queen 16184
requesting 16184
CM@@ 16182
addi@@ 16181
conversion 16181
伏 16181
爬 16181
P-@@ 16180
Similarly 16178
厉害 16178
helpful 16177
盲@@ 16176
说服 16176
星期二 16175
素质 16173
Environmental 16171
大力 16167
accelerate 16164
gal@@ 16163
Hoc 16162
windows 16159
氢 16158
Within 16155
worthy 16154
三种 16154
SU@@ 16152
习@@ 16151
CP@@ 16148
阵 16147
maritime 16141
feeding 16140
暴露 16138
stresses 16137
烦 16136
analyze 16135
不当 16135
宣称 16134
rolling 16133
罚款 16132
无效 16130
灵活性 16128
故 16127
9-@@ 16125
menting 16125
0,000 16124
yp@@ 16124
豆@@ 16124
日起 16123
这笔 16122
等级 16121
终了 16117
搬 16116
hill 16115
阿拉@@ 16109
统@@ 16107
feedback 16106
国别 16103
缓 16102
室@@ 16101
ruling 16099
voting 16097
1978 16096
菜@@ 16096
决策者 16095
Head 16094
乡 16094
电信 16094
脸上 16094
College 16091
tenth 16089
mobility 16088
星期四 16088
免 16087
阶层 16086
belong 16084
Out@@ 16083
possession 16080
Eritrea 16079
心情 16078
联刚 16078
一面 16077
危地马拉 16077
遗传 16076
discusses 16074
nucle@@ 16074
何时 16073
发给 16072
ultimately 16071
女生 16068
友谊 16064
传送 16062
7-@@ 16058
invest 16057
哲学 16057
配偶 16057
Roma 16056
激光 16056
lord 16054
Armed 16053
临 16053
颗 16050
anticipated 16048
repl@@ 16048
信通 16048
realistic 16047
shar@@ 16047
strait 16047
heavily 16044
confirm 16043
Stay 16040
外交部长 16035
夫妇 16035
broad@@ 16032
感激 16032
San@@ 16027
领空 16027
艘 16022
remedy 16021
Under@@ 16013
Sri 16009
limitations 16009
NE@@ 16006
black@@ 16006
Nepal 16005
汤 16005
杨@@ 16004
规章 16004
磷@@ 16002
核可 15998
deli@@ 15997
Mac@@ 15995
maker 15995
办公@@ 15994
排放量 15993
recall 15991
犹@@ 15991
get@@ 15990
奈@@ 15988
全都 15985
发动机 15985
喊 15984
腺 15982
Ass@@ 15981
suspended 15981
fifty-@@ 15979
苏联 15977
chronic 15975
generating 15974
ough 15974
盛 15973
不敢 15972
珠 15970
survive 15969
智能 15969
lesson 15966
三次 15963
时限 15955
regret 15954
wet 15954
Saturday 15952
牢@@ 15947
苯 15939
解除武装 15938
thou 15936
UK 15932
virtual 15932
servants 15928
干燥 15928
巡逻 15925
漂@@ 15923
eve 15917
mountains 15916
AT 15914
Cs 15914
manual 15914
nic@@ 15912
uck@@ 15912
开会 15911
ects 15909
午餐 15908
108 15905
Rio 15903
hungry 15899
甚@@ 15897
英寸 15896
subscri@@ 15894
ope 15888
审评 15887
VIII 15886
@ 15883
hoping 15882
crowd 15881
eth 15881
梅 15879
屁股 15875
2016 15869
块@@ 15867
爆@@ 15866
铺@@ 15866
wages 15864
勇气 15864
古老 15864
自行车 15864
sect 15863
外交@@ 15861
征 15861
respected 15860
confident 15859
long-@@ 15859
节省 15858
插入 15857
播 15857
里克 15855
break@@ 15854
疏@@ 15845
Fine 15844
pot 15843
道理 15842
0.5 15840
C-@@ 15839
damaged 15839
ocy@@ 15832
IMF 15831
Dem@@ 15830
火箭 15828
ji 15826
护士 15826
宣@@ 15825
bes 15823
床上 15822
溶@@ 15822
特区 15822
列表 15820
个案 15819
suicide 15817
籍 15816
installation 15814
ashed 15812
铜 15812
原子 15809
使命 15808
jun@@ 15807
whereas 15806
recording 15802
投资@@ 15802
精力 15802
secured 15801
路径 15801
aw 15800
transmitting 15799
联合国开发计划署 15799
检查@@ 15798
California 15794
hot@@ 15794
well-being 15794
瓜 15794
eligible 15793
staying 15788
复制 15788
thi@@ 15785
reflecting 15783
短缺 15782
oms 15777
逼 15776
reads 15774
宾 15773
attract 15772
难以@@ 15772
污染物 15769
Study 15768
六个月 15766
知情 15766
eing 15765
这点 15765
笑@@ 15756
郎 15755
考 15754
认 15753
送给 15751
调查@@ 15749
mitigation 15746
席位 15746
交易@@ 15744
Assessment 15741
民主党 15741
没法 15739
heating 15737
饰 15737
Strengthening 15733
communicate 15732
还应 15729
lear@@ 15728
成人 15728
人口@@ 15724
可见 15723
adjusted 15722
coat 15722
consolidation 15721
112 15719
War@@ 15719
司长 15718
广播@@ 15718
111 15717
顺序 15714
Peacebuilding 15711
ware 15709
nervous 15703
Cha@@ 15697
法律援助 15697
clothing 15696
彼@@ 15693
II@@ 15692
硬件 15692
个体 15691
particles 15690
vessel 15690
shr@@ 15689
roc@@ 15687
荷 15686
pm 15680
ied 15679
commodities 15678
tured 15678
guns 15674
techn@@ 15673
营销 15672
voc@@ 15665
Lee 15664
borne 15661
申@@ 15661
boyfriend 15657
蛇 15653
delays 15650
ip 15650
脉@@ 15650
局部 15648
ells 15647
pros@@ 15647
弹性 15647
hidden 15643
ining 15641
续@@ 15640
wireless 15639
贫困@@ 15638
injection 15635
Hel@@ 15634
eas@@ 15632
跌@@ 15632
早晨 15630
IF@@ 15629
identi@@ 15627
annually 15625
commended 15625
toler@@ 15622
售@@ 15621
Tran@@ 15619
混凝土 15618
rot@@ 15617
astic 15608
弥补 15608
年级 15606
填补 15605
巧 15603
香港@@ 15603
议@@ 15602
事儿 15601
报酬 15597
UNO@@ 15596
1373 15595
band@@ 15594
航空@@ 15593
祖国 15592
Joe 15590
adjustments 15590
花园 15588
remarks 15587
tape 15583
beneficial 15582
我家 15582
旅游业 15581
ex 15580
江泽民 15580
Budget 15578
去世 15578
度过 15578
magic 15575
restructuring 15574
这事 15574
开设 15573
les@@ 15571
loaded 15571
continuously 15570
男女平等 15569
doc@@ 15565
incentives 15565
joy 15565
On@@ 15563
pump 15562
treating 15560
cle@@ 15558
knowing 15558
sen 15558
Call 15555
accountable 15555
中文 15553
satisfactory 15549
freely 15548
boost 15545
len 15544
tile 15540
checked 15537
divorce 15536
occurs 15532
split 15532
修建 15532
北方 15527
限@@ 15525
eting 15524
链接 15523
hat 15521
prob@@ 15519
试试 15519
浸@@ 15517
compu@@ 15516
partial 15516
tot@@ 15514
Pi@@ 15512
索赔人 15511
Operation 15509
Gre@@ 15502
reputation 15502
Peru 15501
vari@@ 15500
玩具 15499
utilized 15498
鉴定 15497
ultimate 15495
谷歌 15495
庭 15494
手指 15490
Spe@@ 15488
logical 15488
Oversight 15487
v. 15487
admit 15485
芬 15485
izes 15481
赤字 15481
prohibition 15480
burning 15479
亲自 15476
袭 15476
settled 15473
咨询服务 15473
complexity 15471
肌@@ 15470
玉@@ 15469
distinction 15467
installed 15466
mist@@ 15465
1970 15464
ion@@ 15462
不满 15462
折 15461
Investment 15458
diff@@ 15455
Fl@@ 15454
aur@@ 15454
european 15454
Think 15453
clearance 15453
孙@@ 15451
亚美尼亚 15450
narrow 15444
厚@@ 15442
专用 15441
望@@ 15439
Employment 15437
Defence 15436
yed 15436
普及 15436
ard@@ 15432
potentially 15429
下文 15428
basically 15424
linkages 15422
overview 15422
pack 15421
opposed 15417
tears 15414
豪@@ 15411
drunk 15409
一间 15409
ogen@@ 15407
settle 15407
inform@@ 15406
多哈 15405
确信 15405
RC 15397
普通@@ 15394
meaningful 15390
国内外 15388
趋@@ 15380
评 15379
bles 15378
trials 15377
关税 15374
碎片 15373
招聘 15372
租 15372
描@@ 15371
Guidelines 15370
候@@ 15369
廉@@ 15368
经济学家 15368
色情 15362
holder 15360
兼@@ 15358
Chi@@ 15357
查阅 15356
eter@@ 15352
diver@@ 15351
abor@@ 15350
Robert 15349
村@@ 15346
脏 15346
产品@@ 15345
试点 15345
委托 15344
Resolution 15343
fisheries 15343
zy 15342
alternatives 15340
侧重于 15340
Ken@@ 15339
宜 15336
离职 15336
supervis@@ 15331
coherent 15329
.... 15326
and-@@ 15326
hydr@@ 15325
一词 15323
踏@@ 15321
IDB.@@ 15319
sudden 15319
走进 15318
计量 15316
inter-agency 15315
renewed 15314
Poland 15312
di 15312
积累 15312
ella 15310
esti@@ 15308
http 15308
mess 15308
mir@@ 15308
answered 15307
laboratory 15306
遥@@ 15306
捐助国 15303
tain 15301
branches 15299
serv@@ 15295
健全 15294
同等 15293
unknown 15292
显 15289
Region 15287
书记 15287
无线 15287
渗@@ 15285
injuries 15284
matrix 15283
ga 15282
可行性 15279
responding 15277
洲 15276
大大@@ 15274
有辱 15272
constitution 15270
Pres@@ 15267
answers 15267
reiterates 15267
begins 15266
by@@ 15265
receipt 15265
key@@ 15264
怒 15263
我刚 15263
array 15262
actu@@ 15260
湾@@ 15260
permitted 15257
实力 15257
emerged 15255
usage 15255
选项 15254
开关 15252
色彩 15252
june 15251
冠@@ 15251
ush 15247
circle 15245
diet 15243
联邦政府 15243
ed-@@ 15237
市长 15237
residential 15235
柯@@ 15235
inputs 15233
oxygen 15232
总共 15232
家园 15231
线索 15230
肯 15230
ories 15229
阵@@ 15228
chang@@ 15227
personality 15225
关押 15225
日前 15224
老鼠 15224
institute 15222
运送 15222
冰箱 15221
行星 15220
P-3 15219
开办 15217
ho 15216
首相 15216
购 15214
职员 15213
alls 15211
mul@@ 15209
主导 15201
凸@@ 15200
开幕 15198
magazine 15195
变形 15191
mutually 15190
peacebuilding 15188
讯 15188
葡萄@@ 15187
催@@ 15185
目的地 15184
advertising 15183
arrive 15183
copies 15183
冒@@ 15179
thir@@ 15175
一颗 15174
剑 15172
─ 15171
comfort 15170
emotional 15170
films 15170
屏幕 15168
desirable 15163
序 15163
救援 15162
遗产 15160
叙述 15159
childhood 15157
交往 15157
mandatory 15155
gathered 15154
家具 15154
整理 15154
Budgetary 15153
abl@@ 15152
WG@@ 15151
class@@ 15150
验 15150
shock 15147
Equ@@ 15146
check@@ 15146
pum@@ 15146
yo 15146
amine 15144
biodiversity 15144
.5 15141
遇 15138
gathering 15133
全球性 15133
要说 15133
鼻@@ 15131
Trafficking 15129
flo@@ 15129
童@@ 15128
preserve 15126
dish 15125
waves 15125
军人 15125
fs@@ 15124
anda 15122
hos@@ 15121
enabled 15119
ET 15117
commonly 15112
合金 15111
harassment 15109
装饰 15101
advis@@ 15100
diverse 15097
flag 15096
fri@@ 15096
reverse 15094
apparent 15092
震惊 15091
ken 15087
尘@@ 15085
错过 15083
巧克力 15080
开采 15078
第一届 15077
scar@@ 15076
cin@@ 15075
要点 15071
wisdom 15070
邻居 15068
典@@ 15066
沙特阿拉伯 15065
心中 15063
tioned 15062
忙@@ 15062
assessing 15061
protective 15060
inequality 15056
灭@@ 15056
idity 15055
Calls 15054
岗位 15054
控制器 15054
amounted 15050
电视@@ 15050
努@@ 15046
远程 15046
令@@ 15045
shirt 15043
强制性 15042
fairly 15040
symptoms 15040
turing 15040
loading 15035
partly 15035
虎 15035
sponsors 15033
一杯 15032
躲@@ 15031
landscape 15030
店@@ 15029
名为 15028
盗@@ 15028
exc@@ 15026
cloud 15025
cake 15024
包容 15024
besides 15023
祈祷 15023
routine 15020
offset 15019
yan 15019
stores 15018
签 15015
脊@@ 15013
扶@@ 15012
momentum 15010
缺点 15010
冻结 15007
shelter 15005
范畴 15005
Finland 15004
consolidated 15004
闭嘴 15003
gly@@ 15002
twenty 15002
拟@@ 15002
BO@@ 15001
椅 15000
addresses 14999
cheap 14999
su 14996
舱 14996
orph@@ 14995
观看 14995
月底 14992
犹太人 14991
铺 14991
Fuck 14990
牛奶 14990
这时 14990
ond 14989
精度 14989
mix 14986
repeatedly 14986
一篇 14986
Mike 14984
召集 14983
吊@@ 14983
复合 14983
农 14977
SBI 14975
tem@@ 14969
销@@ 14967
philosophy 14966
procedural 14966
Recognizing 14965
exercises 14963
seized 14961
103 14959
勤@@ 14956
滴 14955
使用者 14954
尊敬 14954
returning 14953
肥 14951
其后 14950
transitional 14946
神秘 14943
独立性 14942
Master 14941
生育 14941
201@@ 14939
Besides 14938
elec@@ 14937
厄瓜多尔 14935
转交 14935
arise 14933
加热 14932
锋 14931
Off@@ 14929
复原 14929
运输@@ 14928
借口 14927
俄 14926
lovely 14924
arbitration 14920
islands 14917
区域合作 14916
int 14913
股市 14908
Five 14906
能源@@ 14906
场合 14903
bom@@ 14901
十五届 14899
11.@@ 14898
氟@@ 14898
suspension 14893
judgment 14892
课题 14892
P-4 14890
一日 14886
classified 14885
originally 14882
街@@ 14881
大多 14880
itting 14879
统计@@ 14879
缴 14878
extradition 14877
傻 14877
旁@@ 14877
滴@@ 14876
roof 14875
HO@@ 14874
enn@@ 14874
Star@@ 14870
gam@@ 14869
short@@ 14868
佐@@ 14867
不出 14865
rum@@ 14863
纽@@ 14862
ected 14856
尽早 14851
蒙古 14851
脂肪 14850
铜@@ 14846
Notes 14843
ammunition 14841
饿 14841
bin 14830
codes 14829
upset 14826
荣 14826
fts 14825
restore 14825
仪器 14824
belt 14823
烃 14822
街道 14822
pursuit 14821
大学生 14820
银 14820
detainees 14818
淡 14816
existed 14815
预算外 14815
央行 14814
Intergovernmental 14813
iss@@ 14813
瞧 14811
诚 14811
constituted 14809
customary 14805
ements 14803
西岸 14803
exit 14802
尼斯 14801
驾@@ 14801
窗户 14798
ano 14797
pay@@ 14795
suggestion 14795
管理层 14795
Hotel 14793
Big 14789
viol@@ 14788
东京 14788
帕 14788
迁移 14788
delayed 14787
擦@@ 14787
Analysis 14786
cargo 14786
mood 14786
passengers 14784
seas 14784
空间@@ 14784
wheel 14783
1949 14782
tar@@ 14781
aker 14779
舞台 14777
cream 14770
Hun@@ 14769
awa 14768
wash 14766
frequent 14765
罗马尼亚 14763
Tim@@ 14762
renewable 14755
permission 14754
ca 14753
negotiating 14751
提高认识 14751
树脂 14748
deemed 14747
april 14746
芳@@ 14745
粒@@ 14743
Standing 14742
profound 14741
件事 14741
oxide 14738
parking 14738
Between 14736
巾 14735
Using 14734
retirement 14734
隐藏 14732
含义 14729
妳 14728
alled 14726
breath 14726
hero 14725
七届 14722
推 14721
Harry 14714
interactive 14710
Auditors 14709
凡@@ 14709
Croatia 14708
响@@ 14708
Observer 14706
defend 14704
海盗 14704
choices 14703
移植 14703
确切 14701
充分@@ 14700
免受 14697
未成年人 14697
辨@@ 14695
ification 14692
play@@ 14692
rational 14691
Actually 14690
assistant 14690
积 14690
tangible 14686
rats 14684
Area 14683
权限 14682
targeting 14680
Serbia 14673
paint 14673
倍@@ 14673
打扰 14673
疼 14673
一笔 14671
治安 14671
respon@@ 14670
无需 14670
围 14669
GM 14668
consistently 14666
带走 14666
从中 14664
联合@@ 14662
feasible 14660
competitiveness 14658
六年 14656
affects 14655
扩张 14655
.3 14652
gun@@ 14650
unions 14647
蜂@@ 14647
extraordinary 14646
Hor@@ 14645
photos 14645
ress 14642
室内 14642
SBSTA 14641
sentenced 14638
admitted 14635
Yu@@ 14634
apparently 14634
总会 14634
1981 14632
watched 14632
散发 14632
此前 14632
socialist 14630
apparatus 14629
ree 14629
覆盖@@ 14624
陷@@ 14624
dare 14621
eigh@@ 14619
势@@ 14619
音乐@@ 14619
default 14614
债权人 14614
育@@ 14613
cy 14612
Ta@@ 14611
odi@@ 14611
此后 14611
秀 14610
杀伤 14609
arrival 14607
喝酒 14606
catalyst 14605
ME 14604
post-conflict 14599
struck 14599
好多 14598
allegedly 14597
liaison 14594
designing 14590
tow@@ 14588
Communications 14587
grav@@ 14586
ood 14583
过分 14583
承 14582
pursued 14580
战略@@ 14580
ome@@ 14579
存款 14579
象征 14579
harder 14578
帐@@ 14578
致命 14576
合约 14575
总干事 14575
1990s 14574
姓名 14573
寻@@ 14572
斗@@ 14570
脆弱性 14570
recalls 14569
1984 14564
consisting 14564
hosted 14564
gentlemen 14562
inated 14560
洪@@ 14560
YOU 14558
体重 14555
Land 14553
压缩 14552
forgot 14551
目前为止 14551
tickets 14550
登记册 14549
肌肉 14549
enforced 14548
崩溃 14547
attractive 14543
十五 14543
seed 14542
疗法 14542
Doha 14541
时光 14541
居然 14540
Over@@ 14539
川 14539
nuclear-weapon 14537
态@@ 14537
above-mentioned 14532
hazardous 14531
cruel 14529
堆@@ 14528
游泳 14528
native 14526
chen 14523
中等 14521
蔬菜 14521
container 14520
Nic@@ 14519
bud@@ 14519
four@@ 14519
报复 14519
荣幸 14516
女朋友 14515
当今 14513
evaluations 14512
竟然 14512
缝 14512
breach 14510
不但 14510
洛杉矶 14509
方程 14508
弥@@ 14507
窗口 14507
Chang@@ 14505
垫 14503
Love 14500
ere 14498
一体 14498
Procedure 14495
加纳 14492
必要措施 14491
Back 14490
麦 14488
july 14484
persistent 14484
不去 14481
君@@ 14481
塑料 14481
报导 14481
notably 14479
spoken 14479
Dou@@ 14475
sentences 14472
attacked 14467
meanwhile 14464
quit 14463
meets 14457
ounding 14456
株 14453
桩 14452
不上 14449
忠@@ 14448
凶@@ 14445
正当 14439
祖@@ 14438
生计 14437
porting 14435
熟 14433
incorporate 14431
仍@@ 14429
employer 14428
shell 14428
facilitated 14425
verse 14424
Tor@@ 14423
比尔 14423
Reduction 14421
第三方 14415
curriculum 14412
indicating 14412
扬@@ 14410
Watch 14409
Fr@@ 14405
sufficiently 14404
败 14404
大西洋 14402
attributable 14400
已知 14400
insp@@ 14398
勇敢 14398
蛋糕 14388
indicator 14387
polymer 14383
mainstream 14382
公主 14382
bread 14381
democr@@ 14381
证件 14381
ladies 14380
八届 14375
中断 14374
更换 14372
rough 14371
edi@@ 14368
liber@@ 14366
submissions 14366
赚 14364
支配 14363
jail 14362
acked 14359
不变 14359
tall 14357
尘 14357
斜@@ 14356
逃 14356
CC 14352
stly 14351
vacancy 14347
冒 14345
分组 14345
仇恨 14344
ado 14343
laugh 14342
社交 14342
drought 14341
府 14340
价格@@ 14337
bow 14335
conscious 14332
组建 14332
shipping 14331
臂 14329
cam@@ 14328
耶路撒冷 14328
dirty 14327
initially 14327
三分之一 14323
pa 14322
bat@@ 14321
knife 14320
化学武器 14320
可不 14320
mad@@ 14319
抑@@ 14319
沃尔@@ 14317
环节 14317
军备 14316
inhi@@ 14314
街头 14314
adap@@ 14313
忽略 14313
champ@@ 14311
deficit 14308
特权 14308
consequence 14307
rat 14307
lion 14306
ili@@ 14302
nel 14301
署长 14301
Ren@@ 14300
aks 14300
培训班 14300
无辜 14298
Issues 14297
ex-@@ 14297
hai 14292
crops 14290
朝鲜民主主义人民共和国 14290
congress 14286
itable 14286
kg 14285
thick 14284
时机 14283
防御 14283
Consul@@ 14282
connect 14282
不起 14280
irs 14278
遮@@ 14278
shor@@ 14272
解放 14268
信念 14267
正好 14267
GS 14262
u.s. 14262
轻 14261
tied 14259
1.1 14257
怀 14256
裁谈会 14256
第二条 14253
琴 14250
herein 14248
assure 14246
清洗 14246
当事方 14245
exact 14244
财务@@ 14244
本周 14242
compulsory 14241
1973 14240
past@@ 14240
佳@@ 14239
王子 14239
挤@@ 14238
美国政府 14235
constructed 14234
ential 14234
spiritual 14234
controller 14232
人工 14231
偿 14230
ased 14225
睡眠 14225
warm@@ 14224
查看 14222
电极 14222
3rd 14221
V. 14220
Vice-@@ 14220
乍得 14219
十二届 14219
变量 14219
整 14216
言论自由 14215
伪@@ 14214
判 14209
制成 14209
fortune 14205
察 14205
我爱你 14205
122 14200
dil@@ 14199
司法部 14199
核实 14199
帽子 14195
天使 14193
Industrial 14192
账@@ 14192
深度 14184
intensity 14182
机理 14182
distribu@@ 14181
exhibition 14181
feasibility 14181
und@@ 14178
OP@@ 14177
chair@@ 14177
movies 14177
utility 14177
fav@@ 14175
大于 14173
Arabia 14172
itate 14172
shan 14172
neighbouring 14171
olo@@ 14171
蒸@@ 14170
Free 14169
emission 14166
契约 14166
权威 14166
损坏 14165
1979 14164
capture 14163
GEF 14158
short-term 14157
回忆 14155
phil@@ 14153
大鼠 14150
选手 14150
hurry 14149
作出贡献 14149
家庭成员 14149
期内 14148
notification 14146
处在 14146
民族@@ 14146
safeguard 14144
忧@@ 14144
昏@@ 14143
糖尿病 14143
磨 14140
铭记 14140
无论如何 14138
Pursuant 14137
intolerance 14135
中非共和国 14135
row@@ 14133
欣@@ 14133
illness 14130
string 14130
也门 14126
肩@@ 14126
拥@@ 14125
办公 14124
Belgium 14123
appreciated 14123
approve 14123
conducive 14123
114 14119
Lanka 14119
nearby 14119
律@@ 14117
救助 14116
operated 14115
韩@@ 14114
sto@@ 14113
赛季 14112
烷基 14111
News 14110
哈萨克斯坦 14110
奠定 14110
eh 14107
stayed 14105
railway 14099
滤@@ 14099
UL@@ 14096
vertical 14095
defenders 14094
warned 14093
护照 14093
Guatemala 14092
pin@@ 14092
北爱尔兰 14092
MDGs 14090
enhancement 14090
再生能源 14088
accommodation 14087
precision 14086
emphasize 14082
symbol 14076
equi@@ 14075
govern@@ 14072
balances 14070
详情 14070
迟 14070
载体 14066
平静 14063
庞大 14062
cost-@@ 14059
尽管如此 14059
常用 14059
Under-Secretary-General 14058
Guide 14056
2008-2009 14055
brown 14055
themes 14055
内心 14052
朗@@ 14052
cep@@ 14051
colour 14051
ump 14042
deserve 14041
prece@@ 14040
processed 14040
企业家 14040
Isn 14039
绕@@ 14035
天堂 14034
consultants 14033
succeed 14031
麻 14031
Conventions 14030
placement 14028
突破 14028
标准化 14027
crow@@ 14024
essentially 14019
conviction 14017
均@@ 14017
上市 14014
壁@@ 14014
incurred 14013
relatives 14013
队@@ 14012
第七@@ 14011
imag@@ 14007
demobilization 14006
高质量 14003
oz@@ 14002
iring 14001
忍受 14000
舍@@ 14000
concentrated 13997
一台 13997
shoulder 13996
虚拟 13996
wr@@ 13995
progressive 13994
吸引力 13992
界面 13987
它会 13986
自信 13986
russia 13985
ara 13983
precise 13980
志 13980
杂 13977
Medical 13975
pertaining 13975
调查结果 13975
fool 13973
吸烟 13973
处理器 13973
ki@@ 13970
hk 13969
ishes 13968
illed 13966
euro 13964
页面 13964
furniture 13960
猜@@ 13960
212 13958
IR 13956
安全性 13955
Czech 13950
认知 13950
year-old 13947
ment-@@ 13946
内部监督 13946
联合国大会 13944
regulated 13943
excited 13941
宪@@ 13939
composite 13938
教徒 13938
excess 13937
yard 13930
ser 13926
微软 13926
manip@@ 13925
烈@@ 13925
Ram@@ 13922
arri@@ 13921
尼亚@@ 13920
扣 13920
激动 13920
耳 13918
智 13917
假期 13916
无线电 13914
isolated 13913
解雇 13911
I.@@ 13910
kidding 13905
detect 13904
indi@@ 13902
敌@@ 13900
125 13897
tened 13896
基督教 13896
挂@@ 13896
owe 13895
button 13891
狂 13885
割@@ 13882
占据 13882
PD 13881
variable 13880
convicted 13876
tel@@ 13876
sequ@@ 13873
腰@@ 13872
忘@@ 13870
Henry 13868
pit@@ 13866
宏观经济 13866
gender-based 13864
gers 13863
总裁 13862
inking 13860
灰 13860
返@@ 13860
guiding 13858
即可 13858
涌@@ 13858
min 13857
题@@ 13855
rub@@ 13853
仁 13853
有所@@ 13853
instruction 13848
bab@@ 13847
fluor@@ 13847
头上 13846
jec@@ 13845
常规武器 13845
circulated 13840
gan 13840
optimal 13838
庭@@ 13838
partially 13836
environmentally 13835
抢劫 13832
吴@@ 13829
fron@@ 13828
liabilities 13828
mp@@ 13826
ops 13825
手里 13819
文中 13818
AG@@ 13813
暗 13812
成年人 13811
挑选 13811
mr. 13809
乐队 13809
www.@@ 13808
nas@@ 13806
ify 13803
勾@@ 13802
gang 13801
盯 13799
定居点 13797
重大@@ 13796
反正 13795
80@@ 13793
disappeared 13792
rers 13792
all-@@ 13791
伴随 13787
回复 13786
让@@ 13786
chro@@ 13784
corporations 13783
莎@@ 13783
赶 13783
匈牙利 13781
Heads 13778
抵抗 13778
对面 13776
ear 13774
Mother 13773
册 13772
毫无疑问 13771
creates 13770
写作 13769
引擎 13768
频繁 13768
民兵 13767
同一个 13766
抗体 13765
predictable 13762
reliability 13762
弱@@ 13759
F-@@ 13758
ech@@ 13756
fet@@ 13756
solving 13754
formulate 13753
acquire 13752
objec@@ 13752
ON 13749
Tem@@ 13749
Uni@@ 13748
detected 13748
passage 13748
Remember 13743
汽@@ 13741
immunity 13739
Evaluation 13737
Haven 13737
essing 13737
电视台 13737
逼@@ 13737
occasions 13735
喜 13735
ags 13734
exclusive 13734
fier 13734
fusion 13734
简报 13733
辞 13733
Nobody 13732
摆 13730
accounted 13728
cop 13727
邻@@ 13727
organ@@ 13726
贸 13726
arti@@ 13723
liqu@@ 13721
distinct 13720
holes 13718
精 13718
Father 13716
child@@ 13715
暗示 13714
mation 13712
有意 13712
mother@@ 13711
initi@@ 13709
科技@@ 13709
vel@@ 13706
第八@@ 13706
米尔 13702
xinhua 13700
障 13699
Chen 13697
moreover 13697
五十@@ 13696
靠@@ 13690
assignment 13685
ises 13684
lers 13681
molecular 13681
contractors 13679
mates 13677
似 13675
主义者 13674
tively 13673
uncle 13672
迫切需要 13672
eliminating 13671
Ltd 13669
awarded 13666
cadres 13666
guards 13666
spectrum 13665
click 13664
remind 13664
合法性 13664
欺诈 13664
尖 13662
criticism 13661
氧@@ 13661
帝@@ 13660
illustrated 13657
ranging 13654
疼痛 13652
Kazakhstan 13651
err@@ 13651
fans 13649
卵@@ 13649
牌@@ 13648
mistakes 13647
Racial 13645
Costa 13643
累@@ 13643
Denmark 13642
nom@@ 13642
叔叔 13642
泡沫 13636
Drug 13634
旅客 13634
investigating 13633
Zhang 13631
attitudes 13630
符 13630
2017 13629
golden 13627
hydrogen 13627
ght 13623
oper@@ 13623
lo 13622
py 13622
Ger@@ 13621
现实@@ 13620
千万 13619
宝宝 13618
事务处 13616
FA@@ 13613
威尔 13613
恶 13613
infected 13611
adapt 13609
accidents 13608
ost@@ 13607
谷@@ 13607
默 13606
ela 13605
爆 13605
colon@@ 13603
retail 13603
全新 13599
死去 13598
int@@ 13597
撒谎 13596
滥@@ 13595
350 13594
PR 13594
恐怖@@ 13591
Fac@@ 13590
width 13589
finger 13586
不清 13584
可靠性 13584
kick 13583
认同 13583
hypo@@ 13581
tackle 13579
extending 13578
第二届 13578
UNCITRAL 13577
compare 13577
半岛 13577
alli@@ 13576
reflection 13574
oon 13571
telecommunications 13570
北约 13568
防范 13566
犯罪行为 13564
内在 13560
foods 13559
resume 13558
公式 13558
麦克 13558
析 13557
sponsored 13554
oration 13552
支持者 13552
偿@@ 13551
骗@@ 13551
unlikely 13548
Acting 13544
willingness 13543
essence 13542
加州 13540
古代 13539
Sk@@ 13537
singing 13536
不在乎 13530
骄傲 13530
wang 13529
boards 13524
傻@@ 13524
Australian 13521
suppliers 13521
ri 13519
parliamentary 13517
负有 13516
难民营 13516
两国 13515
time-@@ 13513
universe 13512
下述 13512
找个 13509
Though 13504
闹@@ 13503
多名 13500
wherein 13499
OS 13497
ici@@ 13495
发了 13493
演变 13493
Vis@@ 13492
毕竟 13492
planes 13491
celebr@@ 13490
Cross 13489
Multi@@ 13488
operators 13485
asks 13483
一会 13483
europe 13482
严厉 13482
环境保护 13482
劳动@@ 13481
发展权 13480
Christian 13476
impose 13476
outline 13474
双重 13472
乌拉圭 13471
看作 13467
绝大多数 13467
hem@@ 13466
休 13464
拳@@ 13463
bath 13460
六月 13459
急性 13459
ician 13458
thers 13458
org 13457
Syria 13455
New@@ 13454
帝国 13453
迟到 13453
privacy 13452
FDI 13447
DS 13443
Main 13443
国有 13443
conce@@ 13442
妇 13439
实时 13439
AR 13437
四月 13437
viewed 13433
tant 13432
隔 13426
惊人 13425
最多 13423
severely 13421
115 13420
黄色 13417
英格兰 13415
hear@@ 13414
adjust 13413
人均 13413
pass@@ 13411
reporter 13411
integrating 13410
superior 13410
Anti-@@ 13409
行驶 13409
suff@@ 13408
途 13405
相关性 13404
看待 13403
炮@@ 13400
subsidies 13399
恶劣 13399
歧视性 13397
ari 13396
stem 13396
得知 13396
vir@@ 13395
世界卫生组织 13394
nevertheless 13392
Adviser 13391
trad@@ 13390
初次 13386
OECD 13385
administered 13385
aled 13384
drivers 13383
less@@ 13383
贝尔 13383
comparative 13381
博客 13381
偏见 13380
幽@@ 13380
自动化 13380
age@@ 13379
高层 13375
exclusion 13373
青年人 13373
Games 13372
援引 13372
Angola 13371
ache 13369
魅力 13369
pain@@ 13368
summarized 13368
几种 13368
不足以 13365
Green 13364
免遭 13363
队员 13363
沉 13362
juvenile 13361
gear 13360
三月 13360
商务 13358
岸@@ 13355
经济危机 13354
视觉 13353
Help 13352
Bos@@ 13348
separately 13348
童工 13348
continuation 13345
executed 13343
可不是 13343
domin@@ 13342
scr@@ 13342
Dr 13341
repe@@ 13339
相机 13339
猪@@ 13338
dressed 13335
terri@@ 13335
p-@@ 13332
tain@@ 13332
几十年 13328
Transport 13325
116 13324
favourable 13324
venture 13322
buddy 13321
禁运 13320
部位 13315
zo@@ 13314
养护 13313
时尚 13311
wastes 13310
烤 13309
broadcast 13307
另有 13306
WFP 13303
comprise 13301
incidence 13301
bers 13300
大厦 13298
处理@@ 13296
自由化 13293
literacy 13292
介质 13291
silence 13289
仓库 13289
Jan@@ 13288
repatriation 13283
tian 13282
biennial 13278
Cap@@ 13275
ete 13275
ove 13271
地板 13270
窝 13270
克莱@@ 13269
大气 13269
Regarding 13267
spar@@ 13267
昂贵 13267
220 13265
左 13262
梁 13262
等到 13260
收回 13259
敬 13259
or-@@ 13258
Aut@@ 13257
布朗 13257
facilitation 13255
乙烯 13254
哥斯达黎加 13253
st-@@ 13251
浴 13251
焦@@ 13251
Cy@@ 13249
兹@@ 13249
Fer@@ 13248
rul@@ 13248
太阳能 13247
phere 13246
promising 13242
ATION 13241
lab 13241
ode 13241
politicians 13241
一根 13241
Up@@ 13240
ames 13239
dose 13239
基督 13238
engaging 13237
奶奶 13236
proceeds 13234
弱势群体 13233
officially 13232
bags 13229
指称 13228
ration@@ 13226
dle 13225
发挥作用 13221
莫斯科 13220
joke 13219
京@@ 13218
refuse 13217
技术转让 13216
股东 13216
放到 13215
mirror 13214
zemin 13214
analysed 13213
集中@@ 13212
towns 13211
溶剂 13211
年来 13209
注入 13209
22@@ 13208
焦点 13208
设@@ 13208
援 13207
职业@@ 13207
divi@@ 13206
英镑 13206
sensor 13205
安全部门 13205
Progress 13204
agon 13202
aviation 13202
km 13202
issuance 13201
ographic 13201
dia 13200
protocols 13200
指导方针 13200
盟@@ 13200
igh@@ 13199
ues 13199
役 13199
招 13199
ety 13196
混 13195
tongue 13193
购物 13191
4th 13189
inging 13188
lowest 13188
囊 13185
coating 13184
奉 13180
溴 13180
东盟 13177
Country 13176
antly 13176
Constitutional 13175
Rus@@ 13175
awareness-raising 13172
layers 13170
相结合 13169
judgement 13168
碱 13165
借鉴 13162
峰会 13161
bathroom 13159
complement 13157
.6 13156
remarkable 13154
不准 13154
勤 13150
鸟@@ 13150
bled 13149
国内法 13148
速率 13146
ylene 13144
源于 13144
烤@@ 13144
circulation 13143
交谈 13143
coun@@ 13142
助 13142
asts 13139
Ecuador 13138
一大 13138
SD@@ 13137
cher@@ 13135
alling 13132
soldier 13132
随机 13131
心理@@ 13128
stimul@@ 13125
plates 13124
斑@@ 13124
enter@@ 13123
retain 13121
诚实 13121
铸@@ 13120
list@@ 13119
狼 13116
draw@@ 13115
gin 13114
pursuing 13114
disclosure 13113
gies 13112
obtaining 13112
判例 13112
符合@@ 13112
peti@@ 13111
solved 13111
masses 13107
resort 13107
无害 13106
dat@@ 13105
P.@@ 13102
AC.@@ 13101
针对性 13100
ESCAP 13099
bases 13096
锻炼 13096
peri@@ 13094
rup@@ 13094
mobilize 13091
meter 13090
onom@@ 13090
Procurement 13089
credibility 13089
工业化 13088
Venezuela 13087
泥 13087
illing 13086
误差 13085
经典 13081
衬@@ 13080
多项 13079
心灵 13077
缩短 13075
tains 13074
Annual 13071
Senior 13070
巴塞尔 13068
洋 13065
该部 13064
2010-2011 13063
modernization 13060
prevented 13060
access@@ 13059
encountered 13058
这张 13058
crystal 13056
pression 13054
骚扰 13053
Tanzania 13052
稍@@ 13051
Habitat 13049
by-@@ 13049
线路 13049
Experi@@ 13044
剖@@ 13044
很小 13043
email 13042
reli@@ 13042
木材 13042
此时 13042
验@@ 13040
hanging 13038
详细@@ 13038
cotton 13036
inquiry 13036
analyse 13035
电影@@ 13034
非国家 13033
信用 13032
军官 13032
reck@@ 13030
函 13030
deprived 13029
毫米 13029
流体 13027
辞职 13023
餐馆 13023
fn@@ 13022
播放 13022
ifying 13021
揭示 13021
Resource 13020
clarify 13020
aving 13019
minim@@ 13019
thee 13019
潮@@ 13015
alarm 13014
手续 13013
EP 13012
BS 13011
consult 13011
-of-@@ 13009
低收入 13009
Wall 13008
十五@@ 13007
Techn@@ 13005
Emergency 13003
厕所 13003
hop@@ 12998
san 12996
提示 12996
chose 12994
场地 12994
naturally 12993
gall@@ 12992
gy@@ 12992
license 12992
痕 12992
Application 12991
korea 12990
伴侣 12989
january 12988
饭@@ 12987
tability 12986
兴 12984
exhi@@ 12983
pra@@ 12983
集会 12982
拒 12978
Mur@@ 12977
oke 12977
收取 12976
le-@@ 12974
parliament 12973
threshold 12970
UNC@@ 12969
城市@@ 12969
tance 12967
milit@@ 12966
perfectly 12966
共同努力 12966
Ocean 12965
国家元首 12964
iss 12961
解决问题 12958
诊所 12957
monitored 12956
振动 12956
Until 12955
亚太经社会 12954
ister 12951
进攻 12951
爽 12950
界@@ 12949
做些 12948
condi@@ 12946
Transitional 12945
coach 12945
ups 12943
五月 12943
磁 12943
截止 12942
芬@@ 12942
TD 12941
Zh@@ 12939
aer@@ 12939
september 12936
团伙 12932
-year 12928
tible 12928
骑 12928
tumor 12927
dered 12926
遏制 12926
埋 12924
牢 12924
秘@@ 12922
copper 12920
immune 12919
泡@@ 12919
Excellency 12918
earned 12918
采纳 12917
初期 12915
友@@ 12915
Upon 12914
personally 12914
vary 12911
Academy 12910
citizenship 12909
引进 12907
Libyan 12905
robust 12905
奔@@ 12905
Jane 12904
web@@ 12903
席@@ 12900
107 12899
texts 12899
难题 12899
occupying 12897
Gl@@ 12896
collecting 12896
圣诞节 12896
地狱 12895
煽动 12895
Didn 12894
argued 12893
earnings 12893
荣@@ 12892
recession 12891
航班 12891
num@@ 12887
绕 12887
Paragraph 12885
proven 12884
somewhat 12884
命名 12884
创业 12883
沙漠 12883
proposes 12880
corporation 12877
relax 12876
辉 12875
恋 12874
门口 12873
浅@@ 12871
父@@ 12871
Ori@@ 12870
Occupied 12869
printed 12867
dancing 12866
闭 12866
attending 12865
thorough 12865
chart 12864
systematically 12864
1540 12863
unusual 12862
tower 12861
惨@@ 12861
Armenia 12860
fam@@ 12860
免疫@@ 12860
DC@@ 12859
ressing 12859
gay 12858
流入 12857
缩 12856
synthesis 12855
tip 12854
涨 12852
咖啡@@ 12851
赖 12851
娅 12850
蓝 12850
Ha@@ 12848
沃 12846
1.3 12845
总之 12844
Summary 12843
breaks 12843
艺@@ 12843
missiles 12839
BA 12836
List 12835
塞内加尔 12834
thro@@ 12829
还给 12826
surplus 12825
漏@@ 12825
欺@@ 12824
pile 12822
喜爱 12822
垂@@ 12820
用性 12820
老年 12819
ball@@ 12818
swimming 12818
producers 12817
box@@ 12814
Liu 12811
gent 12809
joining 12806
Access 12805
Out 12805
调用 12805
gather 12802
终 12802
Mel@@ 12801
launching 12801
适宜 12800
咬 12799
琌 12796
除外 12795
chip 12794
pig@@ 12794
civilization 12793
educ@@ 12792
寄 12792
belongs 12791
even@@ 12788
sav@@ 12788
航空公司 12787
Black 12786
Say 12784
塔利班 12783
漏 12782
注@@ 12780
综述 12780
finite 12779
hn@@ 12778
Sun@@ 12777
将近 12775
consistency 12773
highlight 12773
人事 12773
几内亚 12773
当年 12772
rendered 12767
卫生部 12767
有待 12767
拿出 12766
大幅度 12765
第三个 12764
夜晚 12763
Dynasty 12762
控制系统 12761
pati@@ 12756
complementary 12754
耗 12752
simultaneously 12750
在场 12750
人权法 12749
Vir@@ 12747
SL@@ 12743
会费 12741
supplementary 12737
timing 12733
符号 12733
tex@@ 12732
Pan@@ 12731
尼克 12729
Terrorism 12727
涉嫌 12727
搞定 12726
均匀 12725
Loc@@ 12724
航天@@ 12724
诸多 12723
农村妇女 12722
entrance 12721
Poverty 12718
紧急@@ 12718
医疗@@ 12717
ign 12716
坦 12715
M. 12714
exceed 12714
ude 12711
umin@@ 12709
右 12707
Ear@@ 12706
CONF.@@ 12702
encomp@@ 12702
figured 12702
cook 12701
aria 12700
氮 12700
玻利维亚 12698
致使 12698
Penal 12697
decor@@ 12697
困扰 12697
5th 12694
内阁 12694
址 12694
海滩 12694
碰到 12693
buried 12692
cute 12692
first-@@ 12692
脂@@ 12691
Chad 12690
如图 12689
骂 12689
ez 12688
实用 12688
hence 12686
GA 12685
常会 12684
罗斯 12684
脑袋 12684
安娜 12683
审查会议 12680
切割 12678
abuses 12677
argue 12677
aster 12676
缝@@ 12675
aver@@ 12674
颈@@ 12674
mented 12670
判处 12669
实施方案 12667
mentary 12666
Tow@@ 12663
ender 12663
虑 12663
Everybody 12662
voters 12662
无法@@ 12662
颁发 12661
GO@@ 12658
分段 12657
尸 12656
buyer 12653
厂@@ 12652
songs 12651
118 12650
Super@@ 12650
tone 12649
悲剧 12649
parameter 12645
被占领土 12644
落后 12643
2006-2007 12640
Decision 12640
shanghai 12640
part@@ 12639
乐意 12639
黎@@ 12639
Statement 12638
undermine 12637
Tw@@ 12636
migr@@ 12636
大选 12636
lob@@ 12634
进而 12634
老兄 12631
multi 12630
tum@@ 12630
collapse 12629
extrabudgetary 12628
折磨 12626
耳朵 12626
aire 12623
asian 12622
交叉 12622
圈@@ 12622
太棒了 12622
tendency 12621
shadow 12620
Ben 12619
chest 12619
graphic 12619
references 12619
Sun 12615
artist 12615
publicly 12615
random 12615
里斯 12615
Dam@@ 12614
appoint 12614
crossing 12614
导航 12614
DP@@ 12611
cement 12611
伤亡 12611
非洲@@ 12610
生态@@ 12608
隙 12608
Microsoft 12607
surely 12606
机械@@ 12606
一月 12605
共和党 12604
椅子 12604
phys@@ 12603
BC 12602
forgive 12602
Thir@@ 12601
蒙特利尔 12601
谨@@ 12601
contractual 12599
醚 12599
撞@@ 12598
210 12597
calendar 12597
受害 12597
stomach 12596
周一 12595
结构@@ 12593
TA 12592
trace 12592
暖@@ 12592
大声 12590
展现 12589
特使 12588
filling 12587
危 12587
thr@@ 12586
tide 12586
为例 12584
纯 12583
勇@@ 12581
塑 12581
exam@@ 12580
无人 12580
hin@@ 12579
氯 12579
earn 12575
吐 12575
编列 12575
english 12574
冠 12573
reinforce 12572
tening 12572
districts 12571
坛 12571
雕@@ 12570
plain 12569
当天 12569
迈克尔 12569
UN-Habitat 12567
廷 12566
precious 12565
parti@@ 12564
报表 12564
愿@@ 12558
reveal 12557
行为@@ 12557
mere 12553
posted 12553
笼@@ 12553
假定 12552
Richard 12550
弱势 12550
紧迫 12549
compromise 12547
pushed 12546
好事 12546
cool@@ 12545
tations 12545
鱼类 12544
170 12543
organisations 12542
possibilities 12542
邪恶 12542
Developed 12540
周五 12540
第五@@ 12540
妮@@ 12539
Captain 12538
leaf 12535
nat@@ 12534
Bl@@ 12533
icans 12533
certification 12528
mice 12527
不太 12524
百姓 12524
artificial 12522
prisons 12522
directions 12520
顺 12520
ita 12519
cooking 12518
pocket 12518
牧师 12518
三天 12517
预先 12517
crack 12516
大臣 12516
nar@@ 12515
custom@@ 12514
pen 12514
Leave 12511
Consequently 12509
有意思 12508
gue 12507
advised 12506
Portugal 12505
shed 12504
密切@@ 12504
岩石 12502
肌 12501
商人 12500
代表@@ 12497
ested 12495
名叫 12495
abilities 12493
hiding 12493
intr@@ 12491
economics 12490
uk@@ 12490
七年 12490
deadline 12489
lot@@ 12487
icians 12485
别说 12485
tial 12484
反对派 12483
政府首脑 12483
rol@@ 12480
salaries 12478
substrate 12478
ental 12474
皇家 12474
欲@@ 12473
饭店 12473
macroeconomic 12472
便于 12472
ona 12469
武 12468
Organized 12467
ao@@ 12467
desertification 12465
不良 12463
Corruption 12462
ison 12462
prompt 12462
实物 12462
anim@@ 12461
abol@@ 12458
玉米 12458
赞助 12458
counter-terrorism 12456
脉冲 12456
吐@@ 12454
振兴 12451
fli@@ 12450
家中 12447
臭@@ 12447
10,000 12446
prosecutors 12445
～ 12445
Pur@@ 12444
absor@@ 12444
emphasizes 12444
eled 12443
harmony 12443
签字 12443
sodium 12441
static 12441
白宫 12441
actor 12438
势头 12437
场景 12437
滞@@ 12437
bon 12436
toxic 12436
一声 12435
雷达 12435
briefly 12434
objection 12434
trav@@ 12434
难过 12432
行李 12431
捐@@ 12429
celebrate 12426
Studies 12424
信道 12424
辅@@ 12424
underground 12422
whis@@ 12421
Ombudsman 12416
罐 12415
误 12413
fingers 12411
第二天 12411
衰退 12410
Sixth 12409
Montreal 12407
environments 12407
reductions 12405
力求 12404
ratify 12402
祝 12401
harmonization 12397
therein 12395
steal 12394
净额 12394
spo@@ 12393
童 12392
煤 12389
光学 12388
extraction 12387
少女 12386
andy 12385
maintains 12384
stolen 12384
Little 12383
TC@@ 12383
checking 12383
萨尔瓦多 12383
虫@@ 12382
Committees 12380
sized 12379
兽 12379
制造业 12377
欺骗 12377
纽约@@ 12377
dominant 12375
breast 12374
栋 12374
葡萄酒 12374
bru@@ 12373
depression 12373
defining 12368
中共 12367
分担 12367
bert 12366
刷 12366
否 12365
sword 12364
遵@@ 12364
mediation 12363
unprecedented 12363
CAT 12362
ecting 12361
cap 12358
尼加拉瓜 12351
相处 12349
IPSAS 12347
alo@@ 12347
weak@@ 12347
Ordinance 12346
prejudice 12346
卡塔尔 12346
mar 12344
尿 12344
创意 12343
Web@@ 12341
rubber 12341
threw 12341
Document 12340
questionnaire 12339
dence 12337
正规 12336
Bor@@ 12335
运转 12335
十二 12334
犬 12334
icks 12332
原本 12328
addic@@ 12327
龄 12327
Basic 12325
Martin 12325
hadn 12325
County 12324
Libya 12322
embodiments 12322
权能 12322
呼 12321
扔@@ 12321
l-@@ 12320
ethics 12318
gotten 12316
flow@@ 12313
财 12312
permits 12310
帅 12310
自行 12306
穷@@ 12301
海底 12299
hk@@ 12298
银行@@ 12297
捷 12295
produces 12293
dental 12292
增大 12292
Canadian 12291
distr@@ 12290
3.5 12289
链@@ 12288
从前 12287
tobacco 12286
浏览 12285
软件@@ 12285
Holy 12283
odd 12283
mom@@ 12281
uncertainty 12281
compar@@ 12280
掌 12280
authorization 12277
腾 12277
electr@@ 12275
斯坦 12274
expressing 12273
柱@@ 12273
邦@@ 12273
非正规 12273
二氧化碳 12272
theories 12271
translated 12271
2,000 12270
chi 12269
custom 12269
loose 12267
intensify 12265
不罚 12265
Inspection 12263
Ps 12263
唯@@ 12261
eous 12259
oting 12258
结论性 12258
FA 12257
arities 12257
temp@@ 12256
spite 12255
必不可少 12251
greenhouse 12250
eping 12247
警察局 12243
viable 12242
zation 12241
幕@@ 12238
intense 12237
pin 12236
我谨 12236
gas@@ 12235
servicing 12235
提倡 12235
Chemical 12233
抢 12233
shower 12232
Audit 12229
cure 12226
踢 12225
铝 12224
Shel@@ 12223
indication 12223
把握 12223
inqu@@ 12221
synchron@@ 12219
编号 12218
coupled 12216
bunch 12215
怎@@ 12215
Chin@@ 12209
gol@@ 12209
搜查 12209
Standard 12207
mot@@ 12206
算是 12204
同情 12203
malaria 12201
夸@@ 12201
Cla@@ 12198
神圣 12198
Ju@@ 12196
tens 12196
Customs 12195
ologist 12195
punished 12195
Kim 12193
勘探 12193
球场 12193
联黎 12192
thwest 12190
八年 12190
福祉 12190
Wow 12188
corn 12188
Arms 12185
log 12182
恶心 12181
中方 12180
伏@@ 12179
这条 12178
inger 12177
体面 12177
指引 12176
AD 12174
陷 12174
业务@@ 12173
bus@@ 12172
挺@@ 12172
走出 12172
dness 12171
heter@@ 12171
aka 12169
bills 12169
efficiently 12168
工作量 12168
占有 12167
ligh@@ 12166
Charlie 12165
reunification 12164
对照 12164
Ho@@ 12163
tion-@@ 12161
营业 12161
硅 12158
亨利 12156
pac@@ 12154
invites 12152
鼻子 12150
Ann@@ 12144
transform 12144
估算 12143
chances 12142
oping 12142
重叠 12142
health-care 12141
减缓 12140
残 12140
冷却 12139
指望 12139
温暖 12136
transl@@ 12135
ideological 12134
掉@@ 12132
Appro@@ 12130
asleep 12130
Industry 12129
般的 12129
说出 12128
HK@@ 12127
撤离 12127
不受 12126
艺术@@ 12126
distor@@ 12125
ply 12123
whereby 12123
cpc 12122
wto 12121
morph@@ 12120
connections 12117
gratitude 12116
接纳 12115
regimes 12112
autonomous 12111
sanc@@ 12111
.4 12109
Ms 12107
A-@@ 12105
计划生育 12105
访问@@ 12104
固体 12103
hearts 12102
ute 12102
分区 12102
Muslim 12101
assurance 12100
利息 12100
寻常 12100
没人 12100
yer 12099
淋@@ 12099
pas@@ 12098
evident 12097
Welcomes 12096
prescribed 12096
上校 12096
恢复@@ 12095
程序@@ 12095
pounds 12092
电子商务 12092
abandoned 12091
斯蒂@@ 12089
头脑 12087
Item 12086
bye 12086
抵押 12085
表情 12085
announcement 12084
些@@ 12082
分析师 12082
motor@@ 12081
白痴 12081
mas@@ 12080
反复 12076
奴隶 12076
tele@@ 12075
imperative 12074
细胞@@ 12074
ext@@ 12071
hello 12071
D-@@ 12070
放置 12069
ald 12068
猎 12068
presum@@ 12065
cia 12062
enables 12062
disseminate 12059
ples 12057
严峻 12055
explicitly 12054
wound 12050
大不列颠 12050
crash 12049
ami 12048
consciousness 12048
penalties 12048
documented 12046
occup@@ 12046
进出口 12046
accomplished 12044
forecast 12044
mature 12043
储蓄 12043
取得成功 12043
伴 12042
校长 12042
ares 12041
Jim 12040
Mongolia 12038
浪漫 12038
exceptional 12037
爆炸物 12037
国民@@ 12036
beneficiaries 12034
declarations 12034
evaluated 12032
慢性 12028
Bay 12027
desert 12026
Cur@@ 12025
logistical 12024
宏@@ 12024
宿@@ 12024
承包商 12021
殿 12019
50,000 12018
侵@@ 12017
MP@@ 12014
allo@@ 12014
outs 12013
高速公路 12013
Disabilities 12012
mineral 12012
域@@ 12011
arr@@ 12008
恒@@ 12008
意志 12008
ar-@@ 12007
crop 12006
九月 12006
达成协议 12005
justified 12004
xy 12003
8-@@ 12002
引 12002
队长 12002
balls 12001
know@@ 12001
formally 11998
去过 11998
经合组织 11997
审讯 11995
布拉@@ 11995
cops 11994
discussing 11994
尔德 11994
系统地 11992
axis 11990
支票 11990
agged 11989
Ko@@ 11987
disclosed 11985
消极 11985
Long 11984
一刻 11984
租赁 11984
署@@ 11982
referring 11979
use@@ 11978
Nam 11977
中小企业 11977
石油@@ 11974
restoration 11972
ket@@ 11970
replied 11969
讨@@ 11969
deposits 11967
幅度 11967
自决 11967
FO@@ 11966
egg 11966
葬 11966
bell 11965
激素 11965
tensions 11964
centr@@ 11963
bec@@ 11962
mon 11961
thereto 11961
生命@@ 11961
西藏 11961
system-wide 11957
微型 11957
战士 11957
孕妇 11956
遍 11956
阿尔巴尼亚 11955
英语@@ 11954
genocide 11953
F. 11951
arguments 11951
Try 11950
总体@@ 11950
飘@@ 11949
lic@@ 11947
劳工@@ 11944
settings 11942
租金 11941
Af@@ 11940
recogn@@ 11940
advise 11938
ame@@ 11938
ishment 11938
增至 11938
两周 11937
Basel 11930
accomplishments 11929
蔓延 11929
供给 11928
Too 11926
onally 11926
indirect 11923
介入 11923
粒子 11920
crying 11916
院长 11916
欧元区 11915
muscle 11913
smuggling 11912
沉默 11909
氏@@ 11908
glasses 11907
Protocols 11906
过滤 11906
essed 11905
strive 11905
illu@@ 11903
徒@@ 11902
讲述 11901
1983 11899
前任 11897
炎@@ 11897
cycl@@ 11896
IA 11895
Gab@@ 11894
坝 11892
醒@@ 11892
街上 11890
113 11889
embar@@ 11888
cooling 11887
recruited 11887
构想 11886
ula 11883
revenues 11882
知识@@ 11882
计算@@ 11882
recover 11881
织 11879
秋@@ 11878
假装 11876
产妇 11875
姐妹 11874
拔@@ 11873
堪@@ 11872
FD@@ 11870
forthcoming 11870
museum 11868
遍@@ 11868
St. 11867
差点 11866
HR 11865
carries 11864
cultivation 11863
workplace 11863
imported 11861
ision 11861
住所 11861
correc@@ 11860
gaining 11860
手上 11859
一九九@@ 11858
vacation 11857
instruc@@ 11856
韦斯特 11854
Ku@@ 11853
show@@ 11853
耍 11853
rarely 11852
cited 11851
norm@@ 11851
intends 11850
封闭 11846
畅@@ 11846
选择性 11846
ele@@ 11844
wondering 11844
升高 11844
毫@@ 11844
counselling 11843
座位 11843
Inte@@ 11842
军方 11837
劫@@ 11837
phrase 11836
pled 11836
隧道 11836
很长 11835
alists 11834
盗 11834
the-@@ 11833
checks 11831
shortly 11831
repeat 11829
梯@@ 11829
Yang 11828
妹 11820
dest@@ 11818
aly@@ 11817
retri@@ 11816
各个方面 11816
林业 11816
窃@@ 11816
LORD 11814
功 11814
肿 11814
Facil@@ 11813
聘 11812
基层 11808
宜@@ 11806
詹姆斯 11806
Mari@@ 11804
Mali 11803
grap@@ 11802
Ghana 11801
august 11800
庄@@ 11798
不明 11796
电源 11796
酱 11796
dating 11795
neg@@ 11794
慈善 11794
钉 11794
affir@@ 11792
rotation 11792
疑 11792
sino 11791
从来不 11786
shipment 11785
荣誉 11785
STA@@ 11784
USD 11783
far@@ 11783
㈢ 11783
旱@@ 11783
passenger 11782
yah 11782
会议@@ 11781
违法 11776
supplied 11775
信用卡 11775
纹@@ 11775
badly 11774
示例 11771
跨界 11771
诉诸 11770
欧洲委员会 11769
1974 11768
promptly 11768
幻想 11768
lending 11766
Bra@@ 11765
Charles 11762
薄膜 11761
construct 11760
exciting 11760
gos@@ 11760
冻@@ 11760
第二章 11760
explains 11759
aud@@ 11758
研 11757
Tokyo 11756
grab 11756
老爸 11755
复兴 11754
阻 11754
练@@ 11753
touched 11752
Survey 11751
迎接 11749
limitation 11746
hired 11745
iro 11740
multipl@@ 11738
school@@ 11738
seal 11737
全面@@ 11737
】 11735
七月 11735
arily 11734
quanti@@ 11734
pop 11731
纠纷 11731
毒性 11730
Vic@@ 11729
配有 11726
Alliance 11725
ko@@ 11725
liberalization 11725
Encourages 11723
SH@@ 11723
展望 11723
饱@@ 11723
unified 11720
综@@ 11720
Tunisia 11719
届会 11719
关节 11717
burg 11714
flood 11714
季节 11714
应由 11714
verify 11713
小鼠 11713
silent 11712
风险管理 11712
FCCC 11711
regulate 11709
Han@@ 11708
grass@@ 11708
困@@ 11707
例中 11706
buil@@ 11703
battery 11702
landlocked 11701
收拾 11701
mur@@ 11699
IM 11697
consolidate 11697
喻 11697
国际劳工组织 11696
歌曲 11696
Legislative 11695
receives 11695
北京@@ 11695
aph@@ 11691
Welcome 11689
metres 11689
1960 11687
七个 11687
Rom@@ 11686
home@@ 11686
加油 11686
联络@@ 11686
Lastly 11685
中非 11685
筹备工作 11685
assemb@@ 11684
prominent 11684
也就是说 11684
婆 11683
oked 11682
丑 11682
径@@ 11682
Major 11681
appro@@ 11680
卫生组织 11680
国防部 11680
舞蹈 11679
扯 11678
奇迹 11677
攀@@ 11675
Soviet 11673
specify 11671
采集 11671
Air@@ 11667
discovery 11667
太阳@@ 11667
oming 11666
si 11665
抛弃 11665
发性 11664
craft 11662
奥斯@@ 11662
翻 11662
Official 11661
wai@@ 11659
Strip 11658
dens 11658
durable 11658
Standards 11655
tel 11655
躲 11655
notion 11654
版@@ 11653
贯彻 11653
medic@@ 11652
缴纳 11652
thri@@ 11651
ota 11650
仙@@ 11650
minds 11649
operator 11649
孤独 11648
汇 11647
fro@@ 11646
errors 11645
ided 11645
retained 11645
temple 11645
nan 11643
男朋友 11643
termination 11642
Relations 11641
经济学 11641
listing 11640
拖 11639
expense 11637
本着 11636
捕 11635
drove 11632
patri@@ 11632
尔顿 11632
∶ 11628
懂得 11625
challenging 11623
stipulated 11623
109 11622
序@@ 11622
Move 11621
更具 11621
购置 11621
芭@@ 11620
Atlantic 11619
asive 11618
manife@@ 11618
TE@@ 11617
sty 11616
真诚 11616
陶@@ 11616
wheat 11615
eller 11612
高校 11612
graph 11611
super 11610
modern@@ 11606
弃@@ 11606
帽 11605
订单 11604
性虐待 11603
precisely 11601
拿走 11600
mid 11599
rics 11599
恋@@ 11599
通货膨胀 11599
administering 11598
neur@@ 11598
frozen 11597
Men 11596
eling 11596
不介意 11594
严肃 11592
磅 11592
谱@@ 11592
ounds 11590
中亚 11588
xenophobia 11586
面试 11586
Looks 11585
可否 11585
prevalence 11584
肺 11584
rein@@ 11582
182 11581
某一 11578
Ensure 11577
康 11577
Thomas 11576
dimin@@ 11576
毛里求斯 11576
Fun@@ 11573
ODA 11573
延 11573
申明 11573
bos@@ 11572
坚信 11570
Tar@@ 11569
领先 11569
pep@@ 11568
节日 11568
ouring 11567
aint 11566
adds 11565
创伤 11564
棒@@ 11564
asing 11560
革 11559
1975 11557
correlation 11556
产权 11555
捐赠 11553
杀手 11553
ession 11552
赠款 11551
analysts 11550
字母 11550
斯坦@@ 11549
Lar@@ 11548
职工 11547
山区 11546
无聊 11546
correctly 11545
elaboration 11545
etic 11545
gie 11545
gation 11544
ordin@@ 11544
答@@ 11541
捍卫 11537
乳 11536
物流 11536
入口 11535
营养@@ 11534
Educational 11533
虽 11533
handled 11530
ch-@@ 11529
india 11528
谋@@ 11528
Gal@@ 11527
condem@@ 11527
mouse 11526
变更 11524
Migration 11523
SD 11523
Mark 11522
promises 11522
三名 11522
fab@@ 11518
october 11517
tribunal 11516
揭@@ 11516
联塞 11513
withdraw 11512
不断@@ 11512
擦 11512
curve 11510
撒哈拉 11510
牙买加 11508
du 11507
挖@@ 11506
minimize 11505
嵌@@ 11505
Ali 11503
concerted 11503
iv 11503
mankind 11502
satisfy 11501
phases 11497
援@@ 11496
convening 11495
practic@@ 11495
wind@@ 11494
equation 11492
wa 11492
世界人权宣言 11492
地质 11492
草稿 11492
lining 11491
厚度 11491
电话@@ 11491
adolescents 11490
credible 11489
injec@@ 11489
屏@@ 11489
Uruguay 11488
Outer 11487
Ret@@ 11487
jet 11487
明智 11486
航行 11486
印度@@ 11485
迁@@ 11484
ecosystem 11483
pir@@ 11483
码头 11483
lig@@ 11480
补助金 11478
prospect 11477
撤出 11477
传染病 11476
臭 11476
drinks 11475
departure 11474
Qatar 11473
相互作用 11473
capac@@ 11472
merits 11472
UNIFIL 11471
爬@@ 11467
directors 11464
反射 11464
impro@@ 11463
寻 11463
集合 11462
抬@@ 11461
hair@@ 11460
advancing 11459
collabor@@ 11458
参议员 11458
My@@ 11457
Young 11455
2004-2005 11454
录像 11454
蔽 11453
风暴 11451
6th 11450
perspectives 11450
troop 11450
Mine 11449
captured 11449
便是 11446
邻 11445
memorandum 11441
Capital 11440
possess 11439
探测 11439
affordable 11438
性感 11438
Am 11436
attempted 11434
共体 11434
newspapers 11433
dist@@ 11432
哀@@ 11432
poin@@ 11431
十分@@ 11431
fought 11430
itive 11428
marking 11428
好人 11427
Rica 11426
wars 11426
芯片 11425
ffs 11424
weekly 11423
Against 11422
开口 11421
chaired 11420
initiate 11420
ural 11420
Provision 11419
vegetables 11418
Reg@@ 11417
tled 11417
Order 11414
vering 11413
admission 11412
sam@@ 11410
forgotten 11409
ounce 11408
内外 11408
刑事法庭 11407
动荡 11407
迁 11406
dr 11405
fabric 11403
independently 11403
秀@@ 11403
juice 11401
一批 11401
考验 11400
Old 11396
险@@ 11395
processor 11394
concentrate 11393
一再 11393
残疾儿童 11393
Unfortunately 11392
promotes 11392
汗 11392
explosion 11391
没想到 11388
阅 11387
genes 11386
润@@ 11386
audio 11383
networking 11382
dam 11380
FC 11379
科技咨询 11379
集成 11379
墨 11378
奢@@ 11377
有钱 11376
堕胎 11375
流通 11374
bum@@ 11371
chol@@ 11370
impression 11370
brac@@ 11368
terior 11368
一度 11368
雇佣 11367
compens@@ 11366
enforce 11366
更是 11366
considerably 11365
fast@@ 11364
敏 11364
associate 11362
TP 11361
Mas@@ 11360
establishes 11360
四十@@ 11360
alty 11358
供水 11358
耐心 11358
驳回 11358
pulse 11357
凭@@ 11357
频道 11357
everyday 11356
CE 11354
Royal 11352
rail 11352
患有 11352
克林顿 11349
谋求 11349
Appeals 11347
applicant 11347
基本权利 11346
无数 11346
fulfilment 11344
征求 11344
connec@@ 11343
充分利用 11342
凉 11342
node 11340
授@@ 11339
顾 11339
delegates 11338
sh 11338
筋 11336
豆 11336
Smith 11334
alien 11333
interior 11331
习 11330
zer 11327
abortion 11326
夏 11326
thickness 11325
december 11324
shops 11324
聘用 11323
核能 11320
bac@@ 11319
backs 11319
书籍 11319
操作@@ 11319
员@@ 11318
开门 11318
洞@@ 11318
示威 11318
容量 11316
EA 11315
CRP.@@ 11314
colors 11313
navigation 11313
十届 11311
摔@@ 11310
Provisional 11309
eu 11309
烦@@ 11309
详@@ 11308
请问 11307
november 11304
咨商 11302
前后 11301
船上 11301
ores@@ 11300
ections 11298
卸@@ 11298
反而 11298
Home 11295
interviews 11295
汽车@@ 11295
Lake 11294
bedroom 11293
白人 11293
distur@@ 11289
PP@@ 11286
ests 11285
Shut 11281
analyzing 11281
借助 11281
宗教@@ 11281
esis 11280
sustain 11280
昂 11280
人大 11277
负面影响 11275
部委 11275
expulsion 11274
journal 11274
会儿 11274
喀麦隆 11274
Counter-Terrorism 11273
yers 11273
应为 11273
朵 11273
孟@@ 11272
vor@@ 11271
Takes 11269
stones 11268
子里 11268
Initi@@ 11267
perceived 11267
quantitative 11266
中止 11265
declare 11264
gravity 11264
牙齿 11263
attracted 11261
预防性 11261
Shar@@ 11257
hes@@ 11257
蠢@@ 11257
激发 11256
dramatic 11255
自豪 11255
foreigners 11253
pants 11253
陆地 11253
scores 11252
终端 11251
芝加哥 11251
ill-treatment 11250
influenced 11250
天线 11248
vacuum 11247
Interior 11244
旅游@@ 11244
腺@@ 11244
眼前 11243
ologists 11242
OP 11241
冬天 11241
训练@@ 11241
2012-2013 11240
diamond 11237
正面 11237
非线性 11237
volunteers 11236
大街 11235
策划 11233
不结盟运动 11232
枝 11232
festival 11231
战胜 11231
ET@@ 11229
excluded 11229
eable 11226
reti@@ 11226
大国 11226
犯人 11226
垂直 11225
危@@ 11223
澳门 11222
禁令 11222
barely 11220
解放@@ 11220
entertainment 11218
补助 11218
晶 11217
独自 11217
casting 11215
媒介 11215
味@@ 11214
淘汰 11214
废 11213
碎@@ 11213
Yemen 11212
副本 11212
nu@@ 11211
柄 11211
MONUC 11210
颈 11210
ech 11209
stein 11209
浅 11209
Whether 11205
Session 11203
granting 11202
orally 11202
摸@@ 11202
玻璃@@ 11202
绝不 11202
lee 11201
100,000 11198
portfolio 11196
有机@@ 11196
伴@@ 11195
popul@@ 11194
Prince 11193
小额 11193
泰 11190
偶尔 11188
军事行动 11188
分解 11188
AN 11187
appointments 11186
营养不良 11186
240 11185
rocks 11185
fal@@ 11183
wherever 11183
可惜 11183
苍@@ 11183
Facility 11181
horizontal 11181
tender 11181
奉@@ 11181
nam@@ 11180
柏@@ 11180
wounded 11179
染 11179
饰@@ 11179
Tai@@ 11178
asses 11178
联合国总部 11177
deeper 11176
hs 11176
combatants 11175
sincere 11170
00,000 11167
large-scale 11167
潘@@ 11167
Cer@@ 11166
FF@@ 11166
loud 11166
捷克共和国 11166
撕@@ 11166
操纵 11166
Sum@@ 11165
reception 11165
fake 11164
scenario 11163
一点点 11163
德班 11163
landing 11161
保守 11160
nutri@@ 11159
Reports 11158
trigger 11158
多人 11158
极了 11158
院校 11158
Romania 11156
Least 11154
chemistry 11154
Ang@@ 11153
鸡蛋 11153
occupational 11151
视图 11151
准许 11148
裂变 11147
solvent 11146
nerve 11145
专注 11145
完全@@ 11143
holy 11141
星球 11141
WH@@ 11140
neuro@@ 11138
邮政 11138
quick@@ 11137
初始 11135
resistant 11133
sla@@ 11133
伟 11133
悲伤 11130
更多地 11130
flights 11129
浮 11129
memories 11128
邮票 11128
crude 11127
按钮 11125
bacteria 11124
brilliant 11121
津 11121
neutr@@ 11120
chocolate 11119
Rule 11118
habit 11118
悄@@ 11118
替换 11118
132 11117
世上 11117
letting 11116
microwave 11114
urgently 11114
毁灭 11113
7th 11112
sensitivity 11111
世界贸易组织 11111
弗兰克 11111
stal@@ 11109
census 11108
brow@@ 11107
cell@@ 11107
晚安 11107
抚@@ 11106
接待 11104
鹿 11104
zhu 11103
再度 11103
就让 11100
epidemic 11098
纪 11096
screening 11094
agg@@ 11093
preservation 11093
密封 11093
benefited 11092
lung 11092
negotiate 11090
underlined 11090
公斤 11090
罗伯特 11088
dude 11087
圣经 11087
Post 11084
anu@@ 11084
精彩 11084
gram 11083
赞比亚 11083
Branch 11080
jin 11080
预警 11079
双边@@ 11078
ila 11077
眠 11075
签发 11075
fir@@ 11074
chers 11073
ston 11073
emergencies 11072
los@@ 11072
assumption 11071
不像 11071
仔 11071
pleasant 11070
囊@@ 11070
awards 11068
plasma 11068
海事 11068
dra@@ 11067
Has 11066
好看 11064
年纪 11063
握@@ 11062
桑 11062
易于 11061
dispat@@ 11060
第六条 11060
着重指出 11055
后代 11053
Land@@ 11052
停火 11052
SR@@ 11051
simul@@ 11051
Sy@@ 11049
苏格兰 11049
analyzes 11046
鹰 11044
技术人员 11043
presidency 11042
manufacturers 11040
8th 11039
isolation 11039
uk 11039
tourist 11038
campus 11037
screw 11037
hire 11036
contracting 11035
ole@@ 11035
赴 11035
disadvantaged 11034
enemies 11034
肝 11034
深入@@ 11033
渡@@ 11032
Senegal 11031
膏 11029
铝@@ 11029
at-@@ 11027
William 11026
2.1 11025
instability 11025
hui 11024
桌@@ 11024
大麻 11023
IL 11021
iously 11020
seeds 11020
pushing 11017
reporters 11017
intelligent 11016
Tra@@ 11013
炼@@ 11013
留下来 11013
各种各样 11012
押 11012
好消息 11011
anny 11010
methodologies 11010
oth@@ 11010
中将 11009
commen@@ 11008
pig 11007
一轮 11006
镜头 11006
clarification 11005
一层 11004
而来 11002
ester@@ 11001
德尔 11001
babies 11000
mapping 11000
奖学金 11000
受过 10999
统筹 10999
memor@@ 10998
cot@@ 10997
replies 10996
搭 10996
减小 10990
税务 10990
urgency 10989
Bob 10988
ts@@ 10988
臭氧 10988
Director-General 10987
practi@@ 10987
核试验 10987
demonstration 10985
Bolivia 10984
沮丧 10984
disk 10983
坑 10981
nursing 10978
吸 10977
ambi@@ 10976
arrange 10976
困 10976
柏林 10976
称之为 10975
artistic 10974
津巴布韦 10974
mark@@ 10972
己@@ 10972
shortage 10971
盟约 10971
非殖民化 10971
tries 10970
reinforced 10968
sman 10968
妇@@ 10967
twentieth 10964
ini 10963
rush 10963
designs 10962
e-mail 10960
停下来 10959
hu 10958
监督@@ 10958
house@@ 10957
变换 10956
Uzbekistan 10955
ashes 10953
几周 10953
damages 10952
割 10952
cand@@ 10951
alkyl 10950
Combat 10949
Communication 10949
stration 10949
纤维@@ 10949
exclusively 10947
insecurity 10947
olu@@ 10947
动力学 10947
参考@@ 10947
comman@@ 10945
夫妻 10943
剥@@ 10941
fold 10940
Citi@@ 10939
Fri@@ 10939
徒刑 10938
剩 10937
见过 10937
圆桌会议 10936
2.2 10935
Statistical 10934
ve-@@ 10934
thereon 10932
convene 10931
eman@@ 10931
赌@@ 10930
Non-Proliferation 10929
patrol 10929
网址 10927
酸盐 10926
Sector 10925
一届 10924
stroke 10923
证词 10922
Phil@@ 10921
mond 10921
早些时候 10920
指明 10918
经济委员会 10918
锦@@ 10918
--- 10917
entrusted 10917
nur@@ 10917
sor 10916
体积 10916
地中海 10916
Associ@@ 10914
带上 10913
碗 10913
disgu@@ 10912
128 10911
NEPAD 10911
contingent 10910
six@@ 10910
开放@@ 10910
法律文书 10910
ector 10908
路线图 10908
1.4 10907
acknowledge 10906
hua 10906
burned 10905
capita 10904
顾及 10904
卑@@ 10903
演习 10903
团长 10902
缴款 10902
济@@ 10901
况 10900
星期六 10900
醉 10900
delivering 10895
diameter 10894
热带 10893
进化 10892
1972 10891
夏季 10891
aired 10886
ecosystems 10886
工作文件 10886
unlawful 10885
bla@@ 10883
三维 10882
串@@ 10882
伤口 10880
sensi@@ 10879
跨国公司 10879
grace 10878
zes 10878
毕业生 10878
大门 10877
看不到 10877
绿 10877
罐@@ 10877
Bye 10876
cross@@ 10876
facto 10876
ican 10875
河流 10875
UNIFEM 10874
仿@@ 10873
妥协 10872
fu 10866
寒@@ 10865
释@@ 10865
inary 10864
journ@@ 10862
真理 10862
124 10860
ora 10860
Former 10859
orial 10859
pers@@ 10859
统 10859
adapted 10858
recovered 10855
rental 10855
stole 10854
Property 10853
validity 10853
坠@@ 10852
Base 10851
Facebook 10851
deter@@ 10851
dit@@ 10851
freeze 10851
世卫 10851
Bec@@ 10849
Viet 10848
不及 10847
复杂性 10845
十三届 10844
Directorate 10841
invested 10840
disaggregated 10838
单个 10838
洪水 10838
origin@@ 10837
拓@@ 10837
身份证 10837
党派 10835
章程 10834
ven 10833
尺 10833
提问 10833
警察部队 10832
情报@@ 10831
comparable 10830
髓 10830
Apple 10829
Es@@ 10829
公报 10829
indic@@ 10827
巴士 10827
0.1 10826
DVD 10826
Hall 10826
classic 10826
可疑 10826
Goal 10824
linking 10823
trick 10822
aying 10820
yst@@ 10820
研究者 10818
组分 10818
砍@@ 10817
budgeting 10815
inhabitants 10815
daddy 10814
prize 10814
抱@@ 10814
Han 10813
史密斯 10812
Mauritius 10809
licence 10809
Best 10808
bother 10808
称赞 10806
displayed 10805
美联储 10805
GE 10804
termin@@ 10804
valued 10804
颠@@ 10803
ASEAN 10802
thoroughly 10802
117 10800
pride 10800
船长 10800
ED@@ 10799
frac@@ 10798
threatening 10798
既定 10798
爷 10798
陈 10798
idated 10797
Moscow 10794
Tony 10794
枯@@ 10794
BEST 10793
解放军 10793
carb@@ 10792
prote@@ 10792
bad@@ 10791
和平利用 10791
simil@@ 10790
Housing 10787
空军 10786
射击 10783
挖掘 10783
数百@@ 10783
placing 10782
ody 10780
searching 10780
共产党 10780
1977 10778
任用 10778
第一步 10778
走廊 10777
追 10777
销售@@ 10777
dou@@ 10773
走私 10773
contractor 10770
nee@@ 10769
elaborate 10768
ensures 10766
tox@@ 10766
危及 10765
沉积 10764
早已 10761
chap 10760
condemned 10759
yi 10759
利斯 10759
grams 10757
sheets 10757
设计@@ 10757
题目 10757
Better 10756
贝斯特 10756
E.@@ 10753
avoiding 10753
certificates 10752
旅行@@ 10752
第三届 10752
雇 10751
Not@@ 10749
不敢相信 10749
有所增加 10749
词汇 10748
发生@@ 10746
Ah@@ 10745
138 10743
派出 10742
dozen 10741
一同 10741
bones 10740
ph 10740
membrane 10739
flew 10736
aves 10735
barrier 10734
几内亚比绍 10732
同行 10732
single-@@ 10730
there@@ 10730
worn 10729
人员@@ 10728
boxes 10726
prints 10725
八个 10725
一向 10723
Sen@@ 10722
modules 10722
eye@@ 10721
interpre@@ 10721
main@@ 10721
thes@@ 10721
medicines 10720
nes@@ 10720
行政部门 10720
statutory 10719
ville 10718
图案 10718
Scheme 10717
Light 10716
drafted 10716
G-@@ 10715
commander 10715
134 10714
衷@@ 10713
mac@@ 10711
量化 10711
recur@@ 10709
出台 10708
loop 10706
accus@@ 10705
Target 10704
蓄@@ 10703
adjacent 10702
Wo@@ 10701
sub 10701
warming 10701
witnessed 10698
仇 10698
optimization 10697
Queen 10696
autonomy 10696
接收@@ 10696
爵士 10696
Decree 10695
十月 10695
reiterate 10691
stic@@ 10691
nuts 10690
lifetime 10686
说谎 10685
Mit@@ 10684
法外 10684
覆 10684
fears 10683
岛@@ 10683
载于 10682
autumn 10680
却@@ 10680
总量 10679
综合性 10679
马拉@@ 10678
cad@@ 10675
ruled 10675
continuity 10674
of-@@ 10674
厄@@ 10674
疗@@ 10674
workload 10673
设计师 10673
resolving 10671
汀 10671
轰@@ 10671
acqu@@ 10669
deny 10669
join@@ 10669
resin 10669
见解 10669
well@@ 10666
生物学 10666
100@@ 10664
Saint 10663
回返 10660
瘾 10660
挡 10657
悉 10656
aya 10655
苏丹政府 10655
dual 10654
D.@@ 10653
anian 10653
进口@@ 10653
Dialogue 10651
win@@ 10651
ethical 10650
联合国环境规划署 10650
velocity 10649
姓 10649
Taliban 10648
upgrading 10648
romantic 10647
交换@@ 10647
stake 10646
节约 10646
齿 10646
grid 10645
illi@@ 10645
unemployed 10645
rey 10643
tunnel 10643
十六 10642
发射@@ 10642
鼓舞 10641
icked 10640
惹 10640
艾 10640
收养 10639
differential 10637
one@@ 10636
恐吓 10635
眼镜 10635
inherent 10634
123 10633
Up 10633
1971 10631
clouds 10631
defeat 10631
dict@@ 10630
饮用水 10630
penetr@@ 10628
宠物 10627
碱@@ 10627
cease 10626
refl@@ 10625
箭@@ 10625
美军 10625
这句 10625
traditions 10624
烯 10624
Durban 10622
吸毒 10622
dom 10621
Statements 10620
帧 10619
foundations 10617
禁毒 10617
orbit 10616
yu 10616
执行@@ 10614
ei 10613
间隔 10613
暂@@ 10612
唐 10610
撤@@ 10609
烟草 10609
eradicate 10608
pet 10603
修理 10603
竭 10603
聊天 10602
联邦@@ 10602
appraisal 10601
hung 10601
嫁给 10601
intend 10600
穷 10600
Objec@@ 10596
agu@@ 10596
solely 10596
桥@@ 10596
assault 10595
干吗 10595
草坪 10595
采矿 10593
件@@ 10592
ean 10591
以南 10588
cence 10581
lips 10581
tery 10580
applicants 10579
加深 10579
参议院 10579
接种 10575
决策@@ 10572
生病 10570
个性 10569
筛选 10569
Co-@@ 10568
son@@ 10567
Biological 10566
omet@@ 10566
中华 10566
民警 10566
辱 10566
池@@ 10565
wore 10564
妇发 10564
prevailing 10563
SAR 10562
bike 10562
放射性 10562
聊 10559
Common 10558
Urges 10558
裸@@ 10558
度假 10557
convenience 10556
orth@@ 10555
性格 10554
Six 10551
definitions 10550
停车 10549
思路 10549
斯洛伐克 10549
施 10547
缘@@ 10546
贼 10544
bite 10543
e.@@ 10543
highlights 10543
呈@@ 10543
-term 10542
duly 10542
substitu@@ 10542
两级 10542
李 10541
highway 10540
毒素 10540
现代@@ 10540
circles 10539
mam@@ 10538
methyl 10538
optional 10538
Shan@@ 10537
噪声 10536
sim@@ 10535
几分钟 10534
序言 10534
汽油 10534
Ka@@ 10533
用水 10533
语音 10531
屋顶 10530
保加利亚 10527
奥运 10527
asc@@ 10526
AI 10525
心脏病 10525
Culture 10523
Transnational 10523
教育部 10523
ematic 10522
文职人员 10521
voted 10520
军火 10520
导向 10520
enshrined 10517
subparagraph 10516
狱@@ 10516
Swiss 10513
回事 10513
bility 10512
prin@@ 10512
119 10509
春天 10509
warrant 10507
扭转 10507
经社理事会 10507
Case 10506
视角 10505
policymakers 10504
希尔 10504
lonely 10503
收获 10503
线性 10503
updating 10502
行动者 10501
hou@@ 10500
premier 10497
seller 10497
Officers 10495
Source 10495
IBM 10494
mic 10493
stabil@@ 10493
力学 10493
排名 10492
contributes 10490
pharmaceutical 10490
dos@@ 10488
申报 10488
Fil@@ 10487
half-@@ 10487
深化 10487
Corporation 10485
continental 10483
维斯 10483
spatial 10482
东南亚 10482
列举 10482
停下 10481
辞@@ 10481
东耶路撒冷 10479
南亚 10478
Arab@@ 10477
现任 10477
RA 10476
prosecute 10476
具@@ 10476
tom 10475
再生 10475
sedi@@ 10474
stepped 10474
fulfilled 10473
vals 10473
compete 10471
analo@@ 10470
CEO 10468
同次 10468
passes 10464
syndrome 10464
计划署 10464
全文 10463
disappearance 10462
ICT@@ 10461
耦合 10460
醒来 10460
Currently 10459
Juli@@ 10459
报警 10459
董事 10459
fiable 10458
regrets 10455
吃惊 10455
fla@@ 10454
人来 10453
autom@@ 10447
叙@@ 10447
中午 10445
ter-@@ 10444
欧洲人 10444
妻 10443
0.7 10442
loving 10442
Blue 10441
气象 10440
逃跑 10438
递交 10438
bars 10437
degrading 10437
proc@@ 10437
artic@@ 10436
廊 10436
议案 10434
SR 10433
agging 10433
briefings 10432
removing 10432
divide 10431
Iranian 10430
inhuman 10430
微生物 10430
itated 10429
检讨 10427
akers 10425
打死 10425
赏 10425
protest 10424
勃@@ 10424
gang@@ 10423
persist@@ 10422
strip 10422
lou@@ 10419
Soci@@ 10418
retro@@ 10417
riding 10417
笑话 10416
买方 10414
circul@@ 10413
双手 10413
外界 10413
连接@@ 10413
1961 10412
奋@@ 10411
loo@@ 10410
上网 10410
幸 10410
联利 10408
追究 10408
UNAMID 10407
stric@@ 10407
早日 10406
virtue 10402
杰出 10402
金属@@ 10402
ensured 10401
学员 10400
Logistics 10399
Reform 10399
乌兹别克斯坦 10398
高级官员 10398
ote 10397
减免 10397
lied 10395
0.05 10394
客户@@ 10394
第十四条 10394
databases 10393
valu@@ 10393
马尔@@ 10392
sibility 10390
传说 10390
长期@@ 10390
Cuban 10387
cub@@ 10387
依赖于 10387
固定@@ 10387
Gulf 10386
一事 10386
春 10386
medium-term 10381
模板 10381
述@@ 10380
in-depth 10378
研究@@ 10378
稳 10378
诱导 10378
generous 10376
teenth 10375
督@@ 10375
inations 10374
卧室 10374
女王 10374
Cr@@ 10373
tremendous 10373
下滑 10373
卷入 10373
威廉 10373
semi-@@ 10372
appropriation 10371
reservoir 10371
学位 10370
羽@@ 10370
Want 10368
neutral 10368
矩阵 10366
backed 10363
死者 10363
消防@@ 10363
作出努力 10360
延续 10358
osity 10357
不足@@ 10357
爵 10357
MA@@ 10356
fragile 10354
stre@@ 10353
jing 10352
胃 10351
ached 10347
coordinator 10347
efs 10347
ugly 10347
问问 10346
Ash@@ 10344
february 10344
殖民地 10344
agon@@ 10343
避 10343
不良@@ 10341
ashing 10340
案情 10340
Mul@@ 10339
关键作用 10338
硝@@ 10338
绑@@ 10337
mitigate 10335
shake 10334
慷慨 10334
Brown 10332
Max 10331
朝着 10331
跌 10329
傻瓜 10326
Follow-up 10325
somehow 10325
书面@@ 10325
周二 10325
裤子 10325
amino 10322
preceding 10319
所致 10314
descen@@ 10313
六届 10313
无视 10313
联合国秘书处 10311
therapeutic 10309
强劲 10309
entrepreneurs 10308
肖@@ 10308
敢@@ 10307
discover 10306
pro-@@ 10305
[...]
